3d4dbf12
3ca67024
3d9cadb7
bd05d0c9
3ce64618
3d8b4ceb
bd6f8380
bd837936
bd7dae38
bd8158fb
bcca1838
bca46864
3ce283a0
bc1dc180
bda457b0
bc499130
3b869ac0
3cd4aa00
bd5064a4
3c701e78
bd4cdb2f
3c22e560
3c1345f8
bd17c835
bcf12054
bc387c90
bd63c4e3
3c4a73e0
3bc56640
bd80fc2e
3cf193a0
3c3524b0
ba1cf800
bd74d31e
3d040564
bbba6130
bcca5afa
bcb459e0
bd97ee90
3d9b6ed1
3d213d18
bd5c4833
3d6abb42
3d54659e
3c89861c
bd84c28b
bd9dd1da
3d988c95
3d8ae721
3d8852ed
3cba7978
3b1995a0
3cfa4d2c
bd4d3158
3d13f07e
bd99bff7
3cc61800
bd0cd2a1
bd282fdb
bb394400
3d81c337
bd6d0a88
bd107531
3d7037ca
3c165708
bd85caa4
bd01ce82
bd9a63bd
3d99cbf5
bd10b7b4
bd4a61e9
3c021740
bda2dc84
3d093d1a
bcf1bc82
bd97c196
bd9e100b
bd30a7be
3d814415
bd9ef4a0
bcc39b86
bd02e718
bb0bfc00
3bb78ed0
bd3403cd
3d626822
b7a07000
bd8d804e
3d51376a
3d121690
bc8fb628
bc73baf8
3c8937c0
bd354c57
bb5e00a0
bd03b885
3d9c7139
bd92855d
bd3374ae
bd97edd0
bca157a4
bd0358a6
3ce5f878
bd4cf622
3cdfa1d8
3b6e68a0
bd8e70a8
bd1c4d89
3be22320
3a2e8400
bd94e552
3d9526db
3d906337
bd4edb8f
3d900c29
bd30dcab
3d7f8386
3d6b5996
3d1b05e8
bc15d910
bd0d8f40
3caa71b4
3cb4e4bc
bc67b4c0
3c834328
3d1087b4
3d8a5b63
bd88516a
3d6be0ba
bd975aa8
bd03815d
3aaf2540
3d7f5486
3d0312e0
bd70c750
bc687da8
3ce020b4
bcbdf020
3d0207ac
bb9b3f70
bd75d306
bd2e8513
bd9c0ff6
bcef2298
bd9e434e
bd554346
bd3669cf
3c9dba60
bd0480c3
3d628e26
bd716508
bd0e04f6
bd5d3ace
3d7378da
bcd71e9a
bcbc1492
bd12b079
bd168882
bcf04c4e
bca8fea0
bc58dfc8
3cfe02e8
bcbd7c24
3b1d47a0
bd8f9ef0
3d6c0f56
3d4ce002
bbf4e870
3d3f144e
bd2a6b81
bd175e6b
bd72e222
bd1d7313
bd707422
3d2ffff2
3c3beaf0
3d756ada
bc0acc28
bc23f720
3d88d261
3d7c8626
bacea480
3d982233
bd083b7a
3d88a445
3c002400
bd8fb185
bc42d3b8
bd9cab38
bd7671f0
3d04f002
3d97b5ed
3d5c71f2
bb12e060
bd9cf2d4
3d9c8f9d
3c3da400
bd90ad47
3d90ea1f
bd4cf5aa
3b9c7380
3d246a12
bd8eda1f
3d8c10f7
3d7fb452
bcaabff0
bd7332f0
bd20ff50
bd9db76e
bd6284dd
bd118eba
bd9fa426
3d9a3ff3
3cb9087c
3d5e273a
bc9e94c2
bd0e3de2
3c09bb50
bd53bcee
bc88198c
bca7d09c
bd1c89e2
bd8490df
3d9c225b
b7e22000
3d3b3576
bd688553
bd814524
3c1103e0
bd27c955
bd57cc72
bd157e5d
bd41f72f
bcb3afea
3bfd7500
3d8f5db7
3d2c92fa
3d626172
3cf08490
bd3572fd
bce42d9e
3c6f0580
3d9f5bcb
3d608106
3d842691
bd22cef6
bd633cd2
bd902ef3
3bc955f0
bcff0636
bcd801fe
bd42b766
3d8e0545
3d9ce0c7
3c3e5330
3d866ddd
3cec6fd0
bd3f010b
3ca6fcd4
bd3dab2f
bcea58ee
bcab3cb0
3c3a8648
bcdf1f6c
bcc70e16
bc966334
3bde94a0
3d8af639
bd395fee
bc84f3cc
3d574f9e
3d3d1112
3cb3c268
bda38d97
3d89daab
3c73cf80
bd8c035f
bcc86206
3d8aa55b
3c4b8df8
bd1d5dd3
bd2b4b01
bc98e142
bcf24136
bc089000
3d83c67b
3cd1a958
3c3bead8
3d7d517e
bd4eac2c
3da4ec27
bb3cf0e0
3d63cc82
3ca8e0dc
bd83b551
bcd10204
bd877dcf
bd47c414
3d879e03
bcf47e94
bd565c62
3d40e9ea
bd1776c0
bcec8c68
bc8253ac
3d8077fb
bd6b978d
3cf8357c
3c0175e8
bc063dc8
bc708b58
bc4e6308
bd802516
3d4c7506
bbf13660
3d80db4f
bd292da7
3d55f432
3cd198c4
3cce7374
bcdebe2a
3b7d1200
3c951e30
bd811368
bc87b174
3d365fd6
bc463ac0
bc6b1d68
bcaaa818
3d48e08a
3d8a9d7d
3d15e1f2
bbe1b140
bd1dc706
3c83ef64
bda500db
bd1d4c0a
bd91a0ae
bd3091a9
bda15f80
3d9dc8e3
3d053c64
3c281400
bc6e7018
bc384ad8
bbf2f430
bc64b940
3d61cd4e
3cead600
3ac54440
bd82a029
bcc73d6a
3d6ecdb6
bd8cf3b1
3da61bbd
3c687bb8
3d51e516
bda50e5c
3d4b0456
bd8ee8cb
bcfcad44
3c9753bc
3d094aea
3caf410c
bbe57530
bd93b8ce
bd8113cb
3d9d76f5
bcdd6376
3d8be96d
bda0c0d3
3d193516
bc2945e0
3ce1d320
3d819ba9
bd3961a2
3cc3fc9c
3d0cb520
3d9c4d4d
bc280268
3d9012bb
3d84973f
bcaea762
3d94565d
bc67db70
ba63f900
bd6bc26b
bca4c2fc
3d9b1c5d
bd6c312c
bcb67670
3cd4e50c
3c3c56a0
3d947303
bd017b5f
3c500b78
3c3f02e0
3d4e4966
3d5b58de
bc9449ac
3d8343df
3d08c852
bd82f6a2
bd4f1884
bc88729c
bd397c09
3cc12a9c
3ccc7308
3d594436
3d88bf9b
bd8c85af
badbddc0
3bb3b6f0
3da3fa4b
3d567c7a
3ccb3a64
bd0f2377
bd60bede
3d5a1de2
3c9d03e0
bd856c2d
3c69ff98
bca698dc
3cb56de4
bb851110
3d927455
3d9c075f
3cf8a08c
3d97d42f
3bb74ea0
3c905950
bce2a41c
bc269af0
baa32500
bc6e3e28
3d1cfaa6
3da5aae7
3c9bfa90
b9de5d00
bd6aebbd
bc3ca2e0
bd30c17f
bc28c158
bd48f064
bd817453
bca12daa
bd7b5c4a
bd599561
bd5f9934
bd04258e
bc9319b8
bd26ddc9
3d8ca033
3d912fff
3c01ecc0
bd79c3cc
3d145afa
3cb61d6c
bd827376
3d846481
3d69598e
3d6287f2
bc8fa828
b8a97000
bcdd057e
3d7da65e
3d7c1c36
bd9d3329
3d4c7f76
3d9050c9
bd7fd501
3d2b5c28
bd9bd85f
bc43db28
3c7462f8
3d05b164
bbe20160
3d767f72
3d8a6e11
bd8bbfd0
bd9f060d
bc363158
3bb47c10
bd913824
3d1f58ca
3bc91dd0
bcc06dfa
bcace576
3cfa0014
3d881a23
3d578f02
3ca87224
bd95be52
bc03af78
bd8c0efa
3d8d0893
bc82071c
bda59569
bd1d2bc7
bd8dfa8a
3cbf8bc4
3bc0c4c0
bca0be0e
bd8aae01
3d8c13ad
3cceffd0
3d8ebd25
bd03a37e
bd93d7bd
bd174ceb
bb530f60
bb45dbc0
bbf9c720
3cde3484
bd844088
3d82aa21
bc7f2a58
bda4e434
bd9b0223
3d18c9ea
bd678cdc
3d022f0e
bcce96b2
bc021958
bb449dc0
3d740482
bb846aa0
3d88753d
3da34a13
3cdef124
bd94633d
bb63b020
bc2360d0
3bace1e0
bc0761c8
3d232b2a
bd9d55fa
3d7520be
bd23f5c7
bd8ffa06
3d1371c2
bd4191ad
3d6456be
bcb14ee4
bc501f58
bd6e5d8e
3a97fb40
bd694550
bccfc374
3d2dcd24
3a151c80
3d58ecca
3d3c069a
3ceb5f20
3c5e9488
3d602b36
bd5f45ae
bcb27fd4
bd55c9bc
3d09e48a
bd8e149e
bc672f40
bd303c50
bd0df30f
3da53db1
3bc574d0
bd702452
bc5209c0
3da2d58d
3cfac244
bd3fd52b
3d9de7f1
bc694af0
3d853005
bd59da87
3d8c058f
bca5d614
bd99e640
bd8879bd
3b4b67c0
3c2fd328
3c8c5d94
bd3a73d4
bcec15d2
bda1bdd7
bbd56170
3cd912c4
37402000
3ca44970
3d390d0e
bd3e948f
bd2962a3
3d208e8c
3d87d285
bd0cbd41
3d01c8e0
3d29fb0c
bd84629c
3d626a32
3d363c02
bd2d72e2
3b54d9e0
3d1f5fbe
3da1fc35
bd0822f1
3c9ef3e8
bd40f512
3d309422
3d4f4312
bd9e87be
bd78a480
bd5fcfd6
bc529ca0
ba9eab00
bd506900
3d0d0f62
bce95d72
3c0fa348
bcef16aa
bcb60a3e
3cb83ae0
bcfb80f4
3cde4460
bc073b08
3da44967
3c90333c
3c9b32a8
3bd7f510
bd743def
bd53afa0
bd04c576
bd88245e
bcd1f530
bcbdeb4c
b9278800
bc9ca98e
bd88c8b3
bca86f78
bda35012
bd596252
bb086fe0
3ca974ec
3d1dc970
3da0a915
3d134a2e
3d530052
bcde5edc
bd2e71f9
bb9e9250
3cd9fe70
3d4bde66
3d3ef45a
bd46210a
bd63903a
bd029f26
3d292a8c
bcb4d362
3af19540
3d744e56
ba9e47c0
bd857a1e
bd30905d
bcdb53a2
3d612fc6
bcb94042
3d5f303a
bba55ea0
bc2fe928
3b8ca270
bc44adf8
3d2c780c
bd92dd54
bceebdee
3d4c570e
bd7ed504
bcc8d2b0
bc9ad544
3c465ff8
3c15d968
bd47015f
bd060e68
bc1dd098
3d02bc2a
bd38a4af
3d91a875
bd5132c9
3d90baa9
3aa46fc0
bd4d7bf7
39348800
bb6d0880
bd5afa8d
3caecf4c
bc686ec0
3d1c17c2
3cbce25c
3d5c884e
bd787490
bd1044ab
3d288a7a
bc045e80
bd7326da
3c02f650
bbb850b0
3d80b521
bd94aa86
bd479a54
bcdd5aa8
bcc3518c
bd7e7f92
3d714f0e
bbdb26d0
3ccabbf0
3d7ecac2
3d46964e
bbd7dfd0
bccdfcf4
bd30a09b
3d94366f
3d0eea44
3cad69b8
bbf2ede0
3c268ab8
bbd99ba0
bc89bcd0
bd5ff380
3d8cf6a5
3c7036b8
3d239988
3d02c8c6
bd3a8fb5
bc2a2b08
bd98fe21
3d2cb888
bd77ca74
3abc2e00
bd2ea523
bd80fa2f
3d80e4e1
bb3363a0
3c1387e8
bc9ef50a
bd9f7638
bd975c80
3d6583c6
bc9304d4
3d0776b4
3d0c413c
3d8175e3
3d6d900e
3c956770
3d3d751a
bd4ba769
3d5d8c12
bd63d732
bcb9737a
bd792888
3cea60b8
3c8bda1c
bd3ea5b1
bd862c25
bd55cdab
3c4d08d8
3ce2c1cc
bd1737df
3d181b3e
bbba6db0
3cd1fb78
3d6ef166
3d88fecb
b9857500
3d176cc6
3c018320
3d9a6d2b
bd62a146
3d7dc33a
3bfb1670
bc162228
bd1b0f66
3d1689ba
bd5e4bf1
bd930398
bb7e7220
3c5f3b20
bd12045b
3c5ebda0
3da0b8c3
3d79ad8e
3d402dca
bd78d6b0
bd17ce4f
bd257348
bc94a7e4
3cb2e670
3cae3e44
bb6c8fe0
bafea640
bd0292bd
3bb14040
bb93c150
3c2d2d18
bd915276
bd0fab59
3cb531f4
3c17efa8
bd10898d
3d890c91
bd894d34
3c3a7ad8
3d2226b2
bc0d55c8
3d495a46
3c83a108
bcd1035a
3d74f386
bd806714
3c4cf180
3d15c9bc
bd598bf4
3d4fc452
3d2ba11a
bc856704
3d59a6ae
3d40df5a
bc5b20e8
3cdd466c
bd9e61d5
bd830945
bd504a9b
3d9b13bf
bd18af45
bd9ed3d1
3d337f4e
3ca31468
bd5fd6c0
bcedcb88
3d91a85b
3d868fe7
3cdbaf2c
3d5e9146
3c44c6c8
3d42f416
ba7ef780
bc8f52f4
bd770def
bd67033c
3857e800
bccecd14
3d240bb2
bd078055
bc5b66a8
3c260c00
3cd355a8
3d7b71aa
3b761460
bd0ea19c
3c83b2d8
bd3ec96c
bc98ab12
bc9632f0
bd44577f
bd93e7b5
3d649fae
3d8fdeb9
3cced284
bd2d3cf1
bda57eb3
bd15c02f
bd01242d
bd0a763b
bd43ae9a
3d92c735
3cb23cf4
3d2e8d0c
bc276550
3cd3def0
3d8c79fb
3ce51118
bd1381c8
bd1dc6ec
bc1c7478
3d16f04a
bc2ee6b8
3bb3bf40
bca963f0
3da55d99
3cdd3230
b88e8400
3ccc4618
3da3dea7
bc4834a0
3b9ac710
bcd8eaf2
3d2c2c84
bb039980
bd80c071
3ca33c68
3d76f2d2
bd42b69b
3d90b391
3c48b918
bc707078
bc118708
b9f86f00
bd07c218
bcf51dd6
3ce854bc
3c1d1d58
3cd250d8
bd321d51
bd94d538
bb560d20
3d5ea9a2
bd941e0f
3d4f5f4e
bd056ade
3d2303c8
bd2413c0
3d3ed02e
3d415932
b99a7200
3d699642
3d290252
bcea3a10
3d917f77
bd8ec765
bd98ee53
bd5cc409
bd630e63
bd3a67e2
39d0c700
3d609e22
3d4bf71e
bd03b95a
bc60ebc0
3d2cfb8c
bd89c19c
bc88c294
3d0a540c
3cbf1dd0
3d9ff5f1
3c3ab1d8
bd891187
3c5683d8
bd666044
bc698720
3c8828a4
bd761cac
bd1151da
3ba1f580
3d31d3fa
3d24f504
bd7e5a76
3d8e6acf
3d202386
bd519dab
3d814fb9
bc83cfec
3d32d092
bced7368
3d73d52e
3d4ab12e
bcbab164
bc744040
bc5150c0
bcf20f00
bd4e547e
bc9df5a0
bc7cd820
3c3378e8
bbf1ab60
3c991198
3d4fdaa6
bd5fc382
bbd01930
3d1761ce
3d91ded3
bda3d93f
bd09eba2
3d70f56e
bd737b69
3b631080
3c14ed48
bd81688b
3d93d1f7
3c2b0070
3d68cd3a
3d55ce8a
bc87cf04
bc1922e8
bb981190
bda4e390
bd294a29
3d5acdc2
3ca6d304
bda4776c
bd2de0e8
bd833505
3d31aec8
bc4439f8
3d9036b9
3d9764e9
3d07661e
3b436fa0
3d9847d5
bd6a3b00
3d807ac9
bd95a69e
3c9e1700
bb901f80
3d2de4c8
bcaff940
bc666110
bd8e25b1
bd215e99
3b3c6d20
bda45580
bd1896ad
3d60f146
3d074788
bd6d9cd6
bd063dd6
3cf5ecb8
bcd8204a
bca6fd70
3d87b677
3d841007
3d41546a
bc7ac570
3d689c56
bc839730
3d0721d6
3d9b1545
3c901b58
bd49c9ab
3d4ba556
3d377592
3c922360
bbb356c0
bd781290
bd004568
bd8fb284
bd4e2562
3cbc9fe0
3b848270
3c7b9f88
3d23ddd4
bd82aaf6
3ca00b20
3ceb5fec
bcd3f040
bd283ace
bd815dd9
3d80d157
bd9549a2
bd0e9a8d
3d99ffdd
bd06c906
3bd2b850
3d0019f8
bca8bb2e
3d50eea6
bd05cef0
bd093e86
bd5fe26e
bccee630
bd41c0a3
3b2d5600
bd992009
3d6cceea
3c2f2368
3d221040
baf48180
3c94d020
3d136d2e
3d5d4506
bd6b14c8
bd9577ed
bcbaa0c4
3d613686
3b6b63c0
bd5c3233
3d1c7a74
3c5695d8
3c9e177c
bda4b264
3d4dcb92
bb305c80
3ca2da24
bccbc50e
bd55b5b3
3d322018
3d99ea9f
3d7f96aa
3d07ee3c
3d834b01
bd8b0a4a
3cf20654
bc084ae8
3d7134ce
3b88d790
bd1d37be
bd2e0bfa
bceed7f8
3d9a53f7
3d854755
3d557656
bd183dcc
3da590a5
bd61bb2e
3c870288
3c8acf9c
3d96eca1
bd53101a
3d66b9a2
3d2487cc
3d5507ae
bd094e66
3d694912
bd7d1090
3a51af80
3c82bdd8
3ce56fc0
bd1218d1
bd7bde78
bd51fe7a
3c79bee0
3d5def52
bd7fbfa6
3d0c62b8
bd6707c2
bd8ace28
3c1af4a8
3d7c47c2
bcf2325e
bc402580
bd5df5fc
bc459ca8
3d9a26ed
3d746b6e
bd9641b0
bd3c0661
bcbdb9be
3d6de7d6
bd0578dc
bd71ddfd
39eb0500
3d9658d9
bcfc2ab8
bd2dc432
3d104fd2
3d13091c
3b88f800
bc13a298
bd827c8b
bd58aa3e
bd615061
3cc1cdec
bd171dac
bd9ce142
bc58efb0
3d80a659
3d8e2047
3d8747a5
bd7cb99c
bd274aa8
bd2c8fb6
bd802117
3da2320b
bd71128b
bd0c1275
bd878d40
3c4fd278
bce04198
3cb766f8
bd050b8b
bd21e641
bd4e1380
bca912c8
3d5e99be
3c9993dc
3d1d5bf6
3cb253fc
bd251abb
bd787b22
bd92dae2
3d1cd6e0
3b640d40
bcf3c8c4
bcc416a6
3ba02830
3d108086
3cfc28b0
3d177f4e
3d05c686
3c400620
3d89c159
3d14a560
3d352782
3d058342
bd3736d1
bd87e59f
bd71053e
3d4f3386
bbd2be00
3d39726e
3af41e40
bd3f23ad
3d480aee
3d4161d6
bd88ed30
bcabd1da
3d73e42a
bd867abb
bd7067e8
bb678f00
3c79ed40
bd90ae3e
3d1f6b3c
bbbec160
3ca63be0
bd966926
3d933659
bc094e88
3c0e90e8
bc679cd0
bd38559a
bd664340
bd50dfee
3d11d392
3b172840
bc51b7c0
bc7a31a0
bb4b0c40
3cbca590
3c2cc410
bd12be77
3d852707
bd449cd3
bcfc6eee
3da2f4bb
bc408cf0
bda60a7c
bc9295a0
bce4a77e
bbc084d0
3da493db
bd1364dd
bce7e3fe
3da359cd
3cbaa9d0
3d3d36fa
bc8b3c4c
bba38800
3c854940
3b1464a0
bd3c86cc
3d8f63d3
3d7c09ca
3ce80f1c
bd864c15
bc396c18
3ccf3e3c
3d94989b
3c8cd86c
3b40c360
3ca45ee4
bd192b93
3bdcf430
3a961900
bb56e440
3cc33a8c
bd86d456
3d30a3b0
3d49136e
3cd717fc
3d5f69e6
bcb3756e
bda21465
bd3bcde3
bd8da039
bd73cd5a
b9adc200
3d0eea44
bcc69208
3bbf5550
bd4ea921
bd69885f
3c92b384
3d52f64e
3cd9f4f4
3b75d380
3cd558c8
3cc7c730
bd787bd3
3da0cc77
3d653e6a
3d581346
bd363338
bc635d70
bd992643
3cc6ea30
bd596e68
3d961bb3
3d658242
3cb7b3f4
3d75b982
bd1de9cd
3d905091
bd36f739
3cbfaf54
3d651cb2
bb478560
3d95356d
3cdcd0f8
3c871600
3d069532
bd85297c
3d9774af
bbfdbfa0
bd583710
3d35daaa
bd8c87dd
3d49e77a
3d89bd15
3c3b4248
bd61b375
3c8575c8
bd4faba6
3bff1f50
bcec9500
3cb79e0c
bd92e2a9
3cf3d61c
bda2b264
3cf8eba8
3d9855b1
bb8e2e70
3d37f2ca
bd6eed29
bca805f2
3d5b0e2e
bd36215b
3c90d554
bbaf6d60
3d4ffa92
3cf4c824
bda213d7
3aca79c0
3cd5087c
3d0c5d1a
bc914f68
bd6863aa
3d03f044
3d4b000a
3cf520a4
bc96b5f8
3d06426c
bd1b07e0
bcbc9da6
bc9e299e
bc9cecc2
bd604bac
bd16e86c
bd2b837a
baf9b100
3d2642f2
bd47ad59
bca22964
bd96567c
3d57016e
3c738ae0
3d9f50f7
bd972392
3d5ad286
3ceefa90
3d737d12
bbf150b0
bd12c40b
bd90110d
3d8623cd
bcaebac6
3b192740
bd571a05
bcbeeb72
3d84c509
bc9d60aa
3d8497cd
3d93a34d
bcbb166a
3d863eab
3d26a32a
3d4e2e8e
3d98d2a3
3cca0590
3c6a6718
3d11b152
bd5e0ce1
3d9e3229
3d946b11
3c836f98
bd1ce4c9
bccd93ca
bd564d32
bda07115
3d8fa591
bd8c5538
3d387442
3a136200
3c3ab458
bd0d3f80
3c935854
3c53c028
3b9dd570
bb145b40
3d185316
3d88206b
3bc25780
bd858648
3d784562
bd1215a7
bd4d7f30
3d203888
3d954711
bc112168
3d7a2d1e
3cdcbeb0
3d0d55be
bd9f2600
bbdddd20
bcb55e20
3d1e6822
bd0ce28c
bc8135d8
bd829ea6
bcc6ce22
3d10b334
3d959377
bcc7a64a
3cd85bb4
3d96b365
3d5b7fe6
bcd465d2
bd565145
bd6927fe
bd6d7dca
3d882ecd
3d8069bb
3d558fde
bd81c582
bc589e68
bd8bf361
bc8c5278
bca5fa16
3d12d394
3b3916a0
3d9ba7e3
bbe4f9c0
bd711f42
bd7bc9ba
3d44371e
bd8b4d54
3d71e1ae
3d6fe31a
bce9e4f0
3d624a66
3cd8e188
bd5b599d
bd84f696
bb849e30
3b8acf40
bced2168
3cd7e5e4
bd388054
bb859d30
bc7361c0
bcddecfc
3d07f29e
bc37b680
bb744c40
bca7844a
3d532986
bd908e94
bd8c590b
3c827bbc
bb8755d0
bc218e30
3c8fc290
3b170d00
bca4617e
bd47ca9c
bd00b9a3
3c881c44
bc807f6c
3c971a30
3d69f5aa
bd421cb8
3ca934d0
3cc36754
3d9ef077
3d59f2c2
bd891afc
3cb78a0c
bd106404
bd2dc516
bd1e823f
3a7bc980
3da30c2b
3d8e8225
bc31d9b8
3d38527a
bd4494db
bda57bdc
bc33c610
bd8a4b91
bc9f8ab0
3d791862
bd5a087f
3d7f986e
3d7e2f12
3d909317
bd67a744
bd53bbc0
3d04809e
3c8a9cc4
3c963490
bcb16936
bd8c3f38
b9f09800
bd4b60f2
bd4ba6bd
bd997956
3bb82b10
bd839708
3cb8f9c4
3c74d660
bd1c7a71
bc9fd2ec
bd7ca788
3d1a4e66
bb7d90a1
3cdf3ae0
bcee99f6
3cc1928c
bd42c67c
3b89ff81
3d537c23
3d46b78b
bcf1aaa9
3dbd7f98
bc84b1e4
bd8f2ae4
3d04491a
bd23ce9f
bc90b499
bd74558b
bbe6fd14
bc9cba6e
3b7aab7e
bccc76da
3b1f9403
bdb6fb28
bd70b9ed
3dbc957b
bcbb00ec
3c7cb3e0
bd787bf7
bd1d1a67
bd88fde5
bcbda39b
bc6600cd
bd427946
3e228016
3dd7b6b4
3d07bdc0
3d115f71
bd11877c
3c8602a6
bd22a758
bdcb0aa8
3d98aee3
3c9b7ad8
3c5e8f3b
3da38c9b
bc5d22cc
bccee7a2
3da63db9
3cdf8635
3d476f0b
bde557fb
bd288447
bd87c5bc
3dfebea0
bb223bd4
3d0db89f
3d851656
3da279ce
3d16966b
bd2924b5
3d923db7
bceb2eed
3cb08fd4
3d143c3c
bd3d4d10
bd920353
3c8a5973
3cf44074
bd9490c5
3d73371e
3d0584f2
bd4bc495
bd1f44da
bda20c0c
3c816a19
bca39215
3d033500
bd5645c5
bca50a4d
3ac2291a
3d2116b6
3d1d2ff0
3db0dad1
3dd3f087
bd96c077
3d5e4233
bd94169a
3dfd996d
bd15181c
bbeddc28
3dacee44
bd0d8efe
3c4f1756
bd5b3e19
3ce5c05e
3da000f3
bd30d11c
bda28fc0
bd969f7e
bdf4c05b
bcf536d4
3d1f1a60
bdc3df68
bd000973
3c95b3ea
3d493795
3d9ebbcf
bcdca8ac
3d626e87
bd2b435c
3c3d326f
3dbe459d
bc86efac
bd417afd
3d277642
3dd9577e
3d1c9ed9
3da58b61
bdaa3054
3c642293
3cd92970
3d4f633e
bdc54cbc
bd4d8b1c
ba021975
3d12bf67
bd9c47fe
bdb450bf
bdc6696d
3dc64437
3d1f2d4a
3d77deef
bd0d30dc
3d58b592
3bd19661
3d89877d
3c955053
3c881d2c
3e1bafc3
bd182f42
bd453e58
bd04cce2
3d0aa950
3d3269cf
3d22fda5
bc43629e
3be55150
bc355d11
3d8782d1
bd4f1d1f
bdbbcc14
bd716086
3d479e2d
3caa56a0
3b7fa160
bc59992d
bdb9c7e2
bdccfbf7
bca967d4
bd97a99b
bdfa1329
3e0b5bcf
3b40838b
3c2e36d0
bdceeab9
3cd00552
bdbda3a1
b60722aa
bdb68a34
3d7bc982
3d83965b
3d45c528
bd106fc2
3d7b7f8b
bde2090c
bd436fd0
bc707c8c
bcb42779
bd841e13
3d7e616e
bc1b8cef
3c522f8c
3d293f66
3d951ab3
bd0ed92b
3dc17c5e
bbddc375
3d8ba153
3dcb4668
bd885767
bd2f3e93
3cc06950
bbe873b9
3c2cb0ab
3d8d73d2
bd2d3e86
bd15258c
3e040269
3d203d03
3d991a04
3d519232
3cd2fd0a
3b9dc494
3c2a3f5d
3bf4dd70
3d8b75a1
3d7143e0
bdb279fe
3d78971a
3d71aa6e
3db37485
3e010dcd
3a82af00
3d7d1973
bd0ecf2f
3e003b2d
3d6bb8ac
be039df2
3c537a1a
3d10f578
3db3b2b3
3da58dcb
3c104ae2
3d770c8f
bcdc3a10
bcfb887a
3d4c8cba
bdf0d775
bda0b52e
bd9a6974
bd8633b0
3ca87932
3d2f008b
3d2bca69
3d8c7211
3d1e9d44
bcc99685
bc2e8408
bdcab9e1
bc9b2455
bd98667c
bc1b04cf
3dd96e58
3d7d6698
bb4a5e73
3d2e165c
bd78172c
bdcc1a30
3bf1d1d0
3d808387
bd6a6807
3d64fd0e
3c197e81
bc73f049
3d29ef24
bd8dfa26
bcf667c5
bc0885a8
3d8149ae
bd2ef2fa
3d6b944e
3d164210
3dc29d75
bc390b58
bd2ad6bb
3d941e7e
bc8b89db
3cda0274
bc772000
3d15215a
bd35e2cc
bd1049a1
bd6107a0
bc822a5c
3d9c822b
3db238b9
bc2acfb0
bd6b06aa
3db1f6dc
bd1fb01d
bce130e2
3d81b243
3d216f1a
bdda344b
3d99bee7
bd90dff0
bd82b1e5
3d1f4c5b
3d191aa9
3d1e8954
bdc5f358
bd8fc858
bc42bf33
3d3ab924
bd1ce02c
3d354f90
bcfcad72
bd778230
bd73f56c
bc6d0567
bc709809
3d99a96f
3d91c4a6
3dd2e76b
bc882326
bc7216aa
3d40235a
bd88e544
bda55020
bdac3fc9
3d42019b
bb3b64f5
bd6af9de
3ce32255
bd916bae
3d90644f
bd3d1dbf
3d3ce352
bd98090b
bc95ecbc
3d84865b
bd61c9a2
bb9db1bc
bbc208e0
3d0a31cc
bb0b4e91
bcc30b6e
3daf2fc3
bd1a34c4
3d45c16b
bb4f7e1a
3d30bb73
3d1341d2
3dc50ca9
bd39ebd0
bd8af9ce
3d7dbaca
bd8bff6d
3ced4a5c
bbc35f83
3c83b38f
bc8c34ac
bd5d37b8
3d72ecf9
bd5913ec
3c912340
3da20d18
3a15cd00
3da77e05
3df0c45a
bd919407
3ce176ad
bc3bf1a8
bc676940
3d8117c9
3db6064b
bdeb1aa5
3cc8e4c6
3ce2cf38
bda4d130
3bc74df7
3d4832f3
3d928b67
3d2d1416
3d8c2ce3
3d9b4ed3
3d90d054
3c81c2ec
bd0e6a55
3cfa467c
bc3e1ccb
3dbfa209
bc76d168
3d92b191
bb97639a
bdcf4cb5
3d96192f
3c9bf3c9
3dc7b14c
bd04ea01
bac534a0
3cfd4983
3babb140
3d5f3358
3c912564
3d33094f
bca74b5a
bd42634d
3ce4d208
3c9557e4
bae66640
bccc7d04
bd4e9134
bd9d0047
bd8b0308
3c2273b8
3d096910
bc8d986c
3d9af7b5
bc1f85ee
3d7bbba9
3c3d2f84
bda3d469
bc270b3a
bd02410a
bd37da94
3ce4df2e
3cd3b60f
bd767a91
3d8e9d83
bd836efc
bd80fcd6
bca5961c
3cc1db4a
3d408522
bbcf67dc
3bbd4ea4
3d697f03
bd3936d0
3d22f318
3d1dbaae
bcbd179c
bc8f28e4
bbd06b2b
bd9a2ef9
bd8b0d07
bd161221
bd4e4cd2
3dc798e5
bd676ac2
bd83dce3
3ce9829d
bd412022
3c82729a
bd7df3c6
bd9da795
39776f32
3d83a59e
bd519f9d
3bd4de47
3d1b1eb8
3cc6d3c2
3d78f17f
3d3e5808
bda201cd
3d470cd0
3d78431a
3d0ce08a
bd48c2eb
3da32bd3
bc1ecafa
3d03ac6a
bc381038
bd255223
3d0dd92a
bc347ae9
bd10b3a5
bcfa8a2f
bb76b983
bd5709b6
bbb3a5c0
bd5ad8e8
bd968634
3c498a08
3d3e50ce
3d3c3356
bc8ca678
3d25d380
bcb3a809
3d719c5e
3dad2d8d
3cf23064
3d571af4
bda47d5a
3d47e65b
3ba11b00
bd7b8208
bd1a4322
3ca028f8
3d19ea0f
3bee4ae0
3c11a6e0
bd96c779
bbbb5420
bd94ce50
3d59a2c3
bcf4b746
3d7363cf
3d9274d6
3d134401
3d066964
bcaf67cc
bc5f9430
3bcc9890
bd73ea4b
3a9a1c65
bd0bf907
bc6e6ac0
bd3ce627
3bd3fb91
3c836fba
3ca3c564
bd92535a
3cf5d428
3cd2c660
3d01d2cb
3cd67237
3d8f8f65
bd84e48b
3d9d65ed
3d1de2d8
bd03fe41
bd20f04e
bb003f00
bd8e49f5
3d02e258
bd3ccf5a
3d945b15
3d203136
bd9e5353
3d3743d6
3d70b70e
3d6c5df2
bd44cdc6
bd538258
bca46052
bd0f03ac
3c20e3d8
bcb7626e
3d79dabe
3d5b41c6
bd4c4ebe
bd63cb94
3da2b9ed
bc85a1b4
3d04a882
bd3a5fe5
bcbfc8cc
bd29df91
bd02a62f
3d42d77a
bd048bb6
3d4bcad2
3d842773
3d81f255
3d4df852
3d1095f0
bd509ae2
bd315631
bd23b2ae
3cf4c1bc
bc667518
3b4c79e0
bd700a62
3d225fec
bce828a8
bd5e314c
bc1a71d0
bc8315c4
3d948f65
bd68ca64
3d3f6d62
bd6a9ceb
3b4788a0
bd94faac
bda2ebdb
bbd517d0
3ba6ec60
bd87a0e4
bcca1cba
3cc4b5a0
bd426f30
3c318ec0
bd8e1698
3d5b665e
3d6ad1ee
3c493f68
3d4dd716
3d53c4b2
3ace0b40
3cbb8860
3c637a28
bcc908b4
bd0d1b29
3d9b5cf5
3d8ffbe1
3c5bbf10
bd3da6d8
3c7c98a0
3c562ff8
bd887487
bd136b5a
bd5e2d0a
3d4197f2
badb2880
bcb277f6
bd01dd99
3ced151c
bc15b888
bd814d6f
bbde7ee0
bc083910
3c218ac8
bd311c85
3d8f3951
bbad1310
bd6d5da1
3d75b5e6
bd0049ba
3ca00918
bda0a07c
bd823ac8
3c0822b0
bd07012c
3d7ffe2a
bd02b447
bd7d25bc
3d596306
3d809071
bcb5de46
bd97e9d6
bbf134a0
bc784790
3c4a1958
3d6f077a
3d40a4fe
bbc90530
bc188620
3c87bed4
bcef5bda
3d522102
3ce8d9ec
bd2edbd3
bb673320
bd87928b
3d974cbf
bc1aebe8
3d8b259b
bc2ece00
3c888b84
bd94fa7a
bd90002e
bda2714c
bbb7aea0
3d6ac996
bd9a655c
3d8f501f
bd539d36
3d2f93ce
3da4ae2d
bcbfc05c
bcd63638
3d9ddc63
bc878d84
bc47da08
3d96ad23
bbe44120
bd21f79d
bba43be0
bca8f37a
3ce28aa4
3d55354e
3da5c86b
3cd24444
3d40c8da
3d5e7fd6
3d7badf6
bd3c626b
bd6f942a
3d99e875
3a842c40
bd048d02
3da2a61f
3d3bbe6e
3d0b2cc6
3d690fe6
bcbd7268
bd48aa79
bd1112b0
bc60d190
3d3d01f6
bd95bbe3
bd9e3c4a
bd505104
bcafc4c6
bc923d38
bd9b3746
3d036cfc
3d6e1282
3d8c6e33
bc54de68
3bb3cbe0
3d602ec6
3ca34cc8
3cf85c34
3d10d184
bd5c138f
bd45e80f
3d34b736
3da0aa8d
3d825f03
3d4699ae
bc438f68
3aa7c680
bd5fedce
bd6f1396
3d990529
3cdd5204
bd812ad2
bc0a53a0
bd117b33
bd9c99b3
3cef1944
3cef016c
bd33490b
3d4b1bae
bcf8d30a
3d359c86
bcafebb4
3d6eae86
3cc53770
bd1585c4
bc8bb4c0
3a469700
bcdfb72e
bd635453
3d8b5c75
3d69655e
bd85a071
3a0a8800
3d8cefed
3d828fab
3ccf0664
3c86424c
bd868189
bd1ba7b4
3b282520
bd864c12
3c4d16d0
bd53875a
3c8b4a0c
3cedc8b0
3bcd3d70
bc5728f8
bb336b60
3d67af6a
3d8d7441
bd84744a
bceb06c0
bcc83e74
3d84eef3
3bcd1a10
bd895354
bcb45ac6
bd1976b4
bd2be518
3d8feb21
3d7214ce
bb20ea80
39351a00
3c6f69f0
bcf4abec
3d128c96
3d5e105e
b8dea800
bb82b540
bd41e608
bc0b0b58
bd111e49
3bc88840
3c84a6c8
3d6e90ee
3d126c1e
3c6004e8
3d8944e1
3d19ec84
3c917e7c
3d7f956e
bcf4f9ca
3d25c34c
3d821ed7
bd150210
3ab64940
3d2bc902
3d9d77b1
bc0af930
bd85d23e
3d8e3d79
3d995011
bd004ba7
bd1ea879
bd54790b
bd321db4
bc077170
3c439e50
3d6f8eca
3d0bb100
3d80fe85
bceeec4a
3d8916bd
bd95cdf4
3d1efcde
bbc550d0
bd88f6a9
bd766a31
3d1ce672
3c2eecc0
bda426a8
bd05f286
3c8b0c7c
3d88e65b
3d6a96d2
3d6855a2
3ca009fc
bd86014f
bd3881aa
bd1edef5
3d8e95f3
bceb05d0
bd3764f2
bd39ead0
3d19fe9a
3d98740b
3d2021f0
bc9b6d96
bd1b91d8
3d96284f
393a2c00
3c911fe0
3d83547d
bcebaf02
3d396aa2
bd1e8086
bbec6120
3d5eeace
bbc2b1e0
bcce7aa2
bbfdadc0
bd7f5236
3c7f86d0
bc44a298
3c307398
bcc93c40
bc04dd38
3cca63d0
3d8f0077
3d47ec1a
bd9adc47
bd8a70d4
3d8d0361
3d880c6b
3d10f126
bd8d661e
bd02cb9e
3d4a64b2
3d90e0c9
bda4c8b5
3d672cc6
3c330ce0
bd4a302c
bd19c148
bc8fa234
bd9736b4
bd12e91c
3d0a8ccc
3d9130b7
bc64de90
bd83b5d8
bd3a8421
bd29b4cd
bd36d7ff
bd820052
bd5f2384
3d27d75e
3d89c0eb
3ca911c4
3c84b4bc
bda15374
bd6a86e0
bcc7aca8
3d97fa27
ba9e1300
3d472cc6
3c3f6b58
3c8f875c
3beffa60
bda2fab6
3d908d9d
bce1d3a8
3da40137
3d092b6c
bcc96382
bd2fb9e8
bc8907e4
3cf0105c
bd3e5dc4
3d273c0a
3ce0ef60
3d862345
3d966f4d
bd2a0b6e
bd3c15d0
3d3237f2
3b711f80
bd6448bc
3d063420
bd7d705a
39e5fd00
bb9861e0
3ab7efc0
3d8e085f
3cc8f9a8
bc892aa8
3c27c798
3d56b38e
bd0b2ca1
3d7260d2
3ce0c618
bd52d77c
3d97d049
3d39e10a
3cdfe0b4
3c82b22c
bc9abaf2
bd68d754
3cb23534
bc1c3d78
bd40b316
3b9adfe0
3d8da4e3
bd169281
bd30245d
bc9da080
3d971bc9
bcb8b992
3d06015a
baca7840
bb3de8c0
bd524183
bae81400
bcd1ed3c
3d631f02
3b56ddc0
bd9ec7e9
3c673ab0
bcd11d7a
3b20a420
3b5faf20
3d344cd6
3cfb3438
bd6893ec
bd42e407
3baafa90
bc60a640
bd3e9023
3d2812dc
3afee340
3d7622f6
3d33ef1a
bd463645
3d573436
3ce4b6f0
bc665008
bbaa73a0
3d55d94a
3d5e6316
bda0296c
3d902237
3d0eb2d2
bd751e44
bd1f84f3
3d981d4f
bd263689
3cee05c4
bd267d92
3d874cc5
bd36b9b9
3d8e6945
3ba08aa0
bd5933ce
3d909277
bd2d9231
3d4c157e
bcee7050
3c90513c
bc6db348
3c49ad10
3cf243f8
bd991453
bd4fc1ea
bd9f66f0
bd8ae9b9
bc3b1ae0
bda185c6
bce5aa32
3c44f420
3d3d80d2
3d0fee86
3d53f60e
3cc36dbc
3d130590
3bef7be0
bd4b85de
3d7db9fa
bd910f38
bd42d04c
bd8f6076
bce9bcea
bda0ae36
bd160ee2
bd53e88c
3d499a7a
bbd66b30
3d859a87
bd03a611
bc1fb528
bd285879
3d368646
3c3fb2c0
3b78d220
3d7261f6
bc1972e0
3da47671
3c74ae28
bc145fa8
3d141168
bc0ee470
3c96ae30
3bac8b70
bd8ed0aa
3d81e9a5
3d2134d4
bd70b9c4
bc297028
3d064a30
bd1000c7
3c1bca38
3cf1bab0
3d46a64e
3d5e9f32
3d29042a
bd71d75c
bd72267b
3c7ba808
bd0c5802
3b5f52c0
bd735afc
bcf8b2a2
3bc5e280
3c0d7328
3d6735c6
3d033956
bcea3f76
bd07e8f7
3cd95b28
3d3b9d12
3d046794
bd80226b
3cb76250
3cfa9d3c
bd52c10a
3c3dc4b0
3bddebe0
bd31b978
bc151d60
3d226442
3c578570
3ce13fa0
3d7b487e
bc41b988
bda436e6
bd227289
3d1dd04a
bd458465
3da1147b
3d9b256f
bd465e9a
3d605d0e
3d759f26
bd7874bf
3d433bf2
3c817c20
bd9652e8
3d5623ea
bcb9db96
bd2333c8
bcfc6d98
3d9a3441
3a9ab240
bd9549b9
bd8d16bb
3bd3b410
bd7e01fd
bb5c47c0
bd36d43f
3d4dcd0a
bc812984
3d6e8e12
3d23cc64
bd43384d
3c84450c
bd78cfb1
3c827e74
3d64ee92
3d50b9fa
bd38026c
3d5616ee
3d916b73
bd5fa108
3d89e503
bd6b3938
3b9ccfd0
bbe0cc60
bd8cf473
3cb4ddd8
3c728140
bcd8b540
bd50a7f2
bd0c859d
3d98f215
bd9a9fca
3da2f63b
3cd5c7ac
3c6eb778
bd81277c
3d07b54c
bcd621f2
bda3d5a3
bd21dbda
bd9a40a0
bc590548
3ca2493c
bd1b613d
bc91abd4
3d8dfe29
bd33dcf8
3d76aa9e
bd2e961c
3d039532
3cf8bb30
bda60b49
3c11e918
3afa1300
bd656b6e
3d3b8616
bd5a3624
bc71b3e0
bcec2034
bd5ada74
3d4b12de
3d9a3e69
3d2d6344
3d6b2bfa
bd51fa08
bcb7e0e2
bd895a6f
bc1ac8d8
3d629aba
3d029b70
bd8d1a57
3cc9f928
3d919b51
bc279510
3c45ca00
3d77af52
3cd694ac
bd1a1e3c
bc3d0028
bd869250
bd7c45d4
bcfb9348
bd1937e7
3d744252
bd34a201
3c5b3d88
3d1500be
3d3a3aa6
3b2290a0
bd539ac2
3a0edc80
3d676cca
bcd11482
3c8ed0dc
bcba10c0
3da098b3
bd618445
3d598e3a
3ca38850
bd95a487
bda5ebdd
3c0683e0
bd61fe3e
3ce4ffc8
bd878264
bd8053b6
bd370468
3da3c243
bcf1c8f6
3cd17c68
3b98f990
3c01af18
3d8b1303
3da5304b
3d4b6806
3d5cef5a
bda50ece
bd818a41
bc5af868
3d7a88c2
3d32042c
bd958d2b
3d006638
3d67a4ca
3c38a6b0
3cd67974
bd9bb0c7
3d2601a2
bcf1e456
3d857efb
3d99b33b
3bf75e90
bb4f0220
3d7b5f0a
bd47674f
bd826e85
3d0ba5ca
bcbe9daa
bd7d4d60
3d8d10f7
3d1f3b38
3b289220
bd8aed74
3d046764
bd7acfce
3d209e82
3c3570d8
3cd6fea4
bb782d60
bd6adfd0
3d2470ec
bd363e93
3c8037c4
bd81bba2
bd631608
3cf5185c
bd4bf2bd
bca13166
3d896e8f
3ceb905c
bcd2ded4
bc033678
bda0eb3d
3c10aca0
bd2eb1bf
bd280e08
3c97b16c
bd878970
3d614fca
bd968500
3c516b68
3d940c99
bc8c535c
bb146980
3b917470
bd117a9c
3b847bf0
bc9615c8
3d8e0bc1
3cbabbbc
3c83b104
3d483c0e
bd2b06b5
bbf49800
bda44d44
3d9fc387
bc90e210
3d41f06e
3d8a2b59
bbb33c30
3ce61d34
bd7a3fc0
bd878f6e
bd119ca8
bd58310a
bcc344d0
bd8cddf9
3d1323d6
39b7d900
3d40358e
3ca37524
bb890620
3d0df826
bcac009c
bce9d5a6
3b958b70
bda3fe8a
bcedce02
3cb5daa0
bd837206
bb538520
bba5f450
3c74b8f0
bd4d843d
bc8e5088
3d58699e
bd026aef
3d583f0e
bd1cc34f
3c260150
3ca11950
bd7f9fb7
3cb9ffcc
bd6f2dd8
3d2434be
bc26b958
bd814790
bd19bae5
bd9b54ee
bd2884c2
3d6a793a
3bcaf850
3da17eaf
3d53a0c2
3d9e21a5
bcdaa9d4
3d0b5376
3c9ed50c
3d6ff89a
3ca52a08
bcbfe9a6
bc9d11aa
3d8d9e7f
bd75d353
bd9f69e9
3be40b40
3cfc6118
3d99d9af
3d7468c6
3d55c7aa
3d4590fe
bc2d1158
3d737a42
bb933f90
bc286560
3d8b4ccf
bd88154b
bd7a019a
3cd2c64c
bc66ca68
3d7b237e
3d976903
3d959d6b
3d9c6f7f
3c0a5650
3d2a6720
bd10859e
bca02588
bd0b1ecd
bc8fe380
bc5fcc50
3d9ca225
3a457d80
bda1fb93
3c48a588
3ca2a5e4
bd915fd3
3c3d3e70
bd9b5234
3d7c1a2a
3d745706
bc1d72c0
3d71a526
3c146a70
3d51db2a
bd3800c8
bd9a0c8b
bd4707ec
3d84ed61
3c61e910
3cf4e968
3ca02a3c
bd683dce
3d86d4b3
3d615aba
3cc5faa4
3d5d8c4e
3d8434cb
3cc3f3bc
bd9146e4
3c7941f8
bd908bd2
39178800
bbae82a0
3d44a70a
3c533860
3a0dd500
3bbd6ae0
bc67b0d8
3cf47ee8
bd0f238c
3bf05a20
bd21b200
3d230bd6
bcea1548
bd44aa88
3ce2c770
3d8bb35d
ba983100
bd711482
3d60c7d6
3d91671d
bcfea750
3cb6e0bc
3bf19b50
3cdc1410
3d53945a
bc132a20
3d60f7e2
3d8251e3
3d2206dc
bc198de8
3d65c27e
3a940cc0
bd79ed29
bb97e040
bbd261b0
3d353bb6
3d757b1e
3c34cb10
bc4ca6f0
ba9e38c0
3baeb2d0
bd1950e2
bd9d308e
3d89b765
3d5a623a
bda2d61e
3d34e45a
3d33a914
bd69bc62
bd691320
bd81e3ea
bd6b3e2a
3d60eeae
3d3f5cc6
bc318e60
3c9a29c0
bd5d4810
bc3ae3d0
3d9e240f
bda1bc5a
3c999aec
bd2d73c6
bd78cc0a
3d3b6e6a
bd790460
bc818290
bd600623
3d95ba43
3d61f002
bd995bce
bc45c878
3c502ae0
bc15ab10
3d0db1ec
3d081934
3d544c5a
3d52191a
3cb4dfe0
bbc0d610
3cb803c4
bce4f23c
3ab0a580
bd1a64b3
bd252a43
3b98f550
bd9088e4
bcdf23ae
bcdc7ae0
bbae2e50
bd0c32ad
3d988943
3bbdb080
3d9901ff
3cfae788
bd1a0325
bd5dcc4c
bcb33526
3d1173f0
bd42a0a0
bc9facd6
3b8507d0
bcf44208
3da044bf
3d0e05bc
3cbc3cec
3d3c13de
bcb26084
bd15fafe
3d9c3597
bd723726
bd38d89e
3cb8e430
bd0b0cef
bd3905db
bd25312d
bce29bcc
bd2e2971
3d927c73
bd4fb5a0
3d3f03e2
bd9f9bcb
3c687a58
3d8c36f5
bc1907a8
3d914579
bbad23f0
bbf2c210
3d111074
3da42a03
bd80b1bb
bd83fab7
bda5d57d
3d1dc3f2
bc5d2cf0
3da15603
3ca2dcd0
bd6da081
bd4689d1
3ca70858
bd3b9d19
bd469ae9
bcec38dc
3cbf9468
bce62320
bd084c15
bcfda8aa
3cafca34
bd85c03f
bd15e9fa
bd0eb513
bd9a0800
3d92b4eb
3ca3ed30
3d470dee
bd686e01
3da545f9
bd1616b6
bd2fffc3
bd64f6e6
bd0ac25b
3d72f6da
3d6c7ade
bd5e3c16
3d9d9735
bd808cfd
bd5d77d2
bd8be41f
bd6a718c
3c50b158
3cc680d4
3d8acd31
3d06c310
bceeefe6
3cee7258
bd92472c
bbb93830
bc572568
bc8613d4
3d15c0a6
3d2165cc
bce19e20
bc56b8b8
ba2bbe00
3c202828
bd100379
bd6f1f6e
bd1a17b0
bd0b6873
3c9d1ac8
bcd239b0
3c9df6f4
bc9e6b98
bce9b038
bd493a6d
bd58d0d4
bd93e2bf
3d6e566a
bd2d0824
bd94aaaa
3d4aad72
bd87e727
bd8c5672
bd27ed5d
bc395768
3d76d8aa
bd9c1119
bd302902
3c708528
3ab87e80
bd046390
bd1b5e09
3d11ef82
3d3e323a
bca0107c
3c705060
bd6ac422
3d39161e
3d7ddad6
bd57bca0
bda0d08d
bcb1b6d6
3c82b964
bca5792a
3c6ef570
3b041760
3d32ae14
3ca49848
3d2652ec
bcc5127e
3cb147b8
3d61b7fa
bbc40730
bd64970c
bd0c7dce
3b954b30
bc0700f0
3cc19934
3b02b0e0
bd61599b
bd77af68
3d802655
bccf46ca
3c4c0680
3cd56af4
bd2be29f
3d1b0f56
bd09c554
bd264a2f
bcab9612
3b521c60
3d7bb5b6
bbe96b60
bcebb58a
3c50b1e8
bd8645a0
3b829b20
bd1bcf3f
bd8b0d4f
bd05d30e
3d99be1d
bd5a39ca
3d84e6d7
3be15160
bd92e1c2
3cbebd88
bd6dedfc
bd543241
3d4de0de
bd887c36
bce0ba34
bc163288
3d89498b
3d463846
3d4be172
bd2a6ddb
3d501576
3d6effb6
3d9e7543
3d9f6571
bd229584
3d9ec405
3d982b65
bd74e8da
bd94da28
bca51ac0
3ccf634c
bce13ff4
3cf943a0
3d136244
3c90eabc
3d195b6e
bd87ad13
bd088499
3d98be57
3d572e02
3d8bead7
bd7a3038
bcdd551a
3d767362
bd038e8c
3d95ac11
3d470476
3d8c45b1
3d91accf
bcf135d4
3cc73eb8
bd27d64a
bd96f506
bd277eb0
bd9ad93a
bd21f0a8
3c7b8388
bd7bb76a
3d8d8181
bd8f0733
3d80cddd
3d37e7f2
3d84cafb
3d4576fe
3cc8e4c4
bcc0ac8e
bd062055
3d801327
bcbfa916
3c3c4680
3d8b51e1
3b886000
bd7a1ac4
3c5be0d0
3c973a30
3cbf22f8
3d3910be
3cefb040
3caade08
bd6706a5
3c9c0f9c
3d6b83ae
bd3d47e2
3d8c2c5f
bd53202e
3d8c1395
bba1be60
3d38082e
bd5d61fa
bd9cf2a8
3d8a4ba1
bd98396b
3d59fcca
3ad7e300
3c67a730
3ce0908c
3d8fcfe9
bca98b7a
3d6843c6
3cf08304
3cd5738c
3ce5e1e0
bc47f220
bd7a92c5
bd34a584
bd75ab4c
bd9c52b2
3d7f4d16
bcdcb28e
bd8a29fd
bced7418
bce7c82c
3d9f1f33
bd6d1aa2
bd706bb2
bd2f22b2
bd9af21b
bd8b0cb6
bd9d165b
bc753018
bd866d1b
3d9eeebb
3c3995b8
3c597710
3d3d9e52
3cc35498
3ce383e4
bd949668
3cf32490
bb299800
bcee768e
bd047e3a
3acaf780
3d74c8ee
3d1698f4
3bd46ac0
bd364f24
bd7234f6
3d6330f6
3d72408e
3b61e7e0
3da206eb
3b1e2360
bc1f2738
bbad5a70
bd468c4f
3ce353a4
3c89f69c
3ae87940
3d3a946e
3d4c7292
3d1ffd22
3c1422c0
bd59fd7c
bd04e580
3cd69184
3ca20ac8
3d93acad
bd562d18
bd283019
3c14ed88
bd92d73c
bd10ba85
3d14e408
bcd2ffec
3d3ea6c6
bcdcb4c0
3d2d3e1a
bcd277bc
3d398b0e
bda3d8f7
3b813300
bd73706c
bc1c0378
3d2485b6
3c94cdb8
3d62c83e
bcdc7fd2
3d08004e
3d7a42ba
3d424ab2
bd39414f
3cf34dd0
bbcc81b0
bb650f20
3c4bdd38
3c9e4cdc
3d72a9ea
3d349fc2
bd3331a4
3d7e0b66
3b0eb2a0
3d1d598c
3d6a9d62
3b60bb20
bcf752f0
bd871448
bd49a314
3c09b1c0
3cef6718
bd80c4f4
bcf34eb2
3d1e0256
3d4ae85a
3d07bf56
bd60ef88
bd3d5032
bd977646
bcf469a6
3d183c46
bd078cfc
3d6e634a
bda03dc5
bd609857
3cfb37c8
bd9c2407
bd5c651e
3c8649b8
bd53d50f
bd01afd4
ba3eb100
bd559787
bd65f23d
3baf58a0
bd0dcf30
bc4e6380
3d9240bb
bc7dc958
bbb1cb70
bc6038e8
bd67ef1c
3d669162
3c2ce458
3cb10aa4
3d76980a
3cb63738
bd9d38aa
bb2891e0
bd8bd751
bd0367a2
bd7be515
3c984d70
3c729900
3d988139
3c47a1a8
3ab4e500
3d7ee316
bd9f7541
bd56d242
3c884a94
3d95ae71
3cb20b58
3d304088
bbb19130
3d794222
bd8e8b46
bda0b4b3
bd1a2043
3c072e38
3d8727ad
bb8d7500
3c0bf5d8
bd2e7dd6
bd71fe79
3d3e2ee6
3d50af92
3d2eb91c
bd3d035d
3b32a000
bd175bcd
bda119e0
ba6a6d00
bd719a3e
bd093064
3d69c202
bb948110
3d62c25a
bd370ec4
3d3ce6ca
bd19fc17
bcfa94c2
3d7aef56
bcdd1c86
3d99efad
3d46b2ca
3d8cf1a5
bd92ced2
3d84b495
3d8e0241
bd8d36d2
bd87dba2
bcecf9a8
3bbbde20
bc634808
3d3656ea
3d06ede8
3c80f968
bcfd6366
bd2cfb8c
bd0a547d
3ca8eaac
3d6feb2e
bd8f1106
3d658c4e
bd5d7ab8
bb92ec80
3cd42944
bd76af08
3d1ce9b6
3d312482
3c4b2378
bcac4830
3cdcff88
3cc89d70
3d6ebf4e
bd25686a
bcfd55e4
3d91858b
3c679e60
bd892ddd
3c9f9480
3d0cab98
bc7d5e08
3d2b6fca
3d50d9c6
bb9a5870
bd0de004
3d704dee
3cf58168
3cc5b9ac
3d282ade
3d8a75b7
bd3cf4e8
bd23d729
3d352efa
bd9e8199
3ccec364
bd7d5f86
3c457120
bd67c222
bd44e772
3d264030
3cc6a20c
3cde4460
3d961c97
3d33737c
3d82b1b9
bd4a8945
bd82478f
3d225ee2
3d8c1803
bc497fa8
bda44655
3d9cdf7b
bd11d1dd
3d9560e3
3d3acc46
3d9a1615
3b122de0
3d9311c9
bd9b5474
3da3f02b
3cb45c1c
bca2f702
bd85a6bd
3b2cfa40
3c040330
bd4b0db4
3d43d62a
3c8ad714
3cf420b0
bc74e250
bca19820
3d996e35
bda4cfae
bd15ee66
bcf8ccb6
3d0af4fc
bd34ea5b
bd4da20c
3c87a8a4
3d946a05
3c84d948
bd8deda5
3c1484b8
3d7408be
bd868d78
bd2440de
3c981ae8
bd6f6bfa
3d4316ba
bd897c95
bd72bcc2
bc51bb78
3ad75100
3cf68a1c
bcb57f0e
3cb99adc
3d12b590
bca3315e
3c9142b4
bd31a851
3bb56430
ba52d380
bda45add
3d96f829
3c6542c0
3cb9c1b4
bd4698d7
bce03fba
3d5919b6
3ce335ac
bce73680
bd56859c
bd3c52e3
3c71e980
bd989c81
3da29e53
bd868239
3d7160ea
3d89f825
bbac4360
bc608660
3c3e3808
3d03ef36
bd35bb04
bcf3f876
bd35262d
bcbcaa44
3c8dae08
3d825147
bd89dea8
3cf5615c
bc652a40
3b00afa0
bd349e65
bcc395ce
3d942629
3d853c6f
3d8cc805
bd9e3c79
3c729178
3da128ab
3d0c9fbc
bd2f042d
3d8f6163
bd944724
3d4e0792
3d3a7212
3d340366
3cc21f98
bd8bee6a
3cb90e80
bd3f5a87
3d34e3fa
3d6e42ca
3ba9f030
bd5b5fcc
bd9ee277
bbc9b390
3d919171
bb2768a0
bd53d814
3d0b3da4
3d950827
bd54c712
bd8842aa
bc9d9b06
bd0aa9e1
bd8f32f8
bc46fd30
3cfe8fb4
3d77b76e
3d68a852
bca6f8b2
bce99e9e
3aeed680
3bf7e820
3d21bcde
bd865a18
bb839c70
3c6cdab8
bc576910
3d965b17
3d0b40d8
bb3ac480
3d1a3b60
bc90430c
bc470c98
3cf83d44
3cfd0dc8
bd87126b
3c318848
bd2f882f
3d2daca6
bcd58ae0
3d2f6a18
bd21107d
bd40306b
3d53876a
3d73bb86
bd551200
3d58d236
3d52beea
bd488205
3d8f8d6d
3d40443a
3bcd97a0
3d161d9a
bd382edf
3d6d38be
bd99e450
bcf0701e
3d7aefba
bd13e094
3d220bce
3d021f66
3d1da52a
bda594d5
bcd16700
3d193cba
bca1766c
baf64c40
bd3e7811
3c9197b4
3d603e5a
bd33337d
bd730e22
3d218c4e
3d82075b
bc0cd0c0
3d436906
bc5df098
bd697d42
3b99fb00
bd94d7a9
3b966580
bbe47ff0
3d66a79a
3d3ac5b2
3d9ce047
bda55e4e
bd114b77
bd4ec743
bc888f00
bda007b3
bd7f3496
baeed540
3cd48dd8
bd44f94a
bd278c03
3c8720a0
bd92a238
bce80fc2
3cf1dccc
bd3915cb
3d817981
bd959fef
3ca6ca38
bd747ff5
3d2a48ee
3d95a28f
bda06166
3c975054
3ca506ec
3bf00a20
3d976b8d
3d99dd2b
3cdc1a64
3d384ad6
3c26efa0
3d81bfb5
bd85f882
3d71029e
3ceed5a8
bc0716f0
3ce20454
bd0d5838
3ca0d700
bcc6be08
bd09eec7
bd906041
3d4246ae
bd8e1172
bd973142
3d73cd8e
3ad40940
3bb28b60
bba203a0
bd345a05
3d5ffb0a
bd9e2b2d
3d527756
3d7bacb6
3c44ec18
3d3acc72
3c7a8690
bd5e4f2a
bd10b751
3c538000
3b348360
bd0d2410
bbf64b90
bd2c0700
bd86fafd
3d826a9b
bc34dc70
bcff311e
3d65362a
3b557200
3caa6734
3c8c2dc4
bcb09920
3b9290b0
bd39f24b
3d82a64f
bb202980
3bbad990
bd8dcdcf
3d288fee
3d086604
bcab0f6e
bd8c343a
bd542db6
bca9b73c
bd47f46c
bd93b0a4
3d2c41aa
3d9b9aa5
bd9fdb91
3d120ace
3d877ffb
3da168f5
bd837d09
3c866c28
3b644cc0
bc178458
bc773c50
3c21a4f8
3ab52140
bd9dccf7
bd29a156
bd5e5e60
3a92ae40
3d3e266e
3d9ab835
3ca8054c
3d39933a
3d15f570
bd84dd45
bc010038
bd66246d
bd4869ee
bb9697c0
bbedca10
3bde6030
3c30acf8
3d91d9d9
3d59da6e
bc9c693c
3d59a2da
3ab4e3c0
bda53fcc
3cab5878
bd720d2c
bd44d1e4
3d87f831
bd33e027
3c859170
bd0d03a4
bcda8e92
bcec61e6
3d63401a
bd7dc04a
bcff4c88
bda0497e
bd04ce49
3d62086a
bd52ab38
bd46387b
3d12b182
3b70be80
3d759eaa
3d931789
bd918328
3ce889fc
bccb5272
bcb8b456
bd137a13
bba3ec70
bd8e32ab
bd56f030
3b755a20
bd88a9fd
3cc1d050
3c8b4cd8
bb943190
3ceecd24
3d8d03ad
bd548a86
3d24d88c
3d4c5bc6
3d679f8a
bd9f8986
bc8c3404
3d8f1cf5
bd26f60a
bd9f23a1
bae01580
3d8a20a7
3c8a9658
3d310904
3d8075e1
bd38c7ce
bc5d7b28
3c5ada90
3d36a4c6
3cc59efc
bd98248d
bbf1b090
3bb127f0
bc378880
3d83eedb
3cb74f88
bd98b800
3d467836
bb200a60
bd009f85
3d861adf
3d23c7b4
bce05d0c
bb3a8300
bcfb7584
3d2378de
bd38c728
3ce64ae8
bd2beb5c
bd670b8d
3d5d0d82
3cd06830
3d5708d2
3d26a758
bd920b93
3d1ae862
bce1ed7e
3cf7df44
bcc68998
bcc9c430
bd640fb6
3d933e59
bbeabb00
3d813037
bd132817
bd940d1c
3b954560
3d9523b3
3d800607
bd38bd96
3d036f1e
3adb8dc0
3d3b37fa
3b90ff00
bd8b893a
bd7a9e82
bd148147
bd358b96
3d2fd9be
3d97ca17
bda4e150
3d035b10
3c172908
3d82c417
3d4be20e
bcc8f1f4
bd96e672
3cd1ca7c
bcea44da
bd8fb312
bd22b75b
bc5943b8
3d0cf188
bcc69c88
3d8f33d5
bd914187
3d307e9a
bd61b5cf
3d13660a
bd6ba936
bd705d4d
3c99f290
3cabacfc
bd4a442f
3d9bf929
3d1fb486
bd56393e
bd9a4720
3d8d6b3b
3c441698
3d598932
bcb588be
bca92c40
bc3f6270
bc8ec9f4
bd77b0f2
bd8e2ed6
3d8f70c1
bd8ed3a7
bc997942
3d73cdda
3d227414
bd4c106d
3da199c5
bcf27a06
3c8a0b88
bd065c03
3d8cab4d
bd1a7ca6
3d2294ee
3d187492
3c5a72a8
bda39d82
bd5d4ab3
3beb99f0
bc9471e8
3ca0e430
bd5cc875
3cbb8398
3d67847e
3c94f28c
3d8819b3
3c1b3418
bd39fc2b
bc2c49f8
3c703db8
bc49bbe8
3d7c57ee
bc851ab0
bcab2854
bd920acc
bda3b070
bd74005f
bd7146e1
3d75e9e6
3d9db20b
3da1286b
bd844c1a
3cb29020
3cdab008
bc92561c
3d2e62de
bc8e0d4c
3c86fb3c
3d8cdc85
3d110a94
3d98f887
3d52430e
bd5e4e8f
bd868a22
bd0f8fc0
bca111c4
3d19bcdc
3d982eb3
3d8c0d4f
ba7a3500
bd904a72
bd8107d7
3d41eb62
3d0f7c0a
3d4acace
bca80a72
bcd62bcc
bd1dcbb5
bd85d796
bca32d50
3d48fefa
3cf31b98
3d7885aa
bb45ac00
bd6c9dc8
3d08bf96
3b25d5a0
bd848145
3d7e04da
3d71fad2
bc1e03f0
3d64362a
3cf98118
bd102cb3
3d8fc6c3
3c220938
bb996c60
bd9045c5
3d6a660a
3d239c46
bd6c6ca6
3d2704cc
bc392d90
bc4d9cb8
bd156b8c
bd0b11b3
bd476960
bcd3e538
bc4a8fc8
bd8367c1
bd9d0c2a
bd9a0dbb
3c92ef6c
3da09c69
3d29bcac
bd2e35ca
bc2425e8
bd3510a4
bd49fe4f
3cffc67b
bcfcdbe6
bd399a2e
3c69b632
bd1b50cc
bd888191
3b8c0320
bcffd59c
3d94c160
3d04b108
bd36b8ca
3d480eb7
3d943567
bd34a300
3b44347d
bc21f2f0
bc5f9f20
3cf47c8c
bd280f7d
3d83aafa
3d908ad2
3d6559a6
3c2ebbdd
bb76e78d
3d9fabc5
3ce4e4ef
bce1b164
bd155843
3c923dc9
bd8a2f04
3d503f1b
3d636f22
3d358b52
3d29d6fe
bd5dcf68
bd893af2
bd96ca6e
3d3a065e
3d18f52d
3d59d8b8
3d90fc45
3c93db7c
3d2b2941
bc4d0de0
3d5cdb72
bcdfde9a
bd661dae
bb694920
bcef2972
3c2fbdd7
3d0b159a
3d5c4966
3c72fa70
bd9658c6
3d8e5c29
3d6194fa
3d444306
bd85dfc2
3d7fecef
3da4f091
3bd04bf0
bcb47fa6
bd37bbfa
bc4cebe8
bd043add
3da613a5
bc2f27eb
3caf4e3b
3c930e1c
3b879d49
bd85d3b0
3b27f2e0
bd731a9e
3d58857a
b9ba6356
3d3e30e4
3d2419e7
3d934def
bcd35b7c
bd5b4aef
bcc5c26a
3d465886
3cb8b210
bd915c9a
3d1c0868
bc552478
bc6159c7
387d5000
bce54924
bc2680d0
3bdc34f0
bd2d19c2
bc8bf1e8
bd2e67e8
bd86b7ef
3cf70e85
3beb69e8
3d432fc2
bca4e7ee
bcc92ed4
3d49919a
bd4b8e4e
bd062f03
bcb6d5f4
3aa41de9
bd5cefa2
39282d20
3d80aa6f
bd0ff7d7
bcc7ae1b
3d378bae
38efaefb
3d063001
3d2625b0
3d783702
bda35382
3d5a6a86
bbc4bc4b
3d5ac289
bd607c9d
3d1240aa
bd1b7113
bd06c8f1
bd962cc1
bcc0c4e4
bd0dec86
3d470df5
bd371d2b
bc8af7f3
bd19212e
3c97d981
3d82a301
3b009deb
3cea9ae8
3d498f12
bc277758
3c8f1555
bca53f84
bd1327d0
bd0bd478
bd1594f9
bd380c52
3c086a38
3cb713e0
3d5b6f46
bd31c7b1
3cb385e5
3bb289bd
bd361dd6
bd313b3e
bc6eb64b
bd2b5fc4
3d301428
bd1c650c
3d833ce5
3d53da92
3d564353
bd3cda66
bd6f8cfb
3d7194e5
3d517f5a
bd799e32
3d071423
3d23343b
bbd8cca0
3d170064
3b13f804
bd1ad729
3d6ec86d
bcb8b09c
bc8985d4
bd593ed0
bc2c207e
bc8c8620
bc05f5ef
bd4472ca
bd93ed0b
ba0a14ce
3d844e75
bcf835d7
bd150708
3d573e1e
bcfb272b
bcc59838
3d132c09
bac8b4c0
bd368fa0
3d5f9811
3c90c025
3d0bd902
3d6f2f17
bd292364
3d92e21d
3d992c3b
bd41f918
bc8691e0
bd6fb3cc
bb9da6d4
bd77e908
bcbb5791
3cda1911
3d010a4e
3d68b54f
3d8397b9
bd1a8ac8
bc1af700
bbae1fec
bd9dde73
bd515bfc
bafe3c00
3cf70570
bbed4c10
bd1d7579
bda0bab3
bc7635c0
3d2f4390
3da8e08d
3ce8b668
bcdc95e2
3d631e06
3d9425bd
3da6e9f7
bd628d29
bcd32c47
bca4c7fa
38ed4c00
bd8d1018
3cd5b1ec
391eea7f
bd8353a0
bd5cd406
bd1ad69d
3d8897bb
b9a3e7c9
3d4e6d70
3d8a15d9
3a77eef6
3d847ff5
3aaddc1f
bd2a44fc
3ca4e983
bc924ada
3cd0f562
bd438d84
3c14be7c
3dab741b
3d187a7a
bced67b5
3d8393f2
bc2cc258
3d76c0b1
3da536d9
bcd4655f
3b8fe3a0
3d1bc5d8
3b51a9ab
bce0e58e
be0295ee
bd673cd7
3e3191c1
3d91babe
3d8ba2a5
bbf27e40
3d4b384e
3de8d068
b82ba856
bceb07ff
3d7902fb
3d4bd6b2
bce82a28
bd73a8c0
3c271b7f
bdefd2ea
3e0105f4
be25cbae
3d7110f6
bd92a1ed
3c224f00
bcda5a36
bdd66eaa
3d773d55
bced8fee
3d548de2
3d4e00e1
bdbf796c
bdd7172e
be24d316
bd52b15c
3d821ebd
bdc0fd67
3df7a003
be0d4938
3d5a84c2
bd9c9f7d
3c340988
bdef98c2
3c766a97
bc0d52b0
3de7ad5e
3c3dd758
3e00dfb6
3d0ca134
bd366c56
bd39ffe4
3cea850c
3d7d92ee
bdea2a47
bdce4c27
bc40cd28
be000cdd
3a8659fe
bd712702
3d43b790
3d8bf2f1
3df3ff6b
3dd61646
3d694038
3e0c2d29
bd92f7a2
bb40db20
3b8401f0
3d735f3a
3ce5c9fc
3e3c209b
bcecd4a2
3d16866d
be0f26a4
3dc631e1
3e08b0a4
bd1fb14c
bd4fd330
3ce41cb7
3bbe751d
bc18cf08
bce62f95
bdcedeb0
3e11856c
bd8f1051
bd3a43df
3d8dcf44
3d528f8f
bd9e78a4
bdcc8c59
bdd38326
3e1054f9
bd79584a
bc809004
3dab8beb
bd0106c1
bc6de167
3cd7c888
bd4ae82d
bd85f56e
3aff1680
be113ce7
3bc133e0
be073c92
bbad7957
bdc4483c
bce3a0f2
bd6dc5fb
bc882b78
3e4d426c
3da12bc3
bd80fd10
3d34c8c0
3d07307d
be1ed995
3dcddb14
3d464cfb
be48e527
3da89e7b
3d834799
3e22eaf1
bc25654d
bdb2be6c
3de3d126
bcbfcc0a
3cd8e808
3cd4acdc
bd272bbf
3d0ad9fe
3e14ca7b
bdffade9
be1efe55
be38a4ff
3d12eb15
3dc1d030
3e00d673
3d94a68e
bd813ecb
3e1136b3
3d860b19
3dbbd313
3c1625ab
3db60c4d
3c5ad920
3b7f3bd6
3d8c1c8a
bc8372f6
bd303f1f
3ccfdfc2
bdeae6c0
3bf7e593
3d46d696
3d84fbd6
bcc8f851
3b0bf840
3de8f2c7
bc6e5633
bc810e27
3d932b8f
bdb82caa
bdbf33a0
bd6bf708
3d26c466
3ce60127
bd8eeb87
3de2d24b
be41676a
bd1d194d
bda9d889
3d137d55
be247547
3b713c5a
bd84454b
3e030037
3d7c3e06
3e2b8f86
3dfea318
3c954526
be1bb06d
3da1da53
3e0acd4f
bcc26fcd
bda45c53
bd11a35a
bd699b4b
bcdb65bd
3d6d7274
bd06ae8b
3d3ef741
3e28f9a8
3d573627
bd9514a4
3e1e0e65
be102978
bce67ada
3d84ec79
3bcdb51a
bd252b18
3d67a6ee
bd0a7cf5
3ca3523d
bdb8e33a
3e01b977
3d699fb8
3d75320e
be301524
3dcbcfcd
3dd26134
bda0fc0f
3d298b68
bcccf89e
3e1d2593
be16f327
3d289af1
3df95e9e
3def7347
bde50194
bd4af124
bd7bbd9f
3e38e1c2
3c955bf9
3cdebd8a
3c887057
bd72d635
3d26c7a4
3d05b35e
3d483465
bd8f7131
3d93414b
bd74f3f5
bd8f1618
bdf9b8f3
be024955
bd84692b
bbe0b0e9
be1117ed
3c397b6c
3e0b6b16
3d46cd12
bd1bd3ea
3d36e151
3ccc912a
bd866019
3dd62a12
3d080dca
bdd5d066
3dbd25ea
3df16efa
3dd7fe28
bd6a463e
be5a61ac
3e104561
bd99ec74
3c6a7ad5
bbfc70dd
bdbf0d98
bc54880a
3df1028d
be4c436e
bde1b1ac
be3e9089
3d5e5ee6
3d96f181
3d3acfbb
bbb74ed2
393bc0ca
3d1eb794
3df16854
3de06545
3ba5d2cf
3e556f0b
bd290617
399fbd9b
3c393478
3c80999a
be1f217c
3cffdbc6
be34581a
3d5854d4
3d3b8898
3d3cc744
bd8a0ee2
bd470573
3db88bfe
bc0f6d0c
3d40dfe6
bda467f7
bb86c8fe
be008548
bdb2626b
bd57058f
3c97f61a
bd117bd7
3d966309
3d2a24f6
3c70cad2
bdd0df11
bd7e2d98
be28721e
bd6a2320
bdecf02f
3c2f5c37
bd76d621
3d4cf0ce
bc0c1648
3dc3e94d
3cced38b
bbeab840
3dcdcf72
3e11b3cf
be3b9e13
bdaf5f58
3df890f0
3d342941
bd382315
3dee67b2
bd33c446
3d691491
3d409eb4
bd137d13
3e5af981
bc470d16
bc7269a8
bcc5715a
bdf94845
bda9b721
3e01a2b3
bd806789
bd30b4b7
3e355df1
3e0b25f6
3d06823f
3d6ea3ee
be123fc0
3cbff90e
3dc838d4
3d1d6854
3db858a6
3d2edf14
3d56ed1b
3d2f5136
bd7f812c
3c711cd7
3e2947fb
bcb8c87d
3e508d24
bd8102b9
3e18b147
3d36c63c
bd9446e7
3d9ee859
bd129eb5
3b8e6884
3d6eb158
bc162b63
3d98563c
3d2a783e
bd525652
3d0adbfc
be293c62
bd7e7010
be220df3
bd8dec8f
bdc36da2
3d829d7f
3e02a06b
bd06e639
bda49f3b
bba9d221
3e08e4f3
bddea014
3ddc9d58
3d1efffa
3c4cae22
3dd99a62
3df4666c
3e56d022
3cca80f2
bdf45e86
3be81318
3c965c6c
bd83b0b5
bab2320c
be13bb38
3dad7936
baed2aa4
bdddd69a
3d705ffe
bc6ae20a
bd732b74
3e057196
3d4426dd
3dbd176b
bbe07cdb
bd4878b9
3db5b48c
3d096a98
bd753fcf
bc69fbfa
3beed0b0
bcd57572
3c349f30
3c8e1571
bd73673c
3cbab122
be54d4a5
3cbcca23
3d9b144d
bdae8236
bd49bc6d
3d6e4a91
3cd586c9
3ab21c81
3d48c174
bcdc2584
bda79863
bdbb25b6
bd407b8d
3d8d6736
bd9686cd
3d2fa5b6
3d7f057a
3e25e714
3da8a046
3cbca045
3d39d883
3c6f32c3
3bb85d99
bd8a92e7
3d87b7d2
3d7c7cb2
bccff09f
bbcd9ad2
3998a764
be284953
bd3eec06
3c24eaf9
bd2269df
bdfad180
3c9bbd53
3d8a7959
bcb269b9
bd77737d
3df79b7b
bc5565c2
3dcee604
3da00f78
bd2e8acd
3de41ae9
bd9b17b6
3b4bb220
bd994d3e
bd5caf34
3c04b9c7
3dd69d06
3d485fb2
3d0b6fd9
3dacb62c
3df88673
3c22bc54
bcbef5a0
bd92709c
3b213990
3d4554ea
bd038be3
bd276037
3d54650f
bd50e6f9
b9375a98
3daa0992
3c873ef2
3e1a50b2
bddff9d5
3e1d75d4
3d2433aa
3cf77e92
bd709dd1
3d123df9
3d8c6035
bcd31f5a
3c486b40
3d37cf07
3dd8993b
3dd72816
bd861a0f
3c5ecb68
3d8327b3
bd6a3ccb
3cacd395
be6ae2de
bc918a94
bb2c931c
3c5ac67a
3cd9ad72
3d366faa
3d559483
bceab2f7
3d91f6b3
3cce6f53
3b70ba47
bcf9b3f4
bd06dd89
3c0708b8
3dd67156
3d9d97c0
3c8053eb
3d2a065f
be035400
3d094ffc
3d5e4bde
bc9789e0
be02f6ea
3d1c021d
bd3f41d4
be30bfd6
bd863a82
be088f92
3d3c3af4
3ded1d37
3e007dc8
bc355694
3d66523e
bd5d5f70
3c9fe5fa
3dd89cb0
3d4025a4
3e30d3c8
bcf698d4
bdbd185c
3da246b5
3c1e076d
bdadb3f6
3d51d8b1
be301261
bdef4c6c
bc8b71dc
3cae68e6
3c3f054b
bde7f095
3dab7550
3cfad21a
bdac0baf
3d71ea2a
3cb5cecd
bde4c84a
bd7f5200
3d906006
bd70ee6e
3d70227d
3dc7b56f
3d84b6c4
bc75b20f
3d4dcabc
bd5efcc2
bd063b2f
bd5b9a70
bdfa776b
3d6c252d
bc6c8930
3cdad421
3d9e7614
3cec343b
bdaa8f6d
bbf16fc6
3d42a99a
3d93b92f
be2d1907
3d8b7c55
bc0521d2
3c906894
bd408736
bcd64282
bb1a4f42
3e1505c7
3be94e2b
3dd07c36
3e2348c3
bd81adc8
bcfb2da6
3d9189f0
bdd70031
bc56a5cd
3dc502ba
3cc1f54a
3cc1eebe
3dd5bd8d
3dcf65df
3d5a3434
3d3acc1b
bd2d83bd
3de61e51
3da34e23
bbcc82e0
bda4e39d
bde7dff4
3d996511
bba0395e
bd651df8
3da47708
3da93a2e
3c800646
3e100300
bdddb822
bb660bc5
3b563024
bd3ba3c5
3de2632b
bd9b77e2
bc892908
bcd3f229
bc48071a
3d2a6aaf
bcd8cd4f
bbaaf075
3d037ada
be4d2d4e
bd701018
bdbf26b5
3cc7ebe9
be189965
bc7c5226
bcf07c23
3d20e978
bdbf37f7
3dcb6fc6
3d72498e
bca1340c
3dd5b392
bcfe854a
bc960651
3d1060e3
badda246
3e2ecc94
baf7090a
3d68e66d
bd079c0d
3beefd2a
386200b9
bd0e989f
bd8772a4
bd38854a
3dd39774
bd1edd8b
bd8592e4
bd4efc9d
bd23eeb3
3d73812d
3d5e1e1c
3dc9fc20
bd5cf032
3d8ad0d0
3d03b0e7
3cc36ac8
3d129482
3d8eb176
bc93af68
bd32bd54
bdc7eedc
bdbda35a
bd531acf
3ca16115
be3f7532
bc85e1b7
3ce33204
bd89e559
3d001e77
bddfa4ab
3dd01584
bcccbdb1
bd63e95e
3cd4ead5
bd84aeda
bd81c43e
bd19dd9a
bd9efb1e
bd51c8da
3dbd13c2
3dfc43da
be1bf7ca
3d9f7561
3c6a03c6
3d6a203a
3bf62b94
bdd99010
bd8d3e78
3c1792b8
3d98be6b
3c71f714
3da29b7f
bc5c8117
bcbd15c2
bbe3ef32
3dd5eca7
bbf5750b
bdb8dc7c
3c79c8d1
3bda0e85
3e18c9e7
bbc46e93
bcd3ca07
3d4f25c9
3db63e78
3d4c0934
3e26f687
3e106c29
bdb79034
bccc7afc
3a46650b
bd959543
3d0c3b5e
bd29fa18
bdab9543
bcbc92b1
3d97e6c4
badbd660
bc5497d1
3db498c1
bda4dbcf
3e1af83f
bd259f88
bcc6c432
3d85a098
3d6b14c2
bd992ebd
bdf2a0c8
bd7f0cdf
bc98b65c
3d3dd610
bd8bb70b
3dd0a040
bd260758
3d5ac7f4
bd444150
bd11781c
3db5151c
bd66e1f0
3d8a9440
3d666c77
3dbcae71
3e180600
bdb943e6
3da5dc93
bd4a831b
bd995c08
bbc9042c
be16350a
bd33c969
be357ecf
bcade6f4
3d4c9ce7
bd656184
3d26c89b
3dac70e8
bd8d3ace
bdba909c
bc2b138a
bdfde6f1
bd68880e
3cfd5f10
3d91a2c4
3dc9beda
3d6ba977
3cab3c2f
be1a7d0c
3d90fac2
3dae04ce
bd190388
be421205
bd67c27d
3d70c692
bd9d75a3
bd841a41
be85bd14
bd76d0dc
3e6f1af1
3e16248f
3dc53e7d
bdaa9719
3c970c41
3d12394b
3d129539
3cc718e1
bc47c063
bd546b18
bd55178e
bdaf6ea2
3d80a0ff
bdc69ce9
3d94f84d
be68aa49
3d2b064a
3e05a5f3
bc812bf8
bc93a850
bdee030d
3dca0ded
3dd5c25d
bced5a7e
bd1d880c
bdcdd8e2
3d56c1a8
bdd1bba7
bd3b684e
bd1a8a09
3d985e43
3d9709de
3b5f5448
bda00121
bd5ffcd7
3dc415f5
be1212a6
bd516f7d
3cacb4c5
3e08017b
bd5c416e
3e476208
3c94d399
3b92fa2e
bd858378
bd9821dd
3da89b2c
3d5d6861
be63a565
3d3725aa
be0da9fe
3e1900b6
bd57e11f
3d82e23e
3deb0e7b
3e7269fc
3e1d50ac
3df9fd95
3e4e2843
be352754
bd19de38
bd82b333
bdfb2e24
3d1d7fe3
bce1c366
3d81fa4c
3d0fd621
3e26d6b8
3dc103d9
3d922d3a
3a3d3797
bd0f6f41
3dc31165
3da3546d
3c0cb1f0
bc37ebc2
3b1ab5de
bccda3b5
bd997776
3ca1d4e3
3dd7d7f1
3e375f4b
3d126a81
3dce2adf
3bed564b
3dfa5f3c
3c0845a3
bcc7445c
3db684d3
bbf7494b
3d530a0d
3d9f95ce
3d5ad781
3e736a3f
be0897ab
bd37a78e
3cea3068
be5d4c2d
be2b1403
be7230dd
bc99ab72
be356e16
3e20ca5c
3e418760
3cb9cb28
be04417b
bb9b55ba
bd612524
be427b96
3d9d7574
bce7198a
be1ddc4d
3d7e0a8b
3e3472e4
3e260e29
bd55a726
3d95887a
be234f19
3cf4c134
3dc4d5bd
bdd299c7
be1d3b58
be2170f9
3df8b1c9
bcff4593
be2250f1
be247b08
3dd7cdc4
3e886536
3e10c872
3e2d059b
bc09aec9
3de2a6cb
3d153144
3d788130
3b28c06a
3da173fb
3d62afee
bdfb2edb
bda1899b
3d2c72a9
bdc4c65d
3c1eecca
be70c5fa
3adb8502
bc7d54fb
bdb8ff95
3c9de092
be122b2c
3dbfdb4d
3d7e2697
bd90010f
3d97845d
bdb106cd
be14e348
bde57496
3c93bbed
3dae95c6
3d0308bc
3e686560
bd4a40e3
3d557e61
bdc45b9e
3e10909a
bdd0e887
be13d70d
bc61d07a
3e18a4bf
3ca020ed
3dfec341
3ca5e561
3dd27f2a
bdd3397c
bd0d63a3
3e5d9040
bd0a3d7d
be6e93f0
bd6c5738
bc57d65c
bc03ea78
3d100a4b
3e273be3
3bae9ec3
3e437eb5
3e3204f8
3dc359b1
3e2dd834
bd81f7d1
bda1af04
3d4555ff
be155a0d
bd05b0a9
3dd704f0
bd7b1b6e
3dffb9ef
3e1eddea
bcf907cc
3dbb7ec6
bca49d78
be112361
3e711c54
3d822822
bc65d9d8
bd984cdd
3c9e7822
bddf99a7
bdcc0f3b
3b8e1357
3d37e8a4
3e724b5c
bdab6b63
bda864cc
bb6dddd7
3e315c1c
3d15fe6f
3c84697a
3e04a22c
3d152349
bbc1c16b
3cf02230
3cba9bc8
3de06a6d
bde10966
bcdb488f
3d0beb66
be3efca7
bd602ed2
be17af08
bd83303d
be47e808
3e4ce09d
3e0f36c0
3d98f5a5
be21c1eb
3dd622a2
3bdf8fa0
be87aa6f
3dad650b
bdcd8a07
bd2fbac2
3d6387d4
3e5c484c
3e8fe8ec
be2a5f3a
bc148b15
bd96a549
bd28293c
3d58c159
bbba5e78
bdfaa766
bd7fa78a
3d09eab4
bde96b5c
be7e3094
be53f610
bd1ff358
bbfb730a
bccea59a
bd68df76
bc9dfa32
3d753a2e
3e31fdbb
bd3652d7
3d68392d
bc967583
3d6289a6
3e59518f
bc2e1c5e
bd5ebdd7
3d66d8ed
bdcd9f1c
be16c528
3e81bec5
3e0bfc65
bcd9c5a3
3c8aab9d
3d5acebf
bd44ffd8
be5089bc
bdb534b6
3dd9fb91
bdbba56b
be07c60d
bd949598
3e6647c6
bde4ca51
bdf10a4d
bc98eb7f
bd3a67ed
3dc5e9f8
be131a05
3e16b7a0
bdc7b61f
3dfcd6d1
3d642f8b
3ecb8a35
bd642faf
3d532c76
bd8a4dbd
bcf94351
3cbcc51f
3d5e2e3e
3df31fab
bddca253
be5d6f96
bd98cc52
bbc9c296
bd6b0349
3da92c91
3d7405e0
bdc56604
bdfe3e26
3d5bfaa5
3dd0fed4
3e98d568
bb4baa4f
bd9e0a92
bdb33d5e
bdbfded0
bb93246e
3e1f1bd6
bcfc7da8
3ea48273
bd4f0613
3cb3aab7
3e241610
bdec231b
3d862f33
3c8c3d21
3d6efe8f
bd347dca
3e00e5fe
bd028287
bc9529d6
bd9f9625
3d74988d
3c4e1693
bc0118ec
bd0509f1
bdd57439
bd5bc167
3e9ee506
be0ba921
3d951437
bd51dd81
bd46a704
3da0fcad
3d64fdeb
bde6eca3
bccf2e58
3d3b278c
be3f1d69
3acdfbc0
3d327fb4
bdc66173
be4708e9
bd1a5753
bc892353
bcc659ba
bda7deba
bdbcabd6
3d945bba
3e4ac840
bcc96bb4
3e2b3063
3db38ec1
3cf2e65e
bd5cb320
bd3cf663
3e8076a3
3e67aa65
3da88d1c
bdf61dd4
3e62781c
bbf7367a
3d2cbe85
3d911c13
beb6aa98
bd790996
3dd5decc
3a6a871b
be7452ae
be82107d
bdd6c147
3d89d464
bce48c4b
3d39515d
be506db9
bc1ba0cd
3da7d2cb
bcf86b9e
3e1288db
bd68c924
3d9f41a7
3e4ec17e
be757c7a
bd91b9d2
bd9ba4c8
bc9be663
bd97da13
3ea0a492
3d173676
bdd141f9
be1dc7d0
3c95ec8a
bca3fa31
bdf85923
bd500a25
3d4e67c6
bdfabf7a
be2eb97f
bdf03121
3e7493a4
bd0fcc91
bda0faeb
3c832516
bcd5da04
3d7b2fd9
bdca2bc3
3e2d56c7
be734fba
3d796721
bd8ecb0f
3e98d50e
bc619c84
3e1b9cdc
bb6762dc
3dcd7a45
bc52ca1d
3d92cb9d
3cccfa64
be763fd4
bce8ad12
3db0b2d5
bd902d81
bcf38a19
3e97f65d
bc2b197a
3cb523b4
bd4d7aa2
3d9ecf01
3e291a62
3ead4547
be0d451d
3ce3a668
3c94644a
3d4b16b1
bd99dceb
3e0cfc6c
bd084a59
3ebcf1c0
bdb8265b
3e530139
3e2738c6
bdd37f70
bc6e7690
3da25b42
3d8726c6
3c23bc90
3dc704f1
bc446989
3d82fd58
bda5bfae
3d384e43
bc59214b
3dcf82e0
bdb70520
be06207b
be11e610
3e460886
bd7de9d4
3de06475
bd5a4f05
bdd34043
3dedc5b6
bcfb3060
be321868
be061294
3ccab921
bda2d126
bcfe1c16
bcd786f0
be171f79
be839230
bc1b52fa
be1fad1d
bc9b07bb
bbe6fdda
3ca104d4
bd92010e
3e0aca9e
3c9c369b
bcb283c4
3e0ba9dc
bcc84d66
be00b110
bd8dc7ca
3e3174b2
3e60316c
bc66cc57
be26eec8
bd8a0997
bd89d8b7
bce3b395
3d5cf657
be9524ce
bda14950
3e162694
3de5c8d2
be302964
bdd42d3f
bd81e276
3e159f79
3dfd40d1
3dfc3b2d
be5b9bc5
3dd61dfc
bbd7a6ce
bd9fcc01
3cf9263f
bdb2ceb7
3b269380
bd92844d
be413269
bd525f56
bdd316e4
3d40e10d
bdbf9aa6
3d8d4f17
3d3967b7
bdc4210d
be38f1fc
3da20e5a
3d26681f
bd989e8a
bda3fe50
3d84916f
bdaa7dd0
bc94193a
bded13d0
3dd337c7
bd2796ee
bd9b409d
3e416911
bbe13558
3dee0ecf
bdf641c6
3d5aec1a
be69f385
bcfcca19
bd4fdfb2
3e7b31d9
bda07d24
3e4282c1
3dd0ff5c
3d813c51
bd499be8
bcda4b7e
3dffa06b
bcf4dcfa
be0ba2a1
3d414496
be197743
bd39df22
3eae283f
3d6f0872
38dd87d1
3dbb8bbe
3cdbeed2
3e53c38a
3e77b9ca
be54e0fe
bd499674
bcb05a41
3e408356
be4f7ea5
3c06a820
3d2e7b8f
3e4de180
bd12705a
3dd54ea8
3e1d1568
bd3c4344
3dbfa9c4
3dd0d019
3e4c1a72
3ae1ab80
bd397ebc
3d8744f1
bda0bdb7
bdf1288f
3bc4b412
3db7eb84
3d1efb10
3d567eb0
be5e4b83
bde8b1d7
3e14d778
be40107c
be70da96
3dacd599
bd749e8e
3e8d1a7f
3dfa8526
bdf85087
bd008143
bd5377be
be0cf431
3d2da724
be2ca3df
be1c481c
bdeab5be
bc3750fd
be24ca70
3d89060e
3e28d6eb
bc98e7e7
bcb073a5
3d55af5a
3d1cb3ac
bd3a0aba
3de75efc
bd11caee
bde2bea5
bd93bc1a
3cd7d599
3e6a6ff5
bdd70c79
be1cfdde
be55113d
bddb51cf
3dc56b73
3d664788
be10ba26
3d0f0a1d
3b5683bb
3d109add
be0a0f6f
bdbf4e4a
3caf90a1
3e4cc721
3ded042b
bc8d6314
be5c56b5
3d511721
bd3f7309
3d81fe20
3d8b5808
3c9d75c1
3d8348c7
bddc90a3
bdbe7750
3da98c4d
bdcd92da
3c94647e
be43eeb4
3d104422
3d1712e3
bd990126
be06525e
3d851fa5
3ccd3a01
3de29d34
b8f880a3
bd0f46a6
bd964abe
3e27f572
be3cf2e2
3d4dec21
bd665484
bddc1218
3e8f5874
bd34066e
3dbb1fad
bd7f6f58
3df15757
be4b5444
bdc3808f
bdfe04b5
3e3fb028
3d665e62
3e09a8a7
3e472e55
3d1b39bf
3bbddd02
be168789
3dbfaa82
bdb2b1e2
bdecdfd5
3dcda824
bd8ac559
bdec01a9
3e8471b1
3e06a379
3d9db5a8
3e7206ef
3cf2315b
3e0d7d10
3e437a8c
be19f373
bd61681b
bc25b2c3
3e3d3d1c
be3c8c75
3d61f4dd
bd8e8bcf
3ddc9e90
3de599f9
3e121550
3dbda315
3d851a26
3d9cd457
3df6e490
3aca922b
bd554f08
3d61d829
bda2b5aa
bd812ce0
bd0405dd
be4a9914
3e2a8e7a
3d8252b2
bcd58172
be2379c4
bd0546bd
3e47167b
bcd4af9e
be6a8eac
bbebb0c8
bdc07d03
3e5df568
3cd12728
3ce927e4
3c9589bf
bbd9c69f
bbb8de1d
3d46b9ee
bd8fd2f4
be11c5b4
be11259c
bc937c3c
bda6eee7
3db8b660
3e52b7e6
bd90c753
bcf3186c
3dc93197
3dd16e0e
bde64565
bd8990a5
3957d686
bd38a6e9
bc186e8b
3cebfe1a
3d57a7eb
be1e8fff
bd76e400
be07aeb3
bcb293c5
3ca522ea
3d831350
bde533be
3e01676e
3ddb600c
bd12cca5
bd61a304
be06173a
3d4286c5
3e4ed611
3e1295f8
3d86efc5
bd4baccc
bc4c26f0
3dda299c
3d2a2537
3db0ad60
ba9ff0a1
3d196a3c
be16d2d7
bd45384d
bcc73778
bdefd909
3d9fc269
bc31cf11
3d283c69
bd37cd36
3c524e38
bc55da00
bda7a908
bc51691d
3dc5f6a2
3c89d74b
3ae07db3
3c736206
bd1027ad
bcd5cb52
3d4d0dad
3e0a82ac
be059357
3db92275
3cd49c19
3ce98a80
bc5f53e4
3d357d5b
bdf61199
bda50f56
3c7f20a3
3da0f3e3
bd411dd4
3d6b665d
bcb9b412
3beb7fef
be07a899
bdd3f25b
3d42c8ac
3d492998
bdd14615
bdb781de
bd803104
bd656300
bc23af4e
3c83ccf4
be12ac8f
3e200e39
3e0b8252
bd83023b
3d84ebff
bd0072ff
3d318a44
3ceafbc2
be57e0d0
bccfca24
3d9bc129
3d92abe0
3c974835
bd85f618
bd820c30
bcb68925
bdc7888f
bd27da58
3d78f8f1
3c9d19a2
3c2eeca8
3dab7b7e
bd00dae6
3da4d075
bce45435
bc48de8c
bce73f20
3e1952bc
bc874419
bc4f4840
ba68dc73
3e01ec5f
3c762a6b
be449d8c
bc9288ff
bd4c6f85
3da0bb8d
3d796399
3e0ff1bd
3d3339a7
3bc80e38
3dcad94b
bd9289a4
bd5212a6
3c903289
bc0d9d92
be187261
bde08bc1
bb490b4f
bc642e2c
3d5e30fe
bd228dc7
bcbb205d
3b06ac44
bdb5718a
3dd45d15
bd4981d6
bd06b7a5
3bb8303f
3e27f2b2
3d62c15a
be2a57ee
bc800c00
3e0aea3e
bd8223fa
bd32a7a8
bd1dd63a
bd8126cc
be2592e4
3d84a393
bd7cafdb
bded2287
bde37dce
3dee7e30
3e152157
3e4bd2f2
3c8a827c
be0a3259
3a3c0dd4
3e066e54
3bdb5f08
3e043287
3e43e97b
3d4c1fd2
bdf115cc
bc99319d
bd7ee498
bd7ce9e7
3d464e7a
be401535
3e54ab07
3ddeea8f
bdc83100
bdf72e3e
bd41526a
bda4bd65
3db8f7ae
3d9bea11
bcd09e29
bca42061
bdf61269
bde97f63
3d86c0e6
3e2cafc3
bdb1f41a
3e0f04ce
3d72a8cd
3dac8e44
3d6f0138
3d7b76dc
bcb07e35
bd4f6e40
3d029cf2
3c1421ce
bd66b830
3e2f1fdd
3d297c1d
3ddcaeba
be2d2929
bcce4c9c
3e16c05f
bd93358d
3d71cb59
3d59f2a7
3bc7490f
bcc43b31
be12a8ed
3e11773f
bdb1287d
3e07c5d0
3e2f365e
3c5f167e
3df66a17
bcfef95e
bda47bff
3df7d6e0
bd3ea289
bdf45ea7
bd8e4ac3
3c8c1493
bc8c693a
bdc01ce6
3d5b057f
3db24e44
3d82759b
bda231b9
3e377787
bd5e9c6e
bd752942
bcb44833
be3c7561
bd3e40c7
3ce8c616
3d89302b
bce67593
3da3be4d
3d474b41
3cf595bd
3c70a383
3e0d9388
3dcdc1b9
bdca11ef
3da61330
3d7a59c1
bd6f2c1a
3ddbc198
3c55fa61
3d919166
bd5891d5
bdabf973
bd7b933e
be900658
bd09fa5c
be303b7d
bd132a6a
bd9694de
bd51c367
3e2778b5
3cf61dc0
bdd85546
3d032319
bdb4af87
bdf9f118
3e49aa1b
bd9a88aa
3bdcced9
3d8d57f0
b9a257fb
3e0bb96e
be380357
bdc1bf92
3de8f9ec
bcbdec67
3d20d2ea
3d6d7937
bd8033fe
bca19101
bb943d77
3d691f2a
3c6482c8
bd8c7ffe
3da952f9
3d9e8901
3e4e388e
3d10c418
bc92b6aa
bd476f05
bc33554d
3d86f733
3dff996a
3dd30343
bcb8b142
bc52be2d
3d6601c0
bd855aaf
3cfd1286
3dc22668
bdb01b07
3e171a3a
3ce4e251
bd93df2f
bd39dc66
bdb202a4
ba9df543
bced0a94
3da09e9f
bca23e2f
bdcfbbbe
be4af9ab
be3c5be9
3c865f84
3e1805df
be06b37f
3e22f94c
3d3d8992
3a25e13e
bd20f1b5
3e3f4775
bd1ec566
bdf90b48
3d92a9c1
3cae337f
bd3d9bf4
3dced233
3d877daa
3bdea7d8
bcb15c2a
bda3b1a9
3b640f27
3db4371a
3cfa9c18
bc8a6547
bb593de1
ba89de2f
be263fbb
3c124fb0
3cfc315a
3e458c4f
3dc24166
bd705d70
3d979f8d
bd4192ee
3da345d9
3dd79bbd
be23f55b
bd99de44
bd72a7ed
3cd75c68
3bf45425
bd6478ef
3d9a77dc
3c94f5d9
3d89b5a5
bd8dd525
3d9f365f
bdf699ac
bc35bed0
bdf34980
bde64920
3cc1fba3
3a9e93c9
bd4379d7
bcdeacd7
3dc99bfa
bd76bba8
3df4409a
bd95c720
3e071ed6
3e2d6764
bd081d5b
3d3af77f
3c8557f6
bc3b6c4c
bba1684c
3b861fdb
3d9d6589
bcf6a6bd
3b11e4f3
bd1890cb
bdf1c521
bcb612f2
be03f965
bd82e1be
be58126f
bdd314cc
3e079780
bd6afaf8
bde26310
3d5e6577
3cea0d00
be5db680
3e3c3a7a
bc98f94e
3c19d279
3d5aa81a
3d64c1f8
3e1eb6ee
bcb82608
3c78c142
3e31901f
bda0a517
3d1ded84
bd7c74e4
be3872ed
bd4f87ed
3daba680
3c9d457c
be209f22
bd27a2df
3cf013df
3e04ce20
3e07f843
3d431a28
bce8cf48
bd844119
3cf5486c
3da3ec10
3d38581e
3d932e14
3cb2e998
be12693f
3d8a71fb
bd3bff02
be13a63e
3d2fa949
be1c0a08
3d14a122
bd52859a
bcfcb0dd
3cd7ca77
be223cc7
3be847a2
3d87cb00
bb557260
bd337b2c
bd484aa7
bcf59476
be19ecac
3d28f847
3e0c01cf
bd98ea6c
3cc53835
bc98f24c
3c4393d9
3c8c1648
3df962a8
bdc9ed27
bdcb0170
bbba686e
3d237e08
bd968bd6
3dcbc257
3bfafc66
3d830640
3d47dc5f
3d652b05
3d7ffedb
3d6dc65a
bd20d8ed
bcc15ddb
bd369d4e
bdce2145
bbcaaca7
3db55280
3d067951
3d85f408
3d0a1028
3d321fca
3d2c8dfb
3cb293f8
bd71ab02
3bae7f57
be1ed77f
bd81d4e6
bdcab967
bd23fff0
3d6a118e
bde4ce3c
3d06e798
bb703a77
3c4ccaac
3d5331d2
3dd094ef
bd9756a1
bcebcb86
bd9c6a8c
bdd49bd5
3cde00ad
bdc5a06b
bc9bc742
3b840709
3d979674
bc454240
3d955b57
bde76b84
3d28368e
3e0ea8f3
bd978db7
bd4cc0f2
3b8e97f3
bd5feb14
3e0fc905
3d8ffab1
3c4a9e73
bd63816c
3cc19a7d
3d01c66c
bd0f54b0
bd9ee96d
bd356f6f
bd3d5cb8
bda069f7
bb802e05
3d259749
bd459fdf
bd8a6589
3dd2afa4
3c85da2b
bd9bf774
3d7239c8
3cec6068
bd3ba535
3d863231
3d622898
bbb63264
bd847432
bd057d35
3e0a5bb5
bd82eec4
bd02ffb7
bdb77736
3cd15005
bda00679
3d842dd9
bc1bfc3d
b9d9c296
bc4293f2
3c1d2e65
3d8c446f
3e09e7dd
bcf637eb
bda313d5
3cd7c050
bcdda26c
3ccbfc2c
3d644fde
3e1b6ec3
3d72a8f6
bda0474e
3da61e08
bcbabef1
bdb67bc9
3da2fcb6
bb618963
bc2c3df8
bd213b13
3d9db7c3
3d07c4d5
bd0bc57c
3d3e4b86
3de3a05c
3cbe8c8c
bc5c0250
bca5dc2a
bd725eb9
bdf0c1c1
bd27afea
3dfda350
bcd2a887
3d68beee
be00373c
3d347d23
3db84b33
bc962173
bdeba240
3adce0ce
3a812d71
3da8540d
3d881c9d
3de18693
3d883db0
3c147cf0
bd3e1de3
bda12e22
3df24efd
bd5d65b6
bc88f30c
bbc3a1e4
bd9025cd
3c8ed572
3c95c9e4
bd28fbd2
3d3389b8
3d04aafd
3dac183e
bd866c66
3cc1ffe0
bdfe9a31
bd80521f
ba269d33
bdf6045e
bbc99560
bd3ff69a
3cb0c678
3ce39e58
3b55331f
3db5342f
3dd37b53
3c5ac0fc
bc977842
bbbe7f08
bd3bf657
3d9771f9
bdbbd9ed
3c71c403
3d35e813
3d579eca
bd07a276
bd9750df
3e1fbe96
bcf4bb2a
bc1a0533
bd906240
3cc79786
3daf5809
bd49c88c
3d07a821
bd557364
bb8127ac
3dfc2271
bdd47af7
3dad9e47
3d30e77e
bd630432
bbdc8ea0
be22cedd
be0288a1
bd934006
bdcfa346
bd787876
3dce34cf
3ddf8dc9
bd52987c
bcd287a5
3db12c0c
3d8a2934
be118b00
3d2cf7f6
bd255f54
bc4c4cfc
3c9be2fe
3cb51316
3d8c18a2
3c00c3a0
bc295161
3cecfe9e
bce8ff7a
3d7d45c2
bda19395
3d5ee749
be2baf43
3da8d823
3c82d9e9
bc52c72a
3c531dbc
bd1e09e5
3db7b5ba
3db1fa1c
3d6af972
bd8c63f1
3cdfa8c8
3c1697a7
bc4a5996
3d02d2c3
3cba98c4
3d03da8c
be132fef
bcf07ea4
bc91aea8
be04cd5a
bd609a6f
bd3df26c
bd844114
bccce556
bc872a7c
bdc79f8c
3cf6c800
3d010b46
bba994c6
3d48060a
bc4881b0
bdcc6f55
bda94608
bc77f86b
bc571f90
3d6c33a6
bd03ce83
3bb2a1d5
bca9e1e1
bcc7e2e2
bd952130
3bbab390
bdb91186
3ce2ed64
bd0d06b1
3d8b23f2
bc38bae0
3d20dc72
3da188fe
bd568905
3b9dfb89
bc3f5348
3deb27cf
bdbf23f9
bd38e8eb
bcf8edae
bdb54f38
bd66eb0f
bccaa372
bd4ee5ea
bca7178e
3d751b61
bc093695
bd4adb89
3e12d7cb
bb8909cf
bd1c4707
3ca1e7bc
3c837568
bd68e8c4
3d8e2009
3b153ec0
3b83f810
bd9bbb0d
3cab05fc
3d0f2501
bd53e68f
be0476bb
bd8c45dc
bd99e907
3d86b79d
3d8e78e1
bb253005
3dbb785d
3dca2b15
bd82e7b6
bd704eae
3dd15e11
3d2f9c71
bd110faa
bcfc9cf0
bb123ea9
bd4e4b28
bb9ec8d0
3e048b29
3d2c3024
3d900c91
3ce5a5ac
bde737bf
bd2c8298
3d897e2f
bd7361d1
3cfb1b5c
be136d4b
ba213a85
3cfc1914
3bf8dc24
3c69f710
bd4ac8a3
3dc9fabe
3d7b9756
bd04816b
3d8067a3
bc9c0356
bd41a99f
3cd7d24f
bd58944c
be0a2d58
3e19fb53
3d9a55c2
3c522d31
3c8cb5cc
bd0aff55
3db4b6d0
bd138e7e
3d2e2652
be00e81f
bd49ef89
3bb4c643
bd88024b
3d9c231f
39eaf000
bce6d62e
bca875e0
bd83e680
bc327248
bd8b5611
3c384e70
bd88cd7f
3d4b8cbe
3d94179f
3da5b00d
bcff3398
bd56315a
3b05dee0
bcbb7cfa
bd8c414f
bd733728
bd1532ca
3d9864c5
3d499e32
bda1d149
bda347c6
bc69a550
3c680490
3d61ebfa
bd75e2dc
bd36830e
3d4c5f3e
3d5f5372
3da08ebd
3c9d7b30
3d4c560e
3d5bd24a
3d076342
bcf5381e
3cbc59ec
3d20d69e
3c0a2e00
bc5a41f0
3d266f18
3c598148
3da09ee7
3d2117fe
bd948354
bd4d96ef
3d3dcc46
3d87770f
bc8a3bcc
bbda23f0
3d69f9c2
3d807c67
3d895e35
bd076205
3d7339ce
3c31aad8
bad0d900
bd87b760
3c247e50
3d005272
3ca86500
bb5fbe60
3d45c4e2
3d4205be
3d903b61
bd3497ce
bd9010bf
3d01be30
3d30e6f8
bd56659c
bc19fb50
bd84b519
bd8dfb45
bd1835a0
bd341dc6
bd055df3
bd4ca89c
bd2678ae
bd13b215
3d9593e3
bd920994
3d363d46
3d7ddd7e
3d959aa7
3c8b6bb8
3d8d121d
3d39c04a
bd76a8ee
bc124c60
3d984eb3
bd944c43
3b3c1640
bd880ed0
bc948fd8
bd3a1659
bc6941e0
3d0f75e0
bd3497ed
bda5c765
3cb3615c
bd20f935
bd3730a6
bd9a63f3
bda0d734
3d87570d
3b7cca60
bd673a30
3d0535c2
bd9cbe19
bd8374e2
3ccc6e9c
bd014959
bd9761ea
bd88cb1f
bd197c38
bcb68c62
3d49adbe
3ad97680
3d4a9766
bd2c788e
3d16371e
bd8657f2
bc0100c8
bbbdbc30
3d67ec4a
3d5f7432
bc963148
3d3d768e
bbe091a0
3d8a4293
bc3f40d8
3d729dc2
3d205ebc
bda4f952
bd74f342
3d7baafe
3d53d886
3d27fd3e
3d7e936a
3d5dd58a
3cf8db84
3d5b8bb2
3d7b8f4e
3d991afd
3bcf2780
3d5d64b6
3da37319
3c41e770
3c2c6730
bc92b65c
bd858137
b8c03000
3d810663
3d8c5641
ba4fe480
3d6fe74a
3ceefd20
bd1e72b7
bd93b7a0
3c66aac8
bba4d630
3d196e06
bc2de1d0
bd50eabd
3d9e8917
3d0fd6c2
bd49e3d8
3da1d01d
3ccbd340
3c52f398
bacfb780
bd009529
bd8034c2
bd89b852
bd22e53a
bcba67b4
bda03f81
bd21b28c
3d9831ab
bd1f640a
bd415fa6
bb83d1f0
3d19bc28
3ca99d84
3d96fed7
3cfdd87c
bcde819e
bc38cfb8
bc6c2e98
bc8c3d6c
3d649f72
bd308c1a
3d6d8a62
bd862e70
3cc6f384
b9671a00
3c9cc560
3d6cc62e
3d43df5e
bd356e43
3b4f2fa0
3cdc0a88
bd1798e1
3d8ba829
bd58a2e1
3bf85760
bd8ad856
bd52987c
bd38ef20
3969ae00
bc2a26b8
39b78e00
bd6dfa36
bd07b792
bc04f4e8
bbbe7420
bade99c0
3ce4cfb8
3d1f8364
bcfd973a
bd949ea4
3d870ef1
3cb1ad8c
bca59f34
bd24d064
bca86712
bd154764
3d120fb6
ba921400
3d067208
bd9c7754
bd6b0d13
3be37750
bd1e3a62
bd8b4a99
3d89b46f
3d063308
3d0f7506
bcc9cc2e
bb0834e0
bd7b3594
3d5a7f56
bd8706c2
bc514308
3cdc8950
3d8dd27b
bad8a580
bd86cbbd
3c570a28
3d55a916
bd77c198
3cfc99cc
bd1f8203
bca8d100
3bee8670
bc8f0350
bc378010
bcbc2410
3d49c386
3d16f05a
bd91b486
bd6bfb9a
3d460d6e
3d4feeaa
bd8ca3a5
bd014207
3d0e6932
bd7fa16b
bc658488
bbacbbf0
3d2a56a4
bc41f510
3d7c0892
3d9692a3
3d7ccf72
3c5bb5e8
bd5a69f4
3bee9310
bc345e50
3d4a163e
bd800c92
bc0b46f8
3c849a2c
bc85618c
3d3bd676
3d5558ee
3cb284fc
3d2a17e0
3d9e9801
bba29ca0
bd946250
bd205810
3d35cd7e
3cf18160
3d31b2a8
3d58fa32
3d6182fe
bd47e512
3d12396c
3d395356
3d553616
bd019f87
bd3d27c3
bd6c1f6e
3d8ef07b
bce6989e
bceef0f4
bd9de292
bd8e3e32
bd01aba7
bd894633
3b80cef0
bd35bffb
3cf18654
3d2ab6f0
bc557b40
3d8ec29f
3cb996e0
bd2a2416
bb0e4160
3d94d0f1
bd954be2
3ca0fef4
3cd954a4
bda4e734
3d8a1c4b
bd8beba2
bbb8ed10
3cd16428
3cfbe828
3d0dbf1c
3c8d1914
3d2160de
3bc88ec0
bc757db8
3d70f112
bcfc137a
3d41c916
3d431c96
bd9751e0
bd6718a2
3d840757
bc499c48
3d929d61
3c7fc110
bd2e9838
3d9bee53
3c2467f0
3d19fb80
bbc30690
bd92ad1c
3bfe7fb0
bc301da0
bd9a3f66
3d8a4bdf
3d53029a
bd513449
3c7cda10
3d918605
3d80d249
3d5691c2
bbdcc7e0
bc5cad88
bd8c16ed
bd04255f
3c974a9c
3d4610e6
bd9519b2
bd372f55
bda0a2a2
bd120915
3d861b0d
3b3ebb00
3c097348
bda1623c
bd7be7c8
bd4bcc9e
3d85f3fd
bd360992
bd656ecc
3d90f87d
3d65a642
bd92f525
3d867c95
3d29415c
bc8c4b94
3d0e4810
3d82419d
3d4d8ffe
3d6190e2
3d06af7e
3d9ca6e1
bd762c72
3ca92a1c
bd63cd81
3d175600
3d4e59de
bd130d0b
bd910774
bc772c68
3d31daa0
bd126eb1
3cd05330
bda301bf
3b8c0d80
bd1283fc
3d0dd6f4
3d0fd538
bd7829c2
bd443107
3c784740
3c89d0c4
3d9343bd
bce6d4ec
bd96be7d
3c808560
3cb88d20
bda52b2a
bd8228c9
3d8b3b11
bae6ca40
bcdb692a
bd854226
3cb74ff0
bcb35afc
bd80fd80
bd8d6541
bd0196aa
bd4103c6
3d8468f9
bc4e0d20
bda392b3
3bf85040
3d99d9f5
3d8196b5
bca71080
3c9a61f8
bd955531
bd48d0e6
bd90a024
3d7331fa
bd95deed
3d349b9a
3d97fadd
bd81a7f4
bc9dab2a
bd93eb5b
3c920e0c
bcd4111a
3d40cdd6
3d187f74
3d1e68ec
bca75286
bd8e961c
3d9eaf47
3d62540e
bc5efa78
3d8e8081
3d7f9172
bd206cde
3ce23a98
bd99df17
bc50bd58
bc186a50
bd1126b4
bd37cf91
3d236410
3d092cfc
3cf046f4
bc9c87b0
3d04264e
bd8c1b59
3d913bef
3d5bfcce
3d7234a6
3d801b99
3c4aade0
3d2f0138
bd7faf78
3d534fb2
3d4005ea
3bc7f9b0
bda38ecf
bd309023
bd46c199
bd1b96c6
bd7f6f55
bcd430da
3c9576d8
3d53378e
bd84deec
3d490bd2
3c1b6fa0
3caf794c
bd6f2d61
bd1ed919
3d6b0d32
bd9322ec
3d60a21e
3d9b03df
3d3b8f12
bcd7c712
bd9471d9
3d232cee
ba137b00
bc5827d8
bb8e3f00
3d053906
3d9de38d
bd25b7f6
3da512ad
bd39a7fa
3c8be0b8
3b0120e0
bbc2efe0
bd522e0c
bcefdcfc
bd6c6888
bd8a601c
3cd30ecc
3d393a36
3d8ee52d
ba340500
bbb6cd50
bd980ea4
bd6947d9
3cffdc58
bd9cd12b
3d81fd4d
3d04b430
3d2bcd5a
3d7d778a
3d85cd85
bd9eaede
3d2a2904
3cdeaf54
3d61c5f2
3945a600
3d88ecdf
bda03cb0
3ce2e3fc
3d85443f
3d85f8b5
bd660b00
3d433876
bda032ea
3c09f140
bd88c18d
bd0cfa6a
bd74b1b8
bcc761c0
bd93ece0
bd2d51f8
bb567980
bd3aca36
bb41ab60
bc730b38
bd22fed1
bc274c00
3d58310e
3c058de0
bd8ceb1a
3ae83a40
bcdbfc0e
bb5c81c0
bd7f2fd2
bcfe2930
3cb862b4
3d1b20fa
3d129a44
bd8e0124
bb86b170
3cae41f4
3d23c274
3d43b3d2
3c891724
bcec235e
3d814fdd
3d7fed66
3cc038d0
bd525ea6
bd75bb18
bc9632fc
3bf45dc0
3d667ac6
bbcace80
3d5f3e3a
bd99e50b
3c0fa518
bbc113c0
bcb045e6
bb74d7c0
3d2ba69a
bd5bb352
3d32bc56
3d486e6e
bc1c92b8
bcfe73ee
bd7dd61c
bd89fe5a
3c959fcc
bcf9de6c
bd87e4c5
bd61b3ae
3d83d9eb
3cbc8e54
3d15fdc0
3d477fce
bd8c8e89
bd2b3a5b
3d3c3976
bd841b65
3d0fdc12
3d292a68
3d8d8c5f
3caf2104
3b4fa5a0
3cd53864
3ce2cd5c
3cce7828
bd2bbc1d
3d4ef65a
bd499f3f
bd91b24e
3ab54840
3c4d40a8
bc8dd6d4
3d885b5f
bd623388
bc74cbe8
bd628b08
3d59f4de
3d1d597c
bd88f3ca
bcc3daa0
3d214ff4
bd68660e
3d9f6523
3d1d4426
bc7f9ea8
bc35b0d8
bd15d006
3d067f64
bd3058cd
bd161226
bd587782
bc7e7168
3ca39120
3d8a9815
3d2badbc
bcd0b9ca
bb91c590
3c8e9cbc
3d996001
3d8813cb
3da2dd1f
3c524c18
3c1d84c0
3d827191
3ca55dd4
3d6c953e
3c9759b0
397e8600
bd6ef598
bd8f3a04
3d9d223f
3bb8c940
3d99daf5
bc78a590
3bd8c500
3da1cf25
3d83d3d3
3cddb58c
3d969acf
bda4e45d
bc8a58fc
3a4ff800
bd8de7b4
bd3ceb0d
bda53ee5
bd7b710e
bc705ef8
bcd704ee
bc062a90
bda22cc0
3d1a5920
bd8058f7
3d6c4056
3da4dca3
3d50f9fe
3d9f6557
bd610413
3b5dd780
3cc8ecec
bc8ebe70
bc42d4c0
bd608af0
3c408a58
bd89615f
bd7f8334
bc252240
bd8dd06f
bd7aca06
3b949fc0
3d5d53ae
3d40f60a
bc663a38
3cdb9150
bd990ffa
bd353af1
bd1b7ea9
3d283d66
bd1ddde0
3d1a916e
bd699681
b8537800
bc854da0
3d5fc8a2
ba96efc0
bd180bff
3d88d3a7
3ce3facc
3d854bf1
3d4d84fe
3d89d7f5
3d80645d
3d0e1d6a
bd952d6a
bbe79e10
3ceb4660
bcab8872
3d8bcb8b
3a026280
3d1aed30
bce7e5e6
bd87455e
bd71e8a8
bd6033ce
bcb3970c
bd5df8aa
3b9bd310
bd28cb05
3c135888
3d3a5932
3d7b8c9e
bd174644
3d6ffc6e
3c4c72c8
3ca6f1cc
3d990663
3a1d8580
3d51d0de
bc1abfb0
bc47d1f0
3bd5f9f0
bcff1e96
3cdb5a00
3d7ce746
bd69c0de
3d4ae21a
3d6bf47a
3d46f002
3d2f389e
bd9f75fc
3d1154e4
3cb770fc
bd0ec743
3cba7db1
3d52ae66
3d92a053
bd1d4708
3cfaf836
3c5b896e
bb984fb3
bd792f12
3c100f99
3d874e07
3cb6698b
3d6fbb36
bd32797c
ba175542
3ce27ae8
3d97c0d9
3b4a29a1
3b09ade0
bd6ddd8b
3cbf7f4d
3b00e596
bd05ab98
bd032b6b
3caadc00
3d37c2f2
bd47ecd9
bd2c02a5
3ccf6c5a
bd60e2d7
3c9b9338
bd348479
3d0f4fdc
bd6c7fe8
3d3b366a
bc00857e
bc382f79
3d8c65ef
bd0f9760
bd9e2a22
3d82c1dd
3d4b6647
3d81a0ff
3d9e655f
bd9d4537
3d8cf4fb
3c0705a8
bd17da96
3d4fdbff
3cc6230a
bd83dfd7
3bbb4dc0
3c64b4ef
3da41f52
bd92f3bf
bcbe2d86
3d396b05
bca2d35b
bd7fa7ed
3cad92a8
3cc1b83c
3cce92a7
3c009d7a
bc48a2e0
3cfb553c
3d00a19e
bd5ab788
3cb91a6c
3d167a89
bc27ded0
3d2c350b
bce24006
3d96a705
bd57a950
3befa7d0
3ce8a563
3d96b817
bd03ca82
bd19a295
bd1f788c
3c064068
3a7e881c
bd7aac09
bd2c6ea2
bd1482fb
3da28ad9
bc8621b8
bcf2d526
bd8b1b3b
bc104520
3c0529e7
3d0c4331
bcfe13c8
3d296644
3d6cac13
bd92f444
3cef1e30
3d5655e3
3d748782
3d4566a8
bcf32d7c
3d1ab342
3c4e2eb8
3d893758
3d4ad221
3d313aa8
3d4569df
bdafea7b
3d025d9a
bca4e59e
bd09b230
3cbe073a
3d844351
3d6a6d3a
bcbd468c
bd165d62
bd834ce8
bd9d516c
3d7fcea2
3d1525d5
bcb6029e
3d9a61cc
bd7ee383
3cef8c97
bcffe090
bd496bcb
bd99dc73
bd58b6fe
bd8ebe2b
3d71f4d4
3d31f18a
bd5dce30
bdaa8470
be29d19f
3dba1211
bd996a3f
3db8e151
baba0b00
3da3e5c4
bcf5a2d2
3dd0dd00
3c7bc3e6
bd83c806
3d50c9a6
3d7255ba
bceca28d
3d86d507
bd4abf63
3d44c1f5
bd9307c3
3ceefc78
3e08ba57
3d47dee6
bd699076
bd2c853f
3dc82190
be14ed9c
3ba2fe00
bd817e6f
be31c4e9
bcf2c404
bcaa71c0
bd9fd6c8
3ca6e2c0
bd519b81
3d68c445
3d43766e
bce1e9e2
3d9379b5
bde55cbe
bcf4041e
3d4a0b1a
bd8de5eb
3d99123d
3d4489a6
3e232626
3d5c7f6e
bda2b4ef
3d180382
3cd63cef
3d852fdb
be1eb369
bca197d8
3dcce709
be19f6f1
be09276b
bd97b20b
bd57dea8
3cedb94f
bd9e77e0
bb023680
3e12c8a8
bcfa95e5
bce68e56
bd6d3212
bd6ae641
3ca78f08
3d10a2da
3dfa74cc
3a0f5800
3da2cf78
3d6cfe62
3e1e16c9
bc6ac0b8
3dcf70be
3d76b6be
3de5fd8c
3e134135
bd58a68c
bd644332
3c84919f
3e3e717a
3d640e44
3c7a4040
bd8ce183
3da5a78d
3ca23f64
bd408dcc
3d89f259
3dede9ba
bcc093b2
bcdcc9e0
3d82d437
bc614f28
3cf2a5f4
3df8cb29
be18cee2
3e369db8
bc231b90
bdf9a0dd
bd86c9c8
bda744df
be222f2f
3bf5e0fd
be0f2f64
be21acf7
3d91ce96
3c3f5bcf
3d173326
bcc2006d
3d68aba1
3cb68498
bdc62d47
3cbf2018
be1b7f83
3cc9502e
ba0894ff
bcc3df36
3c36aad8
bd818857
3e027bc4
bda39908
3ba5ad40
3c444b6e
bd16c8c5
be672686
bd93bd68
3cc4ec25
3b4fb148
be13d986
be575157
3d179e37
3e68f412
bdd61070
3e4d63fe
3c8d8f21
3dae87ac
3bda8e3d
bd574e32
3ddfbfd1
3e1792d1
3d8d9789
bbf13e8b
bc53daca
bcd7ed84
3b26df28
3d33767c
be5c8d42
bdab0265
3daf9abc
3d57525a
3d4aa7fc
3c02a9c7
3e4b0c45
bd8f870e
3d8c1afb
bdcc3bcb
bda0dcd6
bdfece22
bdcfba71
3ccc023c
3df505e0
be536233
3d7458ac
3dc29c7e
bd22a530
3d773c63
bd3ec0b6
bda2a44e
bd4b7091
bc26f2da
3d7f2a4d
3d30473e
3d9e0c73
ba201ce0
3d8ab413
3da7da56
3d95ad83
3c82397d
bdb0b3b0
bc968337
3e2078d2
be470149
bdf40d8e
3d570318
bd2e150c
bdd6329c
3da81cd0
3dc421e9
3e15f206
3d7f7a0b
bcbf82ef
3d877999
3c5a12b3
bdfd65c2
bdc2bb9b
3dcf5afd
bd1f5d6e
3e3cebfe
3dbd77ad
3e070b81
bbbd38d8
3e13db0e
3d3ddb47
3e25cae8
3e040974
3d910aef
bcee192b
bc9739d1
3d2b4a49
3d08a94b
3cba6de8
bc93ba85
3d987d53
3cea9447
bcc636df
bd49f86c
3d1fb6ba
3d4b6d45
bcc450e2
3b4eb0dd
bc7aac23
3d1e7d51
bcc2f15b
be3c8d2c
3d95c90e
bd7b75e6
bdeb39a8
3ccd9560
bb53266c
be37c32e
bd74c352
bdcd261b
be592e7c
3d9238f4
3df67c92
baf1a800
3b45f35b
3d60ce14
bd8154ba
be3b0f12
3d9376d1
bda3897f
bd8e4069
3d689f42
bd660336
3dc47b62
be25e66f
3d158801
3d27935b
bd2e5f71
3da9bf6f
3ce2fa49
be1d8c1b
bd6688ca
3d8893c0
bc91fbe0
ba8831d3
bdc2c748
bc9237ff
3e0dab28
3e0d4740
3bd1eb9b
3d99af3b
3dcc5cd9
bd6e32eb
bca0f3b3
3cf1f9ac
3e1db3e4
bd58a195
3d90bc21
bd3c226a
bcae17d7
3d18efa9
bde3c9ab
bdb93602
3dc30671
bcf83c2b
3baf505a
bd5d4f9d
bbe62cb3
bc9ef5ac
bcf6c311
bcac51d6
bded063d
bd61551e
bcf6ef0b
bd4df5dc
bddb4981
3b8b0809
3bc2bed3
3dda754c
3d410447
3d0d450a
bcfd08b3
3e219d32
bd02bdf0
3c99cbe2
3b69aced
3d8be196
bd1fe751
3d0d24be
3d84ae36
bd335c50
bdab3639
bd970010
3cbb3721
3dce14af
be1628b3
ba701eb7
bc472fb4
bc6da214
bcf32e56
3d064b1f
3cb6323d
3dbdb126
3de88268
3c2fe4a3
3d2df573
bd654466
3d8624c3
3ce2e6c6
bd632cea
3d75f4df
bd7e9e63
3c9f7f18
3dd5c9c7
3d9e93a4
bd5d7cff
bd431ab0
bd33d3b8
3d676eba
3cdbce2a
3df17d92
bd43b42e
3c2fb924
bdb273cd
bd80d085
bcf1fef2
bc86b0f6
bd666504
ba770cb7
bcf0b3a2
3c3ce6ec
be1e586c
3d8dc00d
3c5deddb
3d9c5839
3dd088ff
bc3e8315
3df7835c
3c9b983d
3d1ef14f
bd905c2d
3d61aa07
3b99e7af
3d654e22
bd11d725
baad2e68
bdda3823
bd202e0e
bd82c6b8
3d744679
3e1f29be
3d462e62
bdfd9a85
3d1effa0
3bd28400
bd956039
3d9ec661
3cba4b76
bccc7673
3d7efd7d
bcb1473b
3da99c3d
bdc73cec
3c21b422
3d9c7ef7
3d117804
bd4891bd
bdeff8ba
bdeb3ff9
bd83aa57
3c3ed892
bce191ba
bdfbe531
be1ed91d
3d330652
3e06c9fe
3dd8cdbb
bc816728
3dd1050d
bb3d8748
bce1d907
3e321912
bb62b22d
3e3c75b6
bd239566
3d04e549
3cfee651
bdf7778c
be126ac1
3d2c2153
bd9874f9
3dc1a2d8
3c79e2e8
bdfc48fb
3d1d0f80
3cb5dda8
3dac021a
3d91fbbc
bcba41a3
bc41662d
be1a9fa4
be3ef95b
bd52f6b4
3c2c29c5
3dfdd10b
bd9eaa9b
3e67929e
be1c22b8
3d982793
3d0fcc79
3da0697f
bdcfc286
3d042d32
3c873e3e
3d611297
bd0466fd
3d1636db
3b1b4dbb
3d42967f
bd2684b1
bd997eb0
3dcfe998
bd80e94d
bd0505e9
3d7af8c3
bc5dbc32
bb9cdd7d
bc0b024b
3da47d7e
bbcfe95b
3df92938
3e0dc926
bcdceeed
3e0aefba
bc4fddc6
bd61d1b1
3d55f4ae
bdc0e4a8
bcea2a60
3a4efb50
3d7ceed6
3d858b41
bdd04525
bd3dbdc0
3c53b693
bcc9990e
bd918a44
3e2ebd1b
bd16898c
3cf5efb7
3cb6da45
bc365966
3d5c5a6f
bd8b5b98
bc8fab20
3de0d903
3de7620e
bcca801b
3dcbb302
bca06ec8
3d203506
bd17cf3c
bd9f6a2a
3c02744e
3ce96f47
3e2bf474
3e182d28
bd88efff
bd0e0823
bdcc8c10
bd9ac89d
bba544d0
be1c57d6
bd8b76a7
bd7bd324
bb97f4c2
be0052e9
bb8190d7
3e05df77
3c15bc80
bcb257c3
3d35d055
bce6584f
be2b0b8c
3dd10838
bd6536e5
be13b12f
bc9e96fc
bd09f470
3e49566a
bd135cb5
bd9e985c
3db139f0
3d8a8c8b
3b9ca440
bd282453
bdd385f6
bc092553
3d849044
be3aeaec
bd0a7678
bdc68707
bd5aa5a9
3e32b6ce
3d9ed1ba
3d1fa0e7
bce17d03
3de6c8e8
3db94b3f
3de4aceb
bbe70ba4
bb8b1b59
3d8eccc3
3d47ad4c
3d3367c0
be17b2f7
bde9c420
3dd1e154
bde10c86
3d87ca23
3d5a0b63
bcacb008
bd390ec6
bcbeeb86
3daac5aa
3d9b1495
bca505a6
3bce8581
be22ec38
bdd3e98c
bdaa44bb
bc68e837
3cf7efed
3c2f86e0
3d99a6e9
bd93dc09
bcb27955
3c02ad23
3d7d4f6c
be0ba9ee
bcee2a7b
bd3c464d
3dcaba9d
ba9c3e80
3dd556f3
3e38cbfd
3dd4f00b
bdb8cbe5
bd229b43
3c2f1caf
bcc09794
bdfb1ab5
3d913e6a
be424964
bdbdd510
bdd05c5f
3d65a2b3
3dce88e9
3e5dd37d
3e1bcd78
3da0ea80
3e1c09cf
bcc2763f
3bf32240
bd877fc9
3c6206ba
bc9051f5
3d32f8aa
3d964c53
3dbe4483
3d42b4a5
3d119f42
3e297777
3db54c55
be27d86a
3dab065b
bb51267c
3ddd0a84
3d10fb99
bce20f58
3e1a10f2
bd67cd5c
3b5e11ee
3e1765db
3e5ce1bd
be1df2a0
3d58889f
bdf8bfdd
3e16f588
bd473b4b
bc61e512
3d4ec7a0
3d9c0177
3e007987
3dc27fd9
bd97a539
bcaf3554
bd2225c9
bdb57358
bd83804a
be3b1930
be05f935
bd434416
bc7d7411
bdf8597f
bb3e787d
3e3c6c7a
bd43b3d9
be28d003
3d22ad68
3d443656
be5819a5
3d94c29d
bd818f05
be1dad43
3cfd0a4b
3d060d31
3d890640
3c2c1567
bde8d646
3d3d20b1
3d1e2955
3d2a2e67
bd4087be
be63f30c
3c30f421
3c6a9400
bea41df3
38d52b84
bdc05640
3cf55554
3e92dcbc
3df01555
bc96d128
bc811832
3dc98cdb
bdd6afdd
3e1f210d
bccb70b1
3ea1ae2f
3d49c746
bd437adf
bd28f7be
be614901
be6514cc
bda455ed
be77ea70
be30aabf
bd0c40ec
bdc2d4db
bce15866
bd01bf7d
bd97a899
3e7e027b
3dc69bbc
3da9a3f6
bdb132af
be5f377a
bd855034
bcaaaeba
bc800cd6
bd21e9ce
3e2f5bd0
bdf63831
3b4fea6d
3dcf63d0
bdf369b8
bd44c331
bb0a4558
bd1e8c6c
3cb9398a
3d9d5837
3e5bf889
3e4b330b
3d99cd2c
bd30755b
3c8ed2f9
bd7447a8
3d2a715b
3d55f640
bcbba622
bd7609ec
3d7395c2
bd641630
3e05f2e2
bb823d12
3dbe0519
3dd538a7
be34acb2
3cdf26f6
bde6b7da
bd539abe
bd4140df
3e126381
3c833cef
bba0023d
bdc3e23f
3c10d210
3d005821
bde27336
3de84152
bdd7a1db
bd089b22
3d1996b8
3d283504
3cab7e36
3dd96cd2
bd069e2c
3d85dde6
3ce3b037
be033694
3e076524
3d8ead47
bdd2a3d3
3e9decb2
bde5e7df
3d5b9ff5
3dbb9531
bdb4e32c
3d99be4a
3d2b30de
3ebc8a79
3e376fca
bc58b3da
be33af05
3ca3b95b
bd531924
3c766110
be39e6a8
be47952f
be3ea163
bda6921e
be88d845
3e832095
3dd71a85
bd7947d4
bdcbc67c
3dffdf7c
3e878b87
be032ff5
3e95e4e4
3ca1a169
bd7b674d
3e14e104
3cd11e89
3cc67ad2
3e0fdb77
be54ad16
bda3f05f
3cbf93bc
bda364cb
bd92990d
bd1f6a05
3d387ed5
3e2cc821
becf658e
3dd33fe1
bd02bfd4
3d1a0bc7
3e9c5c5e
3c9678e7
bd7f12e8
bda30777
bc5cff09
be5881b5
3dab5c92
bdd4eadd
3dd050a3
3d3be6e2
bd65d8cf
bd9a07aa
beb9afa7
be784264
be311cb8
be1ded23
be0db98f
3d0ccd3a
bdddf494
bd0d7390
bd31c9c7
3d7e417d
3e961b47
bd493124
bd114e54
be28a92f
3d294001
3d4ac70a
be15aef3
bd8b226e
3e0b244d
3e7bb68b
be1c1ad0
be09ed08
3d558e9c
be4f6fcd
be06f988
bda2290b
bcc1794b
bd3cf4dd
3dccf7ab
3e546b84
3e436aa5
be0bb741
be758433
bc2abdb9
3d8edde2
3c03cf53
3e02bd58
bd9488bd
3a93cddb
3e05dbdd
3dbc321d
3e4e743a
bcfb3d8c
3e0a374c
3e2dfaec
3a95b234
3e06a358
bd189eca
3cec0d80
be11d667
3e65f9f0
bd4f1ae8
be0d404e
bd8e6c07
3e23b7bd
3e059235
be456141
3e9c1203
be4715be
3ca858d9
3e634a5d
3e079f5c
3d8d6bc2
3d8ab3f4
bcdfd6ec
3cb811a0
bba86010
be2e8a82
3dc060ad
3d30e815
be136e98
3e9c8c91
bde47aa5
3d2df0a7
3e10cba0
bd3b9610
3d19bcf4
b9c9a148
3eac2fd9
3e4be450
bd202a75
be80a75f
3d6b69d9
3d1d38f3
bcb9abba
be19e0cd
be38a7aa
be28a635
bea8863c
beaa0a58
3dea2d14
3e224b63
bccd5e80
bdf59ba7
3cd872cf
3e7ea8e9
be38856c
3ea1d6f3
bd72c0c9
3bffb5b8
bd4da408
3e0f7256
bd9bf688
3d998034
3d2d0bdd
bdd4a9b1
bcd21e29
be1ea513
bd8eedc9
be256c9a
3e15743a
3dadef51
be799b69
bc8e8e86
bde094a8
3d3244aa
3ea45422
3c8a3185
bc8b11d8
bdb8b145
bc366650
be06af0b
bcab3675
bd1afd48
3eaaddb8
bd8c277e
bd414081
be70f260
bdbcca87
be8d100e
be0c2c22
be997c68
be26eee5
bd535366
bdfba8d8
3e01baa9
bbf8cb9b
bde0cc16
3ee3882c
3d0b577d
3c8a525a
bdea0f7a
3d2c6328
3cf635fe
bdaebac1
bda258d0
3d5dcb2f
3e77ab72
bdd54e80
be75cb0b
3e0fbf5d
be3da2ac
be0d5855
be3ee9af
be72856a
3c8864c5
3cf9fff6
3e76ad8d
3eadd6e3
bce0fa6e
be6d0a18
3c799320
3dedf0de
3cb61d26
3e5686ed
be0607a2
be8a8def
3e801e6e
3dfe639c
3e9f0afc
bd18a7f4
3e97c9c8
3e4b666f
3dfb0901
3e44ddc2
bd93d548
bd8b3e0a
beaa0e80
3e0ad328
bdc6d9c5
3e1c5224
3c6de210
3e7e3a64
3c46bfbe
be444447
3e7f0e6a
bd1e1b60
bba77d9e
3e79585b
3e105f6b
bc2c93d1
3e11f919
3d90bc71
3e2965ce
bd084559
be075cf3
3e7f5d2d
bd33b6d0
be147b39
3ea729be
3bc63bd7
3d34923c
3d7dfb0a
bc7e3a40
3cd136ab
bd7fc759
3eea2e9e
3e72cdfa
3d881b79
bdf16d13
3b4d309b
bcd2588b
3c7d5ca8
bdaceac6
bd94713b
be0315db
be9e82e0
beaabded
3e27c3b3
3e38d009
bd0744ae
bd8e1edb
bd4b2879
3e0954d8
be7a6f67
3e827ce5
bd9a4966
bd6131a5
be0e4005
3e6affec
bd28b87d
3e826846
bd972605
be23bb95
bdd57e9a
3c10b8ba
3d4269cd
bdedc98f
3e15175b
3e091775
be81d97c
3e3f6fa2
be97915e
bce5d2fc
3ef12bc4
3e2dcbfa
3bc42458
be187498
3dcf4583
3c42df89
bd76f8d8
bdaf02e4
3eabd2b3
3d6df52e
be0d729d
be03eaf2
3cbd6704
bea5fe38
bc6b89dc
be7b1342
bdc0bde5
bbdf7813
be5e6336
3d2a530a
3c274a19
bdd8e5cd
3eb5d3c1
bda3f78a
3df2219e
bdfcc426
be0c803f
bd30befc
be209540
be538237
bd8afeca
3ec51d01
bdf63287
bdf5dcfe
3dafdd0d
3bd3c2f8
be9da758
be54160f
be8fc747
3e29b8e4
bd8b1bcc
3e529dfe
3e89ab70
3df88f53
be84e01c
3cb00d21
3e8f3c74
3d065da2
be0951f1
bce69fbe
be12204c
3ec9959c
bccb1403
3e05bd48
be1a3139
3f0489fb
3ed2d492
3e041b14
3ea0ce8d
bd017e52
3d4b99f2
be9b2f64
bd0a9057
bdc33ed6
3e067a95
3dee9168
3dd45608
be49fbd9
bde1b86a
3e500de6
3d0a938c
bdbfb6c4
3e6c4fd8
3d79c77d
39453fbf
bc714662
3de9f06e
3e0249b8
3d1b640e
bd603eb3
bb036371
3dd0f066
bd854867
3e80e74d
bd9c1c94
3e50bf66
bc6f4e09
be720505
3dc26927
bdd1657a
3e751e28
3e94e9fe
3e2c08a6
bc94c3a1
bb3f007c
3d570ed3
3cc6e344
bdd240e7
be174787
be6246ef
be90d547
be28a555
3dd761fb
3e20c013
3d20acad
be6ad14d
bcd153ba
bb114435
be700783
3ebe0b3c
3dd3f749
bdfee3af
bc8271df
3e30319a
3d6d6edc
bcc36bf8
be8f1e5e
be748223
3d445060
3e4489c9
bd246555
bec28dd0
3b7b80e1
3e12eebe
be7d122e
3e3d5e24
bdcee9a8
3d025287
3d8bb5c5
3d0b0ddf
3d5bbdcb
beb14c0d
3e0426c9
bcf33a70
bb5f903f
3b75358e
3d9ae577
3c96b980
bc4c05d6
bd24e3d9
3d5e0b54
beba0fb6
bdc33a2a
be35cd95
3db0eac9
3da89318
bdb0f17d
bdba40d8
3d12e8b9
bdefb539
3e9f1e75
bb002433
3cf41aab
be6dd942
bd06ab45
bdf1e78f
be0be27e
be20228a
3c393a1b
3e16f10b
be39a36f
bd7f2271
3d9528ec
3d29f675
be6472da
bd86950d
be6b9ead
3d7dcbbc
3cdffe03
3d8683c6
3d9e5c0c
3dbbd15f
be1a7e3b
3c13d66e
3e8a45ac
3dbb3725
bdec476e
bdbab04a
bceb1a47
3e820f43
3db3f45a
3c4af3e8
be6a3cb7
3e601d8b
3e3dde81
3db21179
bc635cdc
bd9dacbe
bd4ad289
bdc6f515
3bc91991
3ce20a28
3e0ce31e
3d84b4d3
bd8b4a7d
3d80d691
be07409c
3df6123a
be041e9b
3d769623
3dae93eb
3dab6f2a
3db0a4bf
bd311a89
3d5e8354
3c3433a1
be8d7fe8
be3bad3b
b98ed149
3dccf76e
bd319d8a
3e65398a
bdedda76
bdaabf4b
be7b15e7
bd2bc0a6
3e4c807c
bdc049dd
3e097da1
3eb4749e
3f0db173
3cc919ea
bd151642
bd63151d
bd908ba6
be178cb1
bdee3101
bea466d2
bddf4506
bc23130f
bd43d45e
3dcf939e
bdb5e487
3c6bc3fd
bd4982bd
bae95c79
3e18aaf2
3d22335d
3e90b849
be4322db
3ab1a432
bdb96aed
bd833e0d
3b900af4
bcfa981d
be3132b3
bd3a9be8
3e55b1d7
be0e4a8b
bc4d1eef
3e2f2925
bd9c65b0
beaf55c0
3e6e1b71
3e16ee32
3ce67280
bcee8722
be31e7ba
bc8d4295
bdc575ca
bd9d4391
3e4a89df
be1938e2
3da3f04b
bb6a3076
3ba6e3f0
bd7da36c
3df46730
3da0a521
be896b32
be1034f1
be312d6e
3ed28d7a
be0bc0ee
3d94e710
bd9b7f93
bc5d4e79
be062239
bdb9eec0
bd2cc6ae
be859cc4
be53dfae
3d059258
bda66c4b
be1e05ee
be84521b
3e0c2660
bdc5be1e
3d262280
be27444c
3e79ec10
3df7591e
be9e23f5
3dd9dec0
bea9a19a
3d45869e
bd965afa
bd984716
bd735a29
3df2b890
bdc932d3
3e27a497
3ed3d1fc
3d816c8f
bef406e1
bdaa01fe
bc841706
3c8760a3
3e5123ee
be14d064
be159b96
3cb8bf79
3e5315eb
3e4c9c09
3c776fd0
3cd490f1
bda06fc4
be0d189d
bd9d69dc
be18fb26
bdc48aec
3d92992d
3c9c9b37
bd585d0b
be421c4d
be320dd5
be96c511
3c100b25
3c8e19d9
3ea2f761
3c0b4a5a
bd0419bf
3d94e470
3e2f19aa
beb3ac6c
be73ef27
3cbc6998
bddbce52
be5bed8a
3c420694
be7aa8df
bdf692b5
be6b423b
be62a471
3e0a3241
bdbad28d
3eb61005
3ecec7da
3eeab31c
be72c6c4
be281f5d
bdef3787
3d62fcde
beb27a88
bd105e29
beadf1a2
bc5b40b3
bd22bfe6
be2a067f
bcce79e7
be2e86ae
3e73b174
be2e9811
be66512c
3e83e581
3d950485
3eb88fe3
be5bb61a
3dab2eca
be20eae3
3dbaec64
3d1ee6b1
bcff5987
39d6a6e4
bdc09633
bde4dd2c
be567fc3
bd2f63b7
bd0dfdfc
be05207b
bef32a6c
3e37e351
3da8422c
3dbefb36
3e2dade2
bce91a61
bcda4cd7
be734e57
bd8b79c3
3d5b7085
be143b7d
3d6e6f69
3e0aebb5
bd1b1177
3ded3a63
bd223772
bd8f6303
bed9f5f1
beb03a69
bdaa3ede
3ecbaafb
bd8709f4
3b84dda3
bb49b93c
3e1489b8
bdb9198e
3dad2398
bcfee9e9
be4f8889
be8b9dc0
3e180dee
bdb8e9cf
bd735e8e
be536662
3e66f5af
3e436da2
bddaa4f6
be0464f1
3df99667
3da412bf
be5b4773
3df02428
bd8d280a
3e41e03a
bd8b2cee
be0c5f16
bcdd21da
3e22c41b
be655374
3e59211e
3e487eae
3e1fca08
beceb418
be5a5477
3d5f0489
3e7d2f79
3e5ae389
be0b9e6b
bd3c5d21
3e2880f9
3d5b2b5a
3e1aa461
3d98dd6a
3dc1ed87
3d9313ee
be1bcb07
3d928656
bd9d83cc
be304dcf
bcaac204
3dc844e5
be00e5e5
bdedaca6
bce3ab6f
be718235
3db1347e
3e390b96
3e3d1c05
bcaa0aed
3cde19e6
bcafe9bc
3e35c3c7
beb4e447
be3a038b
3e0b4c51
bced1258
be1c6cb6
be50b8b4
bdcaae14
bd0b8ffb
be811930
be517888
3e41405e
bdb83d74
3ebeead1
3e8175ed
3ec276a4
be6b68c3
bda60019
3d6db629
3d52c91a
be857f4a
bd752adc
bf00d299
3b492f26
be8cf596
be16f9d0
3e018f0a
be377740
3e1b5132
bd9f6e14
bea85450
3e57855d
3e764e06
3ec886ca
be62e39c
3e372946
3d0db282
3dc1a746
bcc2d107
3ca576d9
bd28010e
bd1175ba
bda0d490
be0dd222
be04bf7b
3d93e7e6
be5f91b5
bef2b788
be09b121
bc0f3271
3c2e487f
3e10cb3c
bd72cf8a
3b922b11
be8f0cb2
bd648e21
3e7d4227
bd91c7c9
bd0f0458
bdd9685d
3d58cafc
3e125c7d
bce0798e
3df42bd3
be26056f
be999ab1
3dec1666
3ef7974f
bdf35cdd
bbe9d72b
3b8a01b5
3e6d35da
bd6da280
bd39e2fe
bc166716
be92981b
bd94a4a9
be0597db
bde693ff
3d7cd671
bc992a16
bd83f9d7
3c9a658f
3d7366bf
bde9b175
3db88139
3e678b15
bd693f2d
b9e28b30
be0cdf66
3e9a5a75
bdfd3a0f
be80e53e
be2cf02b
3e5bd068
bd4e8998
3db9b646
3e5d3a5d
3e488987
bea3eb75
bd622ecd
bccd0783
3e685db5
bb409fbb
be2b2227
bec4672e
3e07b010
3e7b3be1
3cb49aea
3ee4bd8d
3d904fe6
3d6bcc43
3c909aad
bc0978e3
bb576501
3c776cfe
bc9b8cc3
3e0f1b82
bea92cd7
bdc7ec15
be6084f4
be1e0ae0
be13458c
bcfba65a
3dd43e2a
3c6902e2
3e662864
bc0ac109
bbc6577e
be878e4c
3d3158a0
bc809279
bdd9f198
be5a0c36
be6474f2
bd03a710
3e114028
be4e9e2a
be1bb1b3
3e3b003d
bceafe26
3eab3149
3d670eee
3dd61404
be211e34
3d61c269
3d87397a
bd99f190
bbee6f57
bd852139
be5c3319
bcf6d238
bd07da40
bd859f84
bbaa1de2
bbb8e443
bc198c8d
3e2280f9
be238f91
3d5e3c8a
3c961a7b
3e86bbc0
bd88b610
3e3e698d
3b763ab2
3eecc311
bd81d77c
be0b060e
3e514faa
bdf15ef1
be0b5e76
3d1c11f2
bf0a0654
be210557
be3135c1
3cb02a38
be24879c
3d989f92
bc16359a
3df936d2
be2058c7
3c27e928
be895771
bd9de6fa
3e8010a5
bdb1393c
3e4f58f9
be7b2648
bcaaa5ba
3ddbe42b
3d8d8d7d
3e1ed4c6
be4e1517
be2c1e2f
bdc9024c
3ed9bfba
bda29984
be9f37bd
bdd9ec33
3ea8fecc
bd224774
bcb96c72
3d73d386
be72853b
bdf8ad8b
bea3c5bf
bde09bc9
3e08c16e
3d3dc8a2
be7cb5ca
3b9a7964
bcd7494c
bdbb0833
3e4007cc
3e484e10
bd53a0bb
bdd63856
bdafc77e
3edc629f
bd61bf9e
be85f3c8
be247172
3e5db6bc
bc69fc25
bca370ac
3e8d7285
3dc7b09d
be6dbc6a
3dffe773
be8c0b4c
3c427169
3e11cad8
bdcdb2d8
be89183c
3da318f1
3eb004be
bca122bb
3ee444fd
bd5c2bda
bd1d6cc6
3d31baed
be08fa2a
be29b149
be41f4fd
3db9ced1
3d553c1a
be4ea42e
ba652e0c
be8c9458
3e201f5c
be3d604b
3d27e0b4
3cdd4110
bd203192
3e8bc2c8
3a459a61
3d6247c3
be873cc1
3bb42c5c
3e1eec5f
3dd2f94e
bd5785f7
beb0d149
3d34bb3b
3e8a4718
bdde46c1
be8ce388
3dac0582
bcf8ad27
3eb447d3
3be3ae79
be16633e
bd3560a6
3d04d0fb
3d23d647
3d0a4d60
bd927739
bdd7f0c6
be86f606
be28db1a
3d27de9a
be698950
3d462f3d
3cb5b27a
be486f8a
3e94dc4e
be5d1f32
bb37a579
3cc1342c
3da2fce2
be302563
bd7a9153
3d363ae0
3ea31e75
be43fdf3
be02ec28
3e93b19a
bd9950b9
be19325f
bc58278c
be80af50
beb39f7e
be76cbaa
bdf33650
bcef9493
3ccd5009
3da13b8f
3dc327f7
3deeb6ea
3ccce760
bd3e7608
bbb2c610
3e54415c
3e189e9e
3bec908c
3db01022
3d43c77a
be0d4809
3d9ed693
3df485f4
bdaab4a1
be5143d3
bdf9cd9d
3e9b63c9
3d9cf61c
be31ce1f
bd08b421
3e74c013
be705e66
3e21ae93
bde89726
be610695
be94e17f
bea4d561
be212223
3de0b62a
3e7690e0
be03f254
bdae484e
be56e748
3d471991
3ddb0bf3
3d9afde3
bdc9a757
bc160a42
be09086e
3e926443
bcbb9cb5
be9afed8
be082bc4
3dc0a0ff
bd463d44
be1851f0
3e70ab92
3dc952fd
be9f2516
3e040fe1
be94789c
bd8dc41a
3dc050ef
bde471ca
be5b0241
3e898b6d
3e770863
bd89ebf6
3e3e3907
bdf1aaca
3c88bd02
3d67af98
be0618ff
bc8316fc
be9cbaed
3e3f3ca4
bddfdf9b
bd8f743a
bdb3dabe
be276330
3e6320c0
be556400
bd715035
bde3193d
bd81e0b4
3dad393e
be11d79f
3c99be6d
be3eef80
be5ae4a6
3ea1e1f3
3d843fa2
bd1061af
beb3a0fd
bdd85b1c
3da6aea9
bc3a6f71
be920ae2
bcbebc75
bdb253e9
3e5128bc
3c804c52
be0c6694
3d9f976d
3b0d5ed8
3dc43faf
3d524c5f
be1d7d2c
3c2f34e4
bdc043a1
bc2697cb
3db8ad73
be006537
3d4dd075
3de65b0a
bdbf409b
3e267808
3bf41218
bccb22e9
bda18db7
3dde21b7
bdd427d3
bd0b670a
3e20c707
3e9a325f
beadb67d
bd316c99
3df53936
3d93857b
be83e351
bc40444d
be156772
bdf36679
be4e6466
beceb6ab
be21812a
be311a77
bba44b1f
3e53ca9e
3e3c4870
3d4aaabd
bca2c9d0
bd07ccdd
3e468830
3d610ba1
be46ac56
3e22fea3
3cc6a0ad
3b8d319d
bdb141a5
3ea6e778
3d94ccf2
bd09a97c
bd8ddb04
3eac22d8
3bddb847
bd8c38e2
bded1598
3d8dd562
bd938cfe
3b0aa6a1
3cc06474
be1627ea
bde8e14c
be894af0
be08afe9
b99a7cd5
bd57dd05
bcf5251b
bca8938a
3d894ec6
3d4bd231
3dd9347a
be0f72d4
be57933d
bde4de14
bdc41a14
3e633d5e
bd4dc0cc
be735124
bdb17ecc
3d24612e
bd15d280
3d5c9fbf
3e8f728d
3dcc119b
be91da72
3e083cdc
be8ae720
bdb64879
bb836d65
bd7b3f15
be0874c9
3e505131
bcf42062
3dd9ac2e
3e8f3394
be5c4341
bd1cf6e5
3de5bf67
be545b58
3d91b719
bdfd71a7
3e8b7d17
be6461dc
be2970a9
bcb03568
be8c3584
3e892220
be57d083
3c8f520a
bbedb480
3c2d85e8
3e3ce6f6
be7543d8
3d873ada
bdfc242d
be866f42
3e481b00
3bc09687
bdd1abe7
beaf0b96
bd7a8d08
3c0a7bb2
bdadbe89
bd2ef176
bd675ac0
bcb52e94
3df4900e
bd35a65c
bdea3b16
3dfbe2c8
bcef9607
3de4e253
3dcd9b5f
be996881
3c2f09a1
be6efa11
3da0ed12
3dbd96b6
3bb7c9ae
bd1b262d
3e498b40
3e066464
3e8b4331
bded145b
be03bc12
bdb036b7
bd3365ad
3c81f665
3e1265c7
3e30fc9a
3e425ae0
be9cd05b
3da441e9
3df9d90d
bd92b2ea
bcbd6428
bd754f80
be2ec1a2
be78c643
bdf36f38
be50e5a2
becff013
beabf884
3d83b435
3e7e866d
bc49f4ea
3dea1768
bc96179f
bdf99c10
3e92f1bc
3dc3b169
be3a46c4
3e4c91b5
bd28fa30
be7f2ca0
bdaf2ced
3e6768b7
3e2d49a2
3d60c72f
3c54206f
3e75827c
bc0e140e
be20b51d
3d3f476e
be13b98a
3d060b57
bd916bbe
bd74a21e
be209f06
bddcf24b
be4dc364
ba3089e1
b98ae95e
3d5e745b
3deb27a5
be15f83c
3e58f263
3d2d2d06
bddc8bc4
3e168cc2
be241bd3
be900b2c
bceb8a86
3e317c48
bd5bb5ed
be1d1fb8
bdd4546f
3e3d3508
be8105ae
3d6d57ac
3ea573a7
3d5c6991
bd9b05ba
3ddebde6
be3d34a5
3cee1ee0
beaaea69
3dad921d
3ddf981e
3e0bd972
3e0ecd7e
be5ae9ce
3e863e31
bdf8891c
bd92a435
3e842526
be8d040c
3de505fa
be0d608a
3de8b75c
bc7ed12c
bd66344a
bd719488
be6f189f
3e31ddcf
be8b2a88
3e2acf0c
be135dfa
bcd69c00
bdae8b02
bea2425c
bdaa4cfc
bd94c58e
bd81ddee
3d7a73a8
3e347ec5
bd4b0664
3dbb2ffd
be0a2140
3e7514f9
3ce7dd2d
be0c4f65
bd89d7a4
bdd31086
bcb8739e
be1fb5f5
3e31f78e
3ddeb78c
bce89169
3dbaa8dc
bdc3f5a1
be909303
3d362f4a
be52f0b4
be8206c4
b952ab3f
be00b5e7
bdb50e37
3d41e4fa
bd780a5b
3e613273
bde88802
bea18862
bd07f174
bd46204c
bcbdc31a
3d33b502
3c932e61
3e9e8f9a
bee9a229
bcb7cad9
ba707fb7
be0fbab5
3dd17e87
be04952d
3d47cf0f
beb10350
be57d251
bdd91a7c
bed2fd59
bdf72225
3dd494c6
3e00fe7a
3ddf787e
3d9d5927
3d933b7b
3c5fa051
3e1108a7
3d06e626
bdc9fc2e
3e369d2e
3c09c008
be4edb89
bdac2772
3e06b107
3d3a3e7e
3cf52bbc
3e9c75a8
3e96dd56
b9d63e0a
be092c85
bc505749
bd040e4b
bc28f752
bd30dd3b
3b533409
bde8dc9e
bddbcaf4
bd47ace8
3dd3f235
3d71bc8c
3d5e5033
3d9db478
be41bf34
3e3c5273
bdd37171
bd2b3dc5
3d589ad9
be813ec3
be96e841
bda77644
3e81ff6e
bd977b1f
bded6bb0
bda32420
3d816fac
be4a2bac
3df83595
3ebbf21e
bd667d73
bcbbdd83
3c94a716
be6c9479
bb2b2b4a
bde7f3d6
3e0d032f
3e288df9
bdaf8c24
3cafa500
be839763
3d91aa1f
3d1357af
3c767c68
3c9934e6
bcbae84e
3d9c33c4
bdfe13bc
3d570735
bdf47bfb
bde93048
be1b92b9
bde385cf
3d3c7519
bdabfa52
3e769a17
bd359e9b
bbd5ff00
bd46fb28
bea5e266
bc794d3f
bd9c7fe7
3c3ac412
3da5fa43
3e053542
be07362c
3c8b0eba
bdc7f56d
3e49067d
3e7f5657
be5843f9
be35bdf1
bddf9039
3cefdee2
3e2155ad
bbc4afee
3d8d7dc2
3d064c03
3d396c37
3c3d8d92
bdd1f0c5
3c617250
be15ac33
be43492a
be0a6ef0
bc3af851
be0ddafa
3ce78db5
3d70cabd
3e8f563f
be3f1196
be9c46a7
3e16f5b7
bd6c96d9
3dd80424
bddf91d3
3ca8fe67
bc6332c9
be8ce9c2
3d2521ef
3cbf9dfe
bdd5a65d
3cfaad76
be0f222d
3caecd3a
bec2f2af
bcbec7ff
bd0050da
beb930dd
be596ff3
3e096157
3db4bbb0
3e06ef73
3bbaed34
3d5123c3
3d6c1514
3c99d2b0
3d1a3209
be7eee1d
3e6df335
bccef9f0
be5e3e07
bda73f72
bd9d08b3
3dfcefe1
3d84ac21
3e982c10
3dfbdd4f
bc6326b7
be136ecd
3d2f9fd2
3d8d3417
3e2230ff
3d4d2751
bc085935
bdc9cbcd
bdcd397f
bbecee88
bb91f0c8
3c4265bf
3df93106
3d0dbabc
3d89ee6a
3c1a44cf
3daa9cad
3cd93f75
3e0fc393
be812b0d
be67f1ab
bd3c2703
3d6c49d1
bd849b70
3e2b52c2
3d3fad58
3d747288
bddaa022
bb749d32
bc9076ef
3d9d3ae1
3c102c64
3d97f0eb
bdf6ac6f
3d8fe0fc
be0ea972
3cbf0f57
3e5f4a82
3b885e0c
3cadde9e
be9a58ce
3d1fa5a9
3e204775
3c900e48
3df6ac9d
3c1edd46
3d9d73d9
be1be495
3d7ebe25
bbcca32c
bdbaa5ad
be17c1c4
3a02e11e
3d216a8a
be07e871
3e7f78f0
3d9dfb70
3cfbf628
bd834d84
be4e81c6
be2d6796
3bef08d5
bd78a057
3e27b79a
3e8def5d
bdcffbff
3d866225
3cd16938
3eb6e5f4
3e205255
be1dfe37
bc653321
bcd14285
3d821fb7
3e70de85
3de23300
bd13a27b
bd4693c4
3d0032bf
3ca84114
be620547
bd77f764
bccb281d
be1b7e0f
be4d2419
3de55ce1
be01c46f
be0f32b9
bdd2e238
3e383b3d
bcbcfba8
bea188d6
3e80c1e1
bd40c18d
3e063f4c
bdcf4ba9
3dc9ffd1
bda6f365
bdfb2f6b
3d4682d4
3e23af68
bd945517
bdd1e36b
3da4fed6
3e06142b
bea391e1
3d53ebb0
bc34136d
be67c85d
bddc8a63
3e6d443c
bc327816
3e8ebc26
3c31478d
3e0bf4b5
3d3cb467
3dc666de
3dc7b81f
be13dd95
3e03f03b
3cf05418
be5347fd
bd61ca18
bd9ce140
3d3d99a0
bbfa045f
3d6b7825
3dcde822
bd3d508b
bc9a50e3
3d97bb60
bcdef07a
3d988d8b
3cca926b
3d2fac36
bdd76cbe
be097930
bdae185e
3db4effe
3bc7a011
3df19444
bc1552fd
3d03b6ba
bd988e09
bcc20c34
bd18b004
3e356d22
be2f5827
bdf39e6a
bcdfa3b2
399b954a
bd6473f2
3d52c442
bd261668
3ca4e78d
bca3eccd
bc838c52
3dc0abfc
3de2da6b
bd0417f7
3c943338
be165a7b
3db23d0b
bda8eb70
3d8b0bc3
3e5aeb3a
3d82195f
3ddf8385
be2e4413
3dd0ee88
3d215963
3ca6101c
3e90acb4
be270178
bcb4c95f
bd291ab3
3d5043d8
3ca4d4bb
3ce29566
bda3110b
3c6e3df7
bd8920bb
be11cba4
3de0d963
bd9eccf2
3d57dc5e
bd5f3f5c
be53e1dc
bd238afd
bdc39c0d
3cb99abe
3d21d76c
3e9a2e8e
bd963f1c
3e31ce62
bd4dd5a9
3e0cdfc4
3e8e2ea3
bdcc4d39
3c24242f
bd4698e0
3d0687d6
3e5a2d34
3d086686
bd32ef52
bcd0a473
3e08c12f
bd9f5f92
be3f6eaa
bd2cd10e
bcc604f2
bdd5d6e7
bddb7cd8
3db73f0b
bdb4a8d1
be048a9a
bdc5b79d
3e6ba6f2
bda05451
be8012ad
3e15879f
3da5ceb1
3c9423f3
bdcb8324
3d1b0308
3d949faf
be2813e3
3d332729
3e72ee9a
bd599dce
3d10d532
bdd3edc6
3d504aed
be399564
3c5dc3e6
3d1aac4a
be4e69fb
bdd172bc
3e013314
3e252c26
3df08f04
3dd7178f
3d0a72fe
3de287b9
3d93a02e
bc8e73aa
bddcc0e1
3de8bc79
3d2e940a
bdac4488
3d2abf8b
3d4eb588
bcc46a46
3b04fbd9
bdb7bed7
bc51067a
3dea0661
bdf44641
3ad9d1ed
bd9982f7
bd8f4e9b
3d24df25
3d6d089d
bcda8df8
be4e126b
bdf96ef2
bcd9ff1b
bd790cd0
3e22dc40
be01c763
3e287891
3cc2e420
3d3d6b54
bd373b34
3da16088
be16736f
bc373489
bde2a1ba
3df11146
bd13764d
3e3d2a2b
3d43e09e
3d4c3557
bdda26d3
3dfbdac0
3df53286
bad336fa
3dd180ff
bc77d021
be437e0c
bdf2392d
bd8347e9
bd1c0553
3d28df1d
3dcad83b
3e083ed6
bd86ab65
3df08e6c
bdef89c2
bd51e3ca
bc73b864
3cea5ae8
bd748a49
bd8039bc
3d829e8b
3cac6db0
bdd6eb71
bd98ff1a
3d837eef
3d9d4341
bdf6e62d
3e3dd5a7
bc57b023
bd86e437
3cb2c335
be80715f
3bb368c5
3cda031f
bd71a611
3e31043e
3dfd5044
3d4b43dc
3e0715f7
3d08cf5f
3e061cb6
3e101f6a
bd2013f4
3d558d37
bcbe39ab
3dfb03aa
3d8fe5f5
bd54fcb1
bc2da69e
3d7b738f
3d28a9ba
bce99502
be16da59
bdbf0302
bdd5e895
bdad4411
be292d59
bce8b24a
3d8d492a
3c17b05c
bdf02730
3e46b058
3d9cb919
be8c30eb
3e97690f
3cf392b6
be0ee5e2
3d9bdcdc
3d2fac98
3d8a6b9f
3e080f86
be09a167
3beafe6d
bd5041e2
bcfd376a
3b040f0e
3ba83de0
bd001d78
bdb13496
3e126d91
bd5af819
bcde39ac
3d2d30e2
3d17e439
bc29678c
3e4f0927
3cbad90d
3d9975b5
bd9f8b52
bd8ec8f8
bd648242
bd214b40
3d11f2f0
be51fc9a
bd14a146
3ddffb94
bd2a3cc7
bd3eeec7
bdf88071
bdbcfa0e
3ddc0312
bdb78c8a
3cb6ff0a
bbf10d75
3d7c4f1d
3df88147
3c095ca1
bd6d62fe
be405d3f
bda3a504
bdfcddb1
bde112f9
3d856546
be44617c
bd240920
3d8fd609
3d8fc951
bc998258
3a1724bc
3be1a01b
bd4760fb
bdedfc2f
3d7998f5
bd8b5054
3e066e30
bc277824
bdfa76c5
3cd84544
3de9b238
bd369e79
bcfcb110
3da387bd
bbd207b8
bdad9b0f
3c6c2e1b
bd493781
3d01f6f8
3d8934e3
3decc589
3e0b9fef
be325380
3da498c0
3d9f46f1
3c0b9e80
3cff64cd
3d7bf127
bd2614eb
bd1b0d2b
bc813b43
3daa452a
be085c54
bc0eb64d
3d575f98
bdf6140d
bc68ef4d
3e48cd22
3d5570a8
bd2ab57a
3cf4dd52
bdc89e14
bd229c2b
3c341fa1
bd8a2863
3d9d4cb9
3e3a3c3c
3dab04ba
bb3b4286
3d97b343
3dff882e
3d992276
3d35b8ac
bd0f4bab
3d0f3054
3dce0700
3e12a62f
3b369aa5
bdf89be3
3d344a86
bcc23188
3da0e929
bc53ccc8
bdbc54d2
bde9bce8
be2ba60f
bdc7e903
bccaee17
3d294931
bcbc442b
3d8039dd
3dca9576
3e1f9047
be906ad7
3e283a70
3c9eb5e4
bde5b6d5
bb401ddf
3d87195a
3dd845ef
3dcaeddf
bd16b899
3e686950
3a34ab69
bc8468a6
3e0d8e60
bd7d200a
bd6ff0b1
bd260f15
3e09e044
3d79117a
bc7e8f28
bdc0da58
3d659c2b
bdc50830
3cc76415
3dabd8e4
3dae9916
bd826de9
bc92f8f7
bda7fba7
3d57216a
3ce9863c
bd3657cb
bd8d2518
bd64ed61
bd9f6fe0
bdced2b6
3c152e0d
3d1a715a
3d5c8f14
bd8914b4
3d41df57
bd3a19d6
bcf5d45d
3b540ed3
3d13a412
3d9abd0f
bd811532
3d291561
bd911028
3d043986
3ce60145
bd888d26
bdf11ef4
bd1b0dad
3cb38281
bcde9d92
bd657e7c
bcb68b64
3c0dd773
3b01dfe8
bd61d389
3d8ef14d
3d873aa9
3d8cc92e
bde7db1b
bd5a75e5
3d063339
3d9c3b95
bd718728
3e0f370d
bc019781
bd8ff1b1
bd4f30a0
bd4640b7
3d984580
3bcf1d5c
bd974271
bcee5b7b
3c56c690
3ce04824
bcfd4f22
bc308640
bd0fe89a
3c9a1d64
bd1c227c
3db17f9f
bd22870c
bd03169f
bc415482
3d454eba
bbbfd466
bd98e671
3e0e9291
3c88c92c
3c61cab0
3d8762bb
3d6c757f
bdc31400
bc30cb9c
3be6ed24
3d974c55
3cb98918
3d6a6c38
3dbbbbfc
3d6b5690
bcfd7649
3d8ac844
3d7a8e3c
3c6dc126
3cfbf591
bcc67a53
3dd1a177
3b4d8808
3b4bf1d6
bd32ff75
3d9b6843
3cad43e1
3d019766
3dea36d8
3d307a8a
bd7e9460
bd8c7b69
3da5c62d
3c8369d1
bd96622e
3da4e825
bcaac80e
3cdf37bb
3e04ef3e
3c1ab233
3db6aeb2
bd3afcc3
3bb616ef
bce20b7f
3b56a83b
bdc3b210
3d546edd
3c44678c
3dd17023
3d1f3a5f
3d5b147f
bd89f25e
3d606504
3cf62700
3d36a362
3d0ff950
bc8b2e08
3d57aab2
3cda9400
3d63fb46
bda2b38e
3d53cb4e
3d9f7f89
3bd5c5c0
bd55405a
bd61d42a
3d3ee94e
3d85bdd5
3d82591b
3c38adb8
bd5a2874
3c29c5f8
3c8759b8
3d370e76
bd7c5e33
baebb540
3d8d575b
bd03965a
3d9862d3
bd8f8bf2
3ce99e18
bda04f84
bd4bff55
bd53181c
bbc38de0
bd6ffd88
3d88f7e7
3d87336f
3d85aa1d
3d4c6ed6
bd599e6c
bd545c6e
3d827e1f
bd7da631
bd9c3135
bcce104c
3981d700
bb860ae0
3ca958e8
3b8f03f0
3cd4c944
bcbc6798
3c88cc00
bd8e0936
bd7b4c92
bc36d6e0
bd18e516
bd7c8cfb
bd8512fc
bd032421
3d5eeeee
3cc37ea4
3c15e8b8
bd719ece
3d1b039e
3d246adc
3ca58f84
bd5535ca
3ccc0148
3ca3add4
bd7f01d0
3ca68c0c
bd97973a
bd913ebb
3d9e71c3
bd152933
3c8bb570
bb4778c0
3cc9c1a4
3d821d2d
bd3caf36
bc2538e0
bc608ba8
bd0a25f9
3ce2e080
3d2ab5f6
3d045122
3cd0f940
bd832d08
bd38421d
3d8d7985
bc8a3d00
bd7774f2
bce47d98
3d2a5bc4
3c8dd190
bd637a63
3d866c85
3d43fbf2
3c04fd40
bc81c9c0
bd277b24
bd486af7
bd2a0e7d
bda113b6
bd3bfc3e
bd83f147
bd889d5e
bd2b243c
bd330692
3cfbac58
bd26ec34
bc9b6704
bd177e2c
3bcf4f90
39b05800
bd7fed60
bcd5358c
bbbe2b20
3d1e0ebe
3d887beb
bd3f6c9e
3d596b4e
3d55fefa
bc3bc918
bd82653c
3d39fe56
bd2310a9
bd842406
3d90c2df
bd6f4c72
3d44d856
bb8c3640
3d1124e0
bd3d3506
3c7c0730
3b1907e0
bc221320
3d364ace
bc0794b8
bc8af338
bd05569c
bd18745d
bd926034
3ccf6e54
3bf3f7c0
bd71560c
3cd32fb0
3d89dfef
3d61b72a
bd3a0bae
bd8c7f10
3d80efe1
3c1e7650
bc208e98
3bc52030
3d7ebdf6
3d54dd7e
3d0cb0be
bd8d192f
bd1202e6
bce7d95e
bd5d840c
bd9791c8
3c258ab8
bd869214
3d41b4f2
3d01015c
3d955457
bd9c6211
bce26536
3d844c5f
3b704580
3d925213
bd5c2f8b
3cb93140
bd9d8ca8
bd0d5ad0
3c4ce8e8
3d950a4b
bd871263
3d3bc7aa
3d0d9ef8
3d8105b3
bd26141b
3cc4e34c
bd348ae9
3d0835d6
bd14c2b2
3d6718ba
bd132fad
3d6cfe6e
bc995fb4
bc5608b8
bd96dddc
3d2e936a
bd368037
bcc5fe88
bd0040b9
bd82e42a
baee6840
3d13add2
3d0ad128
bd0ef7ba
bd921e74
bc841648
3d2f8caa
3d89a3e1
bd81e61d
3d0d8068
bca8d9b8
3d3b7a4e
3d258c88
bc875350
bd5e9af7
3cfd5b90
bd8afcb9
bd5ee0ec
3d2937a0
bd050dbb
bcb44476
bce10052
bda4fa05
bda1fa8b
3d5fc37e
bccc942c
bd916efb
bbbf6750
3d0bfe96
bcdd7632
bb09a600
3d919d09
bc57d280
3d73366e
bd02b25f
bd23fc16
bcb81e92
bd162175
bcc67196
bd81f132
3d933e1f
3c9e30e8
3b156a80
bd15b143
bd8db0cf
ba975140
3cb55d30
bd9a1378
bd9584f7
bd1c79d2
bd78c732
bbc266c0
bd782e34
3cef35b0
3d51586a
3d3f2df6
bc05fb38
bd863403
ba949500
3d72f136
bd9d7bbe
3d2a8276
bd82e8a2
bd5a79b0
3d11a96e
3c470150
3b83cee0
bb160c60
bcb374fc
3b70e480
3d56f37a
3cbf5734
3cb46068
bd3a8b69
bcd7d4bc
bac426c0
3b6da4e0
bd5416c7
bd3f5f89
3d3b7362
bd4f2230
bc629870
3d7baeb2
3d298fac
bd52b105
3cd3e880
3cf0aac4
b9d83900
bda3e0ef
bcaa11b6
3d050baa
bc3e1f38
bd920b29
bd84a954
3cf72d80
bd9eafa4
bd9da82e
bd1fdf1b
3c94f920
3b6993c0
3d57ec0e
bcfce6c6
3d74672a
bd9e4471
bcefde5c
bd65c896
bd89310a
3cf082f8
3d65da06
3b473100
bd548d76
bd5ef5f8
bc4e59a0
3c4f53f0
3d1f0896
bc814de4
bd20509f
bd99c20e
3cc01e18
bc954ca8
3d6b1b12
bd2bc75e
3d165d18
bd9986cd
3da1d6d7
3c6b2018
bbec1a40
bd33e3e2
bab499c0
bd7ae100
bd79a218
bd333f1b
bd35e25f
3bf927b0
bc71eca8
3d4caac2
3d8e821d
3b1985c0
3d833cf1
3c8cad00
bc912b58
bd214502
bc0da7b8
bc7c8b78
3d986a9f
3d5a56ae
3d9a55cb
bc1d02e8
3d961b0d
bca02018
3d306644
3d2d6d0a
bcacd784
3d4a49e6
bd961754
bd6386dc
bd5e1054
bd6a97ba
3cbba47c
3d56a286
3d1051ce
3c0404a8
bd8f75c6
3d8d00c7
3cc54244
bb61b4a0
3c413798
bd910bc6
bd01247b
3d39c13a
bc77c048
bd6f5702
bcd9d616
3d1cf1a0
bccc1940
3d3af8d6
3d48f726
3ce6025c
bc608a80
3d8cb917
3b86d480
bb9ce750
3d773502
bd1e4250
3d0c940c
bb3d46e0
3a8c5e00
3d1c1b78
3d5e7d8e
bc1fc700
3d95771b
3d2bfa7c
3d0f3898
bc0acfe8
bcf55cf2
3d067f7e
3ce92110
bc2a2ac8
bceb1fee
3c947b3c
3d477232
bd6206a8
bd3aae1b
3d8f6077
3d5f8522
bd14c893
3c932f20
3cbafe5c
3b0f2780
3d8fe767
bd98eac4
3d8a574d
3c2f70c8
bd42c6f8
3ade2640
bd697a28
bd1fe795
bd61304d
3c796948
3c7f45f0
3d412e36
bd9b46ad
3d3926aa
3d75f1c2
3c02c3c8
3c6ffa50
3d64f536
3d0c1c6e
3c1c2e50
bd05acd5
3d8c2aa5
bd9f584a
3a2fbe00
3d7e9f4e
3b43f1c0
bd016023
bd7a50f2
bca73f58
bd7f80da
bb334f80
3cf39f34
bccd6b46
3c88f040
bd9f9a07
3c695720
3d580296
3d9c4fe9
3d4f539a
bc87c480
3d3593ae
bbdad920
bc54bf68
3d9f0735
bd170ea5
bb8c7080
bca107f4
bd76c5be
3d93f821
bd50e61e
bd53f3a3
bd95fcd1
3d93f885
3cc85aec
bd865434
3d677496
3bd7ecf0
3d970d2d
3d0ea4d0
3c54d920
3ce939cc
bc1b78a0
bd6871e0
3da40d93
3bee6a60
3d3ea32a
bcd7ed5a
3d2228e8
bc115d08
3d0e09f4
391ad800
bda2565f
bd2d9ed3
bd865410
bcf6036c
3d8a29b1
b9625600
bd80f2a4
bd91c012
bd97507f
3d6c79ee
bd4ad76c
3cdd8c04
3ce917f8
3d5867e6
3d51da32
bd473bd0
3ce7f104
bc5fbf50
bd9e4b9c
3cce3aec
bd00bf47
bc5fce00
3d8d5e2b
bcfc5fc2
bc25a280
bd7ef93c
bd496185
3cc1c200
3d7a86ce
bc7618f8
3d576976
3d530e46
3b09e1c0
3cd75ca8
3d5e3d56
bd3ab730
3d8b356f
3d8d155f
bb5de61b
396a0ce0
3d8b1837
bd3bd822
bbe8ba6c
3ca771c2
3c635389
bda4dac1
bd9823ba
bd6b1e64
bd0916ed
3d942a95
3c691050
bd5a4092
3d8efe24
bd33af5d
bc7f26c6
3cc74b96
bc2564a3
3d8359ee
bd8c4c00
3c9144f8
bceedfa5
3d3bd22e
bda16a43
bd5e172c
3c231260
bc229978
3d047e30
3c3e534e
3d5f978c
bc94b6be
bd4f7358
bc020dbb
3cccc71f
bd72b6d2
3cca6270
3d432687
3c42d131
3d267601
3c75e77a
3d9bfcda
bd4e4514
bc02d5d8
3d047683
3d76495b
3d81b4ca
bdc8202a
ba1a263a
3d85908f
3d4bee0e
3d921d6b
bd9eed9e
bd323c7b
3cae56d8
bcca68e0
3c5cd41a
bd5c748d
3c5c5671
bcb7382c
3d62cf82
3dbb3209
bd76a4d7
3c231998
3c448610
bd2fef2f
3cf5fe98
3d6e2cfd
3d039710
3d1b1a88
3d9705d3
bcf0f402
bd8df929
39675066
3bc31550
bce00c45
3c5a9933
3d55e9d2
3d9ef295
3d0dd3dc
bb1b7af8
3d86f11f
bd128315
bd69736b
3d873b5d
3cf8e688
bda35c3a
3d76a34a
bd1fab36
bd4117bf
ba0d4a00
3d63b380
3be944f8
3d0f690f
bd0e5bd3
bd4886aa
bd3fd64a
bd15b85c
3d9d38e1
3d85335f
3d15c81b
