bd47fbf7
3e0b8397
be41f563
3e42c5e0
bd493002
bde55abc
bde9260b
bca73a6f
3e29b47a
bcc44739
3e494f40
bdb1dedd
3a0f72f3
3e175194
3cb8a924
3d904a49
bdbff3a0
bd4c59f1
bddbf8c6
bd10511d
3d05e1f3
3d19910f
3bb48781
bd41e179
bcedb3d8
3df9d77d
3c2bcc7b
3d4c207a
3e270359
3d173488
be0b2ada
bd4c38b2
3d017851
3e2ee116
be043156
3e024132
3e1779f5
3e00e09f
3e0fd553
be518049
3e000342
3e1d94a0
3d86ff02
bd636318
3e2a4b34
3c7e0886
3d4f9da6
3aa9cd66
3cc461e9
bcbb4922
3d1e9638
bdc30a9a
3e5b1a2a
3d96b4a1
3cfe51da
3d997ebb
3e11b2d5
bc19e24d
3e5f8e88
bd802fe5
3d951357
bc29d4f0
3c64c6fb
3cc93d13
