3d5b2083
3d4f2643
bdbd28c1
3c511a8f
bbb0ffc7
3e4e32db
bd795965
bd95ebf1
bd5b4cf0
3e75fa05
3d65e35e
bcabcd17
3d8c75de
3b0d80f1
bd60a32b
bd10387e
3e63112a
3dba4997
be00ec06
bd969c89
bcab0072
bd6419f8
3e2441b5
3e13c6f0
bcf3b7bc
3e6b87a5
3db84daf
3d9e657e
3e1619c8
3ba4268c
3de19bd3
3d94d0c2
bbfc5ff0
3bb9b9f4
bcd896f4
bc1a2f91
bd9a7677
3e05c529
3e7eb6e5
3dd104ed
be52e111
bdb32732
3c4841ed
3c4b5000
be4a3554
bdebac91
bcbbf5a8
be042afc
3d57dd1e
3d295677
3de7afab
bd9d7d05
3d54f955
3e06fc11
3dcc4ccb
bcca6fa4
3e5da371
3e7e593c
3e3c7203
3dae2854
bcd03f2d
3cb2837a
bda22210
3d9d09a6
