bf2eb1e1
bde827f4
3ce7035a
3e3b3df4
3d1fb0ca
bcc224c6
3b9ae394
bd6d1780
be667955
3d2430da
3e4a0508
be7981bf
3c891809
be62c54d
3d97ee52
3d3d6d27
bdf14243
be480f0e
3de28b4e
be1414d9
3be7a81a
bdf401e8
bc66d780
bdd381c0
3e145d4a
bd181b14
bcc1e031
be4472ec
bdd53cea
bce4849e
bd848967
beea5a31
3e99f464
3e19c969
3e27ab18
bcafd85b
bc07ac56
be1379b6
bdb37373
3d37607f
3e568dcd
be2ef8e8
3d2f9ad6
bd1a21e6
be4cac95
be0bed87
3e04f17a
bdea7a3d
3dc6854c
3e0384f7
3e310d06
bd168458
3d8194e3
3810429a
3d06d427
be8ed928
3da5bb2d
3dad17ec
3b71f8a3
3c50403d
3e59eae5
beda2ab8
3e0a1962
3cd90b6c
bd80f6d4
3dc30829
3e2a3e78
3e39ae67
be13e51c
bdbd7850
bd193797
bd001562
3daf51f5
bdd8ade0
be5eac47
3bf1e07c
bda11de1
3e4940ad
bd391415
bd885c60
be2ce678
bd1ef3c6
be6b80dd
3e9f84a8
bd057052
3e1bb0e3
3e2dba14
bdb22bec
bdbaebc5
3c57357b
bc96695e
3df22265
be421f48
3d8aebd2
be1bd6d8
3e9d5001
3bc2d492
3be7805d
3dbc2f82
bea019ba
be190af7
beb64dad
bdb282d2
3dad0e20
3e8a3a9b
be698e9b
3dd6ab7a
3e27aca8
3eac7215
3c825ebb
3e418fb5
bd9c72a6
be7191da
3e884758
3cb1d9de
be2c5527
3b8e6db8
bdb2752a
be542fa8
3e8d10b3
3e820037
3f0d9b2c
be94bd82
3e8ad49a
3deae630
bd997714
bc96601f
beea129d
bd972df0
bdaae700
be627568
399da62a
3e50b6ee
3e474a47
bccdffbf
3df54746
3dbfe3e5
be306720
3e93d293
be18c90a
bea1ae94
beabca1e
3df12f62
be2fb88d
bc70cde8
be898e82
3da26310
3d8d5baa
3e1d1550
be48aa6c
be1a7674
bdc8d31e
3dffc77e
3d9f4201
3e10de05
bdcced60
3e1762bc
be5aed0d
be750836
3dbd2c57
bdc3ffc6
3d93b6d1
be8ebb8f
3dcd4988
3d9ad3dc
3d607b8d
3e417ba9
3d5803db
3d991550
3be1c94c
be18dc0c
bd9f523d
3de08f46
be910da2
3e1a4313
bea1b636
3d85b38e
3d1a3da7
bcfd4498
be65cb79
bdb16279
3c14664b
be8bee4a
bc6dfbe0
3e416cda
bdc9f684
bbdd1ab2
bcb41a13
bd15c12d
be06ac93
3e54487a
3d72fdf1
3e1124b6
3e8c07cc
3e030de9
be507f73
bd07e605
3ee095ea
bdf945fc
3e53609d
be44d310
3e83a38e
bcf73187
be909a03
3e1092a5
be0c8fb0
bea13ee0
bde6e729
be2b7d39
3e8438ce
3e8337b4
3da2163e
bde00945
3e2b3597
be36bc02
be3c4d91
be9d5c2e
bd50ae5a
3e5cbe3a
bdcc5fde
3e292041
bed44311
bd41ea7a
3d914633
3e4aaf42
be51af72
3e4e65c9
3dbebf64
be297d88
3bba8c47
3e5870fc
3ebd8632
be72d36b
3e5b783d
bdfcef12
3e9b1c43
bd31b9ee
3e33b805
be659d2e
3d83369e
bde4bbef
3e87d23f
be93a7a4
bd227cf3
beb11800
3e80702b
3cfde6d5
bda97360
bc210bcf
be6a53bd
bd06922d
be798f16
3e815676
bdd12486
bc2a0ea3
3cb2f5b8
bddce38c
3c671a0d
be5c5cdd
bcbb6ea7
bd909773
beabb38b
be970660
3e623c39
bda597b6
3e3dcf15
3e624c5d
be8cfd9f
3eafe01b
bb20fa53
be1a1515
3d2162e4
bd3449fd
bce2b2e0
3d1cbfc3
be213643
bd905461
3d759491
bb34a936
3d588fff
3ebeb5b5
3db75007
bdf8e1d8
3dd9c0aa
bd35b510
3e66c87f
be3ed89c
be1c557e
be83e234
3e87a0ae
bd347ee3
3e9de2d4
bd62a634
3e839847
bd97deb5
be824d98
3ebd4328
3d891727
3bc56df0
be736673
bd96b962
3db3952c
be73225a
3e41e032
bc9e9b83
be9f1a81
be16f2d4
bd0d9f36
3e039c9f
3dd3caf6
bcae45e8
3d95ad6e
be14b4bb
be96f29e
bc60189d
3dd54d9c
be8b23dc
bdc9b21b
bd9df356
be925cc1
bec3f16e
3e65fa4e
3eb19b3c
3eac780b
3c37e516
3c34335e
3db0d2d0
bdfd26a6
bee78211
3ae8c4e3
3de8b804
3e1826b8
3e94e72b
bdab501d
3e5af555
3e9399a5
bd9ce49a
3d5da74e
be710320
bd6a2156
bec18ddd
bd2ed918
3e666951
3c53962b
bde93035
bed00a2d
bdc6d445
be28db75
3e84258d
3e9326eb
becb93d9
bf0055ea
be88d787
3e27b6da
3e26a566
be0308d7
3e65d0ea
3e6b2811
bf2f1627
bdbb7832
3e1b01dc
bdc4d292
be75593b
bdfa9744
bee49bac
3ebfeb35
3ea867ef
3e143e53
3e6987c7
3e1b4fb7
be4f9cbd
be072e7d
3db0e80c
3bce6873
3f0e9a8f
be1f7afb
bec24695
3e071031
3e088305
3e2d0e13
becce07a
be8462d6
be96fa79
bea69fdc
be55bec6
3e853dec
be9e3b7e
bdb7b6ec
be3be679
be88d744
bd04df3a
3d5edf86
be1bb45a
be17c6ad
bd70cdf2
bc38196e
bd9555f3
3c839d57
bdb578d2
3dbf63e2
bd86927e
3e2ef069
3e450304
3d7b3fea
bda42a60
3e594d99
3e43a24a
be46661d
3cb4415c
bd602d05
be1588d1
bdf1b59d
3e4505a6
bca2ff96
3e01f8d8
bda1244c
bdb92b92
3dff6240
be1a79a3
3d8c2e8d
3e5fad29
3e203ad4
bd8ca582
3d43e7fa
3d99e47b
be1d4779
3cacce70
3d2bbea0
be5284bb
3e258c78
3e259927
3e0bd59e
3e2a5c6a
3dda6e48
3e72b8d9
3d88ea88
3e0e9be7
3e0419fe
3dbb0b94
bdf66bf4
bd7f5dc1
3d487262
3e692519
3dcceda7
3e2e0586
bdf9c45c
3d4ac3a2
3e206284
be2a7abd
bd4897f7
be4d3424
bd634483
3c858204
bd907370
bdc0dc2b
bd3e9dcb
3ec73e93
be00e790
bc2bef19
3e33a74f
be315100
3e1068cb
3e83d75b
3d55eb9a
bdf09927
bc133066
3e50bba2
be2cb227
be513ef7
3d22f675
bcfc5a5c
3dbb5703
bdd8bbea
3e8bae8e
be17836c
be01f817
bdd2c5e8
3b3b2640
3ce7a3df
be0d62c6
3e165fbf
3e85afdd
3e543568
bdfcc5da
bd242407
bd9304e0
be27f3cf
be5d1a8d
3d1b2116
be016501
3dcc1ce3
be69b60b
3e4ec4c7
3e6a20b5
3eb42c3e
be4d9840
bd8363f0
be0ba984
be8516c4
be32e234
3ccc7057
be42d46a
3ec67909
3dc4fbbe
3e502dfc
3ebac19d
bddf2420
3dd4a431
be232999
bd77098f
3d139466
be36bad5
bc92d279
be34131e
bd5b12c5
bd5ef74b
bd4cf54e
be8d9abc
3d61e4da
3e4441ab
bdc9dc6c
3d515b04
3c04e021
bd50eb3d
3d6e1020
3dfcdbcd
bef91a62
3e188ad7
3d6427b2
3e061b42
bdc4bbcc
3d5c9303
3db70802
3d876191
bd42ef83
3df96a48
be170e3f
be21dfa6
3e46a47d
3e9a60dc
3e2c35a3
be354793
bdcdd7f7
3ad4b7a5
be17650b
3eb863f7
bd7b7b21
3e28f760
3e10ad81
3decbafb
3e089d54
be06ecb9
3d3a82bb
bd4b4d3a
3d7de39e
be9886fe
3b79a879
be5fa6fc
bda75969
be88a52b
3d39e956
3e2553c9
be7dac0f
3e08c282
be280a65
bcc556f0
beb5fa76
3e385ad1
3b1613ef
be5eee6d
3e6fd994
3df557ae
3e570437
3e354fe4
be331055
be282985
bd8584bf
be398fde
bd918b4f
3d873856
bd08a436
3e514824
3db1354c
3e6010fd
bcab38bd
bc613fe0
be0bae12
3dc67159
3dff7442
3e56b375
bd685462
bdf5b00a
3e34b500
3e5d0994
be22827c
3e2065f8
bd0ef7f2
3e15a452
bd182992
3df8d0b6
bcd2cd04
3c9ae0fd
bded0e47
3e7ccb28
3d00f209
3b21ad94
3e00db91
3d8b3898
bd73af39
be54e1f5
3e61c9f9
be8083ff
bc2668a3
3de5ac40
3d958b1e
3de2ffdf
bdc94270
3dcc9ef1
3db84de8
3e2ee7e3
3e18211a
be8f6e3e
3be9387c
3e4e8e4c
be9d7bad
3e545a21
3de3a97f
3e7a6b88
bc8c837d
be413708
3c94817d
3dc33e10
3b8c13f4
3d972aab
be74edde
bd502405
bca66d93
3e1835a7
3e0818eb
be202b38
3df78c4e
bcbbe915
bdc95ff9
bd001a7a
bd1bce54
3e3430f8
bba3740c
3c96bcdc
3e2f3594
3e1fcc7e
3ddc9619
bd140ab7
bda0b754
bcc67073
bd3f0af0
3d99acd0
3e38546d
3e3528fa
be115e5a
bdefaf34
3e9fa2bf
3d750729
bd0851f8
3e0bf890
be1b6b04
3bb10907
be714056
3e2b2358
3e36fd18
3e3f119f
be209729
beb0415a
be99222b
3c49f416
be783f37
3e8a1345
3e07e27a
3e25a058
3e264b71
3e35a2d3
3dbcf22b
3c819cd8
bdc8a28f
be4143c9
3cc516ed
bdf3d138
3d2a6614
3e458c7e
be4d14fe
3e57a256
bd0c46c8
3e990f30
bdb38c22
3e20008b
be0373a6
be689941
be60bcd0
bcd94ddc
3db702cb
bd4f1e69
be98cdcc
3e7b615d
bca7d168
3cd29091
3dfeea3c
3a760934
3d58d923
be855a82
3e344b9c
3e38082b
3e6c69d5
bc60dd35
be0060f6
be28fffe
bd867d06
bd770d08
bde6f5d0
be04fecd
be588fb6
bdc6b9a2
3d57fba3
3d91f52c
bcc38266
3d625c75
bdb041b8
bd11b2c3
3cad077e
3bb79f9d
be4481bf
3e669ff9
3e085a72
bdcf9f3a
bdfd1bba
3d42e13f
3dbd3dba
3eb7070c
bd1f6594
bdcaa016
bd538102
3e93ad8e
be91cf75
bda58ffd
3de71f8b
3cda2a3d
3c62d5f4
bda1462d
3e5d63ab
be803b71
3e27c814
bd0cf2d5
3db40607
3de40b37
be3aa8b6
be4cc422
be0923ef
bd951605
3c347314
3e2a5bef
bcde8ac8
3e0a574e
3e44ad3d
3dae6e52
3dd464a6
bd3cf446
bdcc8fc9
3e8a9acd
be124f98
be23c766
bec018bb
3e92449f
bc612ba8
3de46022
3e6ab76c
3e46a182
3d2bad05
bc2accae
3e9b6749
bdd347ce
be58df79
3d02dd41
3e908a14
be69611f
bce0bca2
3d786ea9
3d1912f1
beb0f37d
bcdeeb83
bddafbea
be9dde5e
be11cc66
3d7a3268
3e0992d7
bd79d4e3
be1cd1e4
be0beacd
bda18d0f
be8e2669
3e05a0f9
bd28c941
bc7f1f5f
3eb265aa
bdfc346e
3f04503d
be35ed28
be3e6eff
be66d92b
bdda14a9
3ec68ed2
bce884d5
be061318
be5d2ce9
3eab5810
be19e043
3e404bfe
3ebf8a19
beb7ae4b
3dff3ebd
be347f1a
bdf59189
3d727812
be4b3b2a
3e5a5530
3e1528ee
bec7ef65
bcded629
3e959fd5
be095dd3
bea117f0
3d126a30
bf35d8dd
3d1848be
3e31e655
be811229
3e409ea6
3da20759
3d770e54
bdc02e94
bd46aa67
bdef8b2c
3c769fbb
be0ee0a0
3e8acf67
3e198588
be0edf11
3d794318
bd8281ec
3dd2456a
bdf32c2a
bd709cf0
3d9cf896
3ccc138e
be2b580c
be14727a
3d8741ce
3e6e3786
be324169
3e8d0b98
bea0b3fc
be72d1e4
be44df04
3e849b6e
3b82784f
be663995
be80a683
bd7c1353
3e93de32
be64a16b
bc9da790
3d220ca7
3e33f4c6
3e1cdc7c
be36b1ad
3d7dd4f0
bd8f26c6
bee8e1e5
3d89670e
3ce2b43f
3e82fd34
3c839deb
3e8400d2
3d645eb3
3e0e8d38
3d50a012
3e263fa1
3d2fdd2a
3df9ed85
3e45874d
be35cad2
3d9bc1f9
bccd013a
3e5aeb59
be287679
bdc39a51
be804fde
bd679b06
be6236f0
bd13b004
be02d534
bdc7669e
bc82aad4
bdaa8e1c
bc8e7fa0
bcffd483
bce283ee
bd877473
3de448fd
bdfb278f
bdf9e6ed
bdaf9201
bba399f2
3e0b1015
be1103c4
3c7fd0cf
bd8360b1
be0bd79d
3df6de40
bdd11b90
3e15bc44
be32afe6
3e198891
bd62370b
3d806cd4
bdc99d8a
be01fd49
3e09bf71
bde7e146
3ddad2c2
bde980cf
3c4d5ba0
3dc158fe
3e0e8aa0
bd016766
bd08a4fc
bde91ac8
3d7f4963
3e0ea8b9
be0aedb5
bdf6cae1
bdcd3cbc
3dd3d866
3cc1f9c1
bd88e01d
be12ef97
3e108626
bdfa3654
3dcd6589
3d9bd3ce
3d2535ba
3e2a0476
be364d31
bd4b0e1b
bddb0084
3d0b9acc
3dbe90c9
bcb0b479
bcb7816e
3dde1380
3e239bb0
3e153836
be0cbb51
bd6567b6
3a2c42f8
3d88a2cc
3e037a83
bea3ec6f
3e1b1dd4
3b82ce3e
be94eeb8
3e6107aa
3d646c94
3d9e0fe6
be9e045a
be275987
3e60dfc1
be4e4141
bed4bceb
be2671d4
bcecd636
bc3f7582
bc96a9df
bdc9e10f
be3ec747
bd52cc5a
be654dde
3ddee1ab
bdc90c10
3dc99f5b
3e5e6c15
3deb8aae
3e4eabc6
3e669d36
3d3947b8
be8ce4a1
3de6a68c
3bdf344f
bdd12a9d
3e604cd2
be536772
3e827a1b
3e18b994
3bc31ef5
3dd128b4
3df3076f
be2e4f46
3e7827d2
be7de86c
be1d3e99
3c5ac89f
beb18be0
3e4e163b
3c6e0873
ba9c817e
3e30c4ce
3dc8711b
be01e765
be5220e8
3d419195
be0115e6
be12554d
3d2bc1b6
3e535965
3da9d460
3e28901a
3d92132b
3ed02a84
be85c32b
beaf8771
becadee3
3d243488
3e3cbf98
3e21ea93
3d9cef71
3d0b84a3
bdeb7635
bdc16072
be636be2
be2ccc92
bd08299f
be3ee2e2
3c95ea9b
3dd6f525
3cfa9dde
be76f988
be6fb579
bcd9dc93
3e8b463d
3e54901c
be1833bf
bea90964
3d392756
3e54d057
3e8d0c7c
bd8e83b1
3de76ef1
beb876c1
3ea40b8e
3e375dc4
3e73bee4
3cf00f34
3e514bcb
becb50c3
bd9c3528
3e59ae25
bdd514aa
3e00fe50
bd3bace9
bdfa0193
3daedd82
be0ca395
3dcacfdc
3de5bf7e
3d0e5118
3e9c4581
beda42ed
be8df3b6
3e434f69
bccde2d6
3dcfcf28
3dbc639c
3dcae35e
3ca04043
3e2b3e5a
3e943519
3dcdcf7f
3da5ac56
3e2c45b2
bd860d91
3e95f4f8
be5af38f
3d7b82bf
be9a950c
3e69b75d
3ebf1b42
bebca86a
3e6a7e11
bd92440e
be06cb3a
be2e3637
be595c4d
3e1f676d
bb007aad
bd0c04e1
be08ce20
3ddeee3d
3dd46685
3e81cb77
bd509aab
3e612439
3ecfa81c
be2e2323
3b94b811
be0dcde4
3d0236d5
3e5095bf
be3d4e30
3e656165
3df6a092
3e594ff3
be696a89
bd96b5bd
bd8c3c98
3e1c192f
bec095b0
bdb0d394
bd0489e4
3dc7a550
3d988628
bd8b4569
3e0cd369
bd9f06ce
bd54f0e9
3d98db8a
bd8175b8
3dd7606b
be2548d9
3eb10784
be1f4d6f
beb465b2
be2b88cc
3ef7559c
3e6ade60
3e403807
bba90692
beb02649
be7cd9d4
3ba53372
3e8401b9
bc0f7554
bea03853
be0dd512
3e1e66cd
3e541121
3d8220ab
3dc0c9b7
3d12f8d0
3e70e9c3
be28e1ad
be3509e8
3d77a4b4
bd9af4e2
bdc18f0d
bd951c50
3c2b7c68
3d942040
3db6b841
3e6cb796
3d0bffbf
be53c774
be694cd5
bd1c361a
bcf3923a
3e26e3de
3e4f05df
3e7ae990
beae91c0
3df62692
bbedfc33
3e7a60e6
3e6d162e
bbdf3fd8
3e9d39d7
3eb84f7d
3d4b3778
be35947c
beb97a11
bdad7d9d
be018a72
3e1ad25f
bcddad78
bd829b60
3efc9695
bdd310a0
be48ec74
3d885baa
3de42bb6
3d10b7e4
3e2650e7
3d874d4b
bd6c269e
3e330200
bdf79f96
bed10d2f
be154cb7
bd04f85e
3d6fdd9c
3dae9cc6
3e5ed81e
3d9b5734
3e2e498a
bdb34a7f
3e0090ef
be3dd9ab
be4d9a1d
3e3b1568
3def7111
3e3f83a7
3dad2c59
3d8cf3e9
bd9d68c2
bded97fb
be22541e
be3bf129
bdb201da
be4ec7fa
bcb50446
3e089801
3e3646d8
bdbb2f3b
bdae4661
3e3fc3b4
bbeaf85f
3d9c993f
3dfe1e71
3e249989
bc8b6a76
bd429bf0
3d7ab3fb
bd7ade7c
be57a94d
bda44d5f
bdc4ae5f
3e514182
bcd18daa
be86d840
3d4f28ca
3d9dcc0c
3e364e40
3e2ac447
be6ae020
be10329b
be1618ed
3c298176
3e48b043
3dde1d67
bd07341f
bdafb174
3dafbf42
3e8ad6a6
3d61a03f
3d0c14f9
3e8f478e
3e86cf4e
bdf09916
3d583b1d
3dd0d70b
3b5ccb81
bac56feb
bd3759bf
3cd7f346
be5b27a1
3d8acdcf
bdb33e4a
3d12b5bd
3e324124
be24c0e6
3e138f6f
bc11c447
3e4b3701
3dbb3bc7
be799702
3dc7c46e
be17c2ef
3e9893ec
bd8b4ca2
be37f37b
bd5d70f3
be52cff9
3e903969
3e15e9a5
3e81aca4
3e8364d6
be0a61ed
3dab5544
3ddd690d
bd9d33db
bf084f55
bdb69ccf
3eb506ee
bdd85436
3e744005
3cfe27bc
3d947862
bc053e95
bdb32284
3e6eb52c
bd8ef952
bda3a8a5
bd9dbd59
3e3a93b3
bee1a545
3ebc34cf
3eb24c86
3e963e23
bd9ea803
3e7d50f8
3e5b7a91
bd916943
be3de9a6
3db89121
3eb4f378
be98279e
3e87e291
3e37971a
3ddfa37c
3e0a443e
3d0e3d95
bebfbf88
bd3ec695
be276c37
bccda644
3e41f010
3d316eb5
bed47388
be7826bb
bdd82435
3e0e269c
3ccf6343
bddee6f0
beb65a70
3e3eb745
bd92b2a0
bd1acad8
bda2e9bd
be8583ea
3d11412a
be125a8b
3e583749
bf0dd62e
3d6a48aa
3ea646bf
3e230187
3e411419
3ebe195e
3e339bb6
be489fdf
bd1de9ad
3dd176cf
3ede2dd2
3e22eff1
bdec4c00
be7520e3
3e3839e6
3e50d8d2
bec499e1
be0a945a
3b6885d4
bd0b0850
bd978189
bcf4dd04
3caea022
beac0723
3eb207fc
3dd9a5df
beba7537
3eaa91b2
bdcd3ba4
3e9c8e8b
3dfa10ef
3ebeb133
3e843749
3e221455
3de1756a
3bc00cae
3e38a51f
be6dd301
bdee1d73
bb379276
be9ca0d8
3e968d53
be4c051a
3f051a41
3ce33e6d
be1f6bea
bdce4b7a
be65ce66
3e9cd934
beac531e
bce2d3f9
3da88ca7
bdce3bf7
3e18caa8
beb1d5a0
be694abc
be7445f5
3db83b0d
bed602c9
bef4e4e7
3edf152f
bdfccdaa
3be04b26
3e45b06f
3e0c648b
bd93dff7
be093358
3d5cdd27
be61c984
3e44df6b
ba87c6cd
bd0fed8c
bea68069
3e0d4ded
3e15b26c
3d0fab04
3de94abd
3c9ed2ca
3e407c4d
3e55cb06
3dc1ef71
3e137a5b
3da90afb
bdd17ce1
3cc4cc4b
be22da4d
3dbb8384
3d70e1a1
3d60ffe8
3d88c91f
3d25fa79
3d1ca688
be06d031
be40f4a2
3e1d62ca
3e38eed0
bcd1de38
3e253614
3d9c98be
3d944329
bdffaedb
3e14c4f6
3e4d01b5
3992f7b0
3db55dd3
3e1f5deb
be5238b2
3e197e8c
3e4fdbdb
bdc44538
3cdcd6d2
3e5d9102
3deb5948
3e0fc49c
bd234d54
bd85d73a
be78094b
bc0726a1
3e1e79ab
3d1d6ef4
3d5eca28
3da0782a
bc985f1c
be5095c7
be0ab9e2
3d8c495e
be6f2c0e
3e0d6096
be32e15b
bdcf7afc
3c02a10e
3de342c6
3e5f900e
3e415efc
be6fd908
be4aed0a
be85469a
bec1fb80
3ebd7e4a
be9ab6dd
3e42a15b
3b39758b
be100ee7
bd9300ae
3d81dd1f
bdca471b
3eda6794
3e34f581
bb817e64
3e416ea2
3d4ba88a
3f00410b
3e2109f1
be11b869
3cf194c2
be2e2e27
3eae5a32
beb67137
3e3e60b2
bd0b8710
bc417bbb
be93eb07
bd980a86
bc2ea65b
bdffa8b5
3dd4aad2
bc93f9d6
3e87e248
3e1487d0
be121a14
3d423142
3d28f149
be68888c
3e0a2660
beacf448
bdb7deee
3dcfdb92
3ca40620
3d872352
3f042dc8
3dcc8926
be843f07
bdbd9e62
3e22cef5
be86d088
bd398c87
bb680ba1
3b75169c
3e23fd4f
bcd4a9e1
be1887cb
3cc8ae9f
be8ce013
be5cc7de
3e5733f1
be4069d7
be0cec7f
3c13cbb2
3df12df9
3df166ce
bdee826f
be893d22
3dc6ed38
be2b1dd0
be9ab0b5
be1fe0df
bd5eb44b
3d19e13e
be239891
3c9e79a9
3eb0a209
3e6038dc
be1cb94f
bd3114db
3c07ce47
3cb3cc22
3e8edb43
be606fa5
bd9fc885
3d220e50
3ec65ec5
bedbb805
3e2f85d0
3ea3eb0d
3e6d7690
be045a1e
bdd10b0d
bdfa0d36
3da64139
3d34bb2b
3e12cde4
bd42341a
bdad85d7
3e8dc84e
3de67e06
be3f2740
be729ab5
3dc9fd51
3e5aaef6
bc2ba253
3cd9e247
bde9f348
3c6f0e95
be88d510
bc7f8116
3cd7be79
3c86ba99
be3f10df
3d866835
be225707
3e82063d
bec3fc42
3e26d9dc
bd5fdd64
3d2521df
bd5cdb5f
3e5142c5
be6d485d
3e76cb1f
bde22879
3eae58cc
3e78b6a4
bb2a4056
3e7cde98
bea086c4
3dd7e4f1
3d79d4c9
be392e62
be8f9697
be791ddb
3d828a1a
be4e1f95
3e14f859
3dc9c6fd
be39ee76
3e8a226e
be59a060
bdd2fa38
be45245a
3d4c4bd4
3e399764
3e796325
3d8f16df
be40c0fd
be153803
3dbfe038
3e4ed15b
be1fa7ba
3e8966c7
bdddd97c
3d55833e
bca677ba
bdc3d917
bc569ff1
3e342680
3da834e8
3d592543
bd852fa3
3cd292cb
3d73b827
3de77066
3db0d3c3
3d6d9508
3dceaed4
3cad1df7
bdc7f1e1
3e222226
3de580d3
3e7da5c9
bda12ce2
be9599da
bdf7f6f4
3cbe6bf0
be54c1d6
3d010e8e
3cba7d07
3dca1b4b
be808959
be4d2aba
bbc34ca1
3e334d34
bc9f0fdf
bdc79e51
bed1ad81
bd526847
3e8bcda9
be84f58f
3db8b127
3d655721
3da29d67
be056d9a
3e4ca7f9
3e3b7653
3d6c4cbb
be7452f4
3e825332
bea030de
be385a8e
bd10f05d
3d9c2585
3dd113bb
bdf720a5
3dd60017
3c35fb37
bd5697d0
bce2ba2b
be409658
3c976705
be14178f
b97b1ace
bd65f7ac
bdce4bab
be825c66
3e70df66
3dc937e4
bd49b220
3b80fc37
3e041bed
be2ab3c6
3e0ed7c7
be5fabe4
3e39eddf
bcbd4ac4
3e8c2608
bed04387
bdb9fafa
3dae779e
be17802d
be9bb23e
bc4b140c
3ddc2c4c
bdf553ed
bdfe764b
3db8928a
3e287192
3defd8a3
bd0e66c0
3e434639
be9a541b
bddf2bfc
3e0205fb
be92f865
3e68ea7a
bd494142
3e599f8b
3e00ebd9
3dc115b3
bcec0a28
3e145938
be76a0f9
bdaf945a
3ea08b47
3e16d746
3d6db126
be9854ec
3e3f2f75
3c8425bf
be15e467
3e062eab
3dad411c
be6da9cd
be339013
bc17d7b7
3d4f3001
3c060795
be6bcdf8
bebb9ef1
3e083d9c
bdeda71d
bcc97e9c
3dd862cf
be034244
be7d6799
bd4ffca6
bec7d5ac
be22ef7c
3e0712ec
be639a49
3e2b1f4f
be8b1b77
3dfc3853
3e4bca4f
baaad80d
bdd15fd3
3e6a4eb0
be8deeb3
3ecdb13f
bc8b54d7
3cc6b963
3ea549dc
3d7955f9
3d8ca03d
3d9800ec
be17f742
be176980
be88e6c6
bda9d86b
bcd3ef78
be9e17a1
3de0128f
3c7f2e70
3e50f27b
3d2a2ee9
beab95e6
3e6cf58a
3dc81f36
3e19c37f
3e960ef9
bec395f3
3ebafd96
3e0a6e2a
3dd8cf47
be7344c6
be4beb94
3dfe32c8
beb5b146
bdc05709
be0dada7
3e01f1b9
bde4b1e8
be09322c
bc60afb1
3e0c2e9c
3e0adc95
3a21ad3c
be1cfe97
3ebf0336
be0bb293
be301e81
3c8e11ed
3e87a92f
3ee50cd6
be95778d
bea9792b
be0ad436
bb65b5a0
3edc1fea
bf1a82ce
3ec682e3
3ef620dd
bef35037
3d9b837d
bea9216b
3d044a3a
3d91bc10
bef5c656
3c8c5ea3
bec81a9a
3e5a8e50
3efe0293
bde8aec2
3e58caba
3e291747
be45bf02
bd7fa43e
bdcc17ed
be518657
3e181dd0
3e592b65
3e5ccef6
bd8cc938
3bc96990
3e691060
be9e8686
bdfd1e51
3d18ebdd
be0f2fea
3d74ff4b
bebd9b36
bd540115
be3e30d6
3d24b5d5
3e4ad805
bea41e0b
3d9dc7b9
be0cdb56
3d342039
3e5d2a41
3de1b5c1
bd05b1df
beb7ef4d
be6677b6
3e41346a
3c4b7f7d
bdcfeeae
3ddbd2db
3d963b88
3bf19061
bd78faba
3d979546
be6c7696
3dad0ade
be05c5f1
be4b86a2
3d4bec8e
be1b46f0
be562ad7
3d2c1013
baf7a1b8
3e85c3c5
be91193a
bdaa8c3a
3e209941
3d54a279
bebbd333
be10699d
3d796b9a
be1d6787
3da69210
3e712023
be1091fa
3de7068e
bd0e0c76
bd37aaac
bd8da99c
3e42a41d
3e77a38e
3cfad267
3d86ce71
3dfd0c38
3dbfd2cf
3e1f6ba7
be2f7bfe
be7b5357
be159e86
be1fd120
3e5780b2
be7f3463
bd90ad8c
be6e28df
be9dc8a5
3e6e0e71
be28bd02
3d41899a
3d5e12c1
bee20fa3
be2b6059
3e88dfc2
bea930ac
bc825c67
3e6e2dcf
bc80c9b5
3d903116
be53e05e
bed69087
3e3139c6
be90e973
be066f02
bd52837e
be889c00
be2aacb6
3e550922
bda771d1
be168c1a
3e935729
bdf9ca3d
bd9e87b2
3e94f399
be8d3643
3de76ed6
3e406072
be1900d6
3df0552a
beac8225
bd2dbd70
3e09c617
be80e498
3e75beae
3e37d9f2
be8307fe
3d9ab822
3deca106
bccdd9dd
bb94cbfd
be5a49b1
be1d9337
3eca7abe
be3e898c
3e849a35
bd9fe9c5
3da826f2
3e0ae057
bda025d6
3df25a08
3e9135b8
3d3ef411
3db2754f
bda59211
bd84de42
be9a8f5b
bd8572f7
bd75a7d7
bda85a0a
3e81fb50
3d93ad63
3dc60079
3dc81c51
bd181ab3
3d96fa90
be381a56
3e1f058f
bd37f8b2
be4dcee2
be3c0ed1
3d9a9d55
be563c6c
bcd602d1
3e347def
3e15eaf0
bd08f871
be7dae5c
3c759579
be31a258
3e3e4a73
be36109b
3e2034da
3d488c94
be6d2a9c
bbae63e6
bde5544c
bdc2eb8f
3e930cc6
be97db0d
3de87ebb
3cc50d26
be7bdbd0
bd3dc105
3b781bc8
bccc9dd6
3d276611
be47313e
3e5ddfc9
bcd07a63
becf5819
bc624b4c
bdd08760
bd94639f
3e439152
be031882
bdec504f
3e0856ea
be088a92
3e8cdcfe
bd8d80c2
ba643a8a
3ebf93d7
3e130f9a
3e748254
3d0eef22
bdbf7b68
bebba88f
bea0f9fb
3d343fab
3cf44467
bda6a9af
be7673b5
3dab4716
3e7c0dec
be2bb95a
be01ea0b
3e3e03af
3da57037
bdbea135
3e373c15
bdc248d4
be9a205c
bda29d4a
3d7eed50
3d8f98fe
bd814ad4
bdcebaee
3af8c37f
3e13131f
3e273c9f
be6e20cf
3e1e5e5e
bec4f229
3d05d2ea
bd4e9fa2
3d700553
be18d962
3dbaf69a
3e3d730f
3db681df
be1056c7
3e4faf63
bd7bb2c2
bd9e6c3c
3d2bdfaa
bdc47eb6
3d4ca32d
3cab07aa
3ea43108
bcfceabe
3bf6d77f
3e7eb637
3e84a1b4
be3cb402
bda38b74
3ccb279b
3d9a0cc1
be1a089f
3dd41c60
bd0f3ae8
3d024dff
3e811856
3e15b9ec
3e4d1323
beb7b09d
bd939840
bd71b87e
be3ed78a
bdfb8c8d
be95b446
3d12b1b5
bc5dfb8b
3e2caeac
bdc22d7f
bcae80cd
be22dfaf
3e3e3cdf
bdafe242
bd75da9d
be3788b7
be4e2018
bce62c10
3ea28508
bdd6d72a
bddd7d68
3d6c8241
bdaab46e
3d899ebf
3e77208f
3dd878fe
be27e1be
3e2de2d8
3d7c31b2
bb40ad63
3d926761
bcac31bf
be3a8c62
beb7c8a3
3e4bd69f
3c1fbba9
3c6e386c
3e132a3a
be290148
be5b1d92
be209b25
ba224701
3dafca99
bcb163d9
3ea02dc4
3e50e758
3e55a7af
bd71ff58
3dc62861
bea40424
3e43a8c9
bc2a56eb
3cae4e6a
3a511639
bde5fdc2
3eb2c329
3df25251
3db46eec
3e27199f
3e186dad
3dae7315
3e82a08f
3c9adaf1
be1c1be5
3e77377a
be5f6337
bd94312d
3e200858
3e2bb047
3ddc48fc
3e3a852f
bdb9d5e1
beddfa92
3e684411
be46fba1
3d8c1298
b955f7ac
3e3b4c04
3aa26653
bd8c25db
3e38024a
3e6b58e7
be0188f1
be25e567
be9ee8d4
3e54110b
3dad90bd
3dfc8581
3e36496f
3e60d2be
bcb506ac
3e276411
bf011192
be21c73a
3deb89db
bd293c25
3ec860e4
3e45f5eb
bdc4986d
be205b63
be8c4838
3e6e7cf2
bdb6f156
3e957015
bdddd090
bec08485
3d967349
3bac5f34
3ec9099f
be2ac3fd
bd8dc225
3cbdc47a
3d8f7222
be3d7d90
3e391ee7
bd439b1e
3e9de0e6
3dbb0033
3e9e6545
bde12a2b
be9cb50d
3eb1eff7
be1c0682
3e54fe46
bed0d5c5
be7d0468
3e09ce59
3dfdf44e
be84b7a6
3e9425b4
bcb50790
bcb701e2
be80b09b
be94528c
be9c319c
be38e1c9
3e040d27
bc426717
3de6e18d
3e88799c
3e5817a2
bdf8f79e
3e8c4e75
beb80fb1
3e570865
bc74c10c
3b59cdee
3e201c3a
3e287edd
3db81248
bd4f5cda
be84165f
3e995e1f
3d98f074
bd9e31da
3dc07192
bd4ae036
bd81ff1b
3da37d9f
3d789fb3
be158994
3b0af1be
be866589
be8b0ddb
bec6e86b
3d70193e
3e6e492e
bdeb5c35
3d2a37b6
bdd92f69
bd2a3e25
babe3b71
bd9e130a
bdb6a2ca
3df93538
bdb92acd
bda17004
3d593c8b
bcb28cd3
3dfa1601
3e8f01af
bdc545c8
3d7c6bd1
3e446ffe
be89ce42
3d94696f
3d83ac3b
3e1e9f6f
be668106
3e31a28f
3cb42263
3ceaf627
bec436b3
3e1422ea
be1f51fe
bc4d7693
bea45167
3c7dd22d
3ce58694
3e5eb276
3e82e48c
bd55a8d6
3d970f8a
bd92f245
bcc7c838
3ddf582f
3e6b3dbd
beb928be
3e3b38f2
be26f8e0
3dea2bf2
be86afa9
3e49ab03
3e555027
3df0e481
3d7d9a1b
bdd080d4
3d6d9543
be36574d
3e14e35c
bd84a477
3d637efe
bd13af91
bdbcd0c2
be49d41f
3cbe58bc
be7ff2d3
be008dba
3e2bc8bf
3dcec3fd
3db46456
be6bed99
be2a6ec1
bdea5730
bd15ff5a
bdf7c0b2
bdfb08d9
bcc7a829
be322e9b
be1578e9
3de4ca60
be2228c1
bdf61659
3d6b88d8
3e59b8c6
3cec085e
be126469
3d9d0bf3
be1828f0
3e1a84f2
3d90dc35
bdce16e1
bd8393c7
3d07730b
bc3c8f49
3e427675
bc002607
3dcbb7b6
3ca2829f
3e2daff2
3e416e41
3dba93a5
3e3b2300
bd74ad76
bdbec70e
3e4edc1d
bd54f3a1
3e551e2d
3e393391
3de96759
be2cc031
3e0a4878
3d1f661c
3e2e7e68
be0b2415
bed3c29d
be35035c
3e5c89cd
3d761fef
3cb9fa41
be382da2
be70e21f
3d557533
be9354e5
3b2c902a
bd637f47
bee12966
bdf337dc
3e1dc62e
be108ddf
bdf624e2
3e772776
be40a42d
be4cc4a7
3d6a696a
bea1ea87
bd5580ab
bde7b0a6
3c4bbeaf
3ee01bb8
bf221b86
be6ea8e3
3e32eee6
3d9ea8ad
3ec12ec6
3e8660cd
bd190bd3
bd22c6eb
3dce2989
be9e0f01
bec1412d
3de08803
be888709
beb38ff7
3d222018
bd544862
3dc77bb3
be214f74
3cab35b8
3e1bc41b
be4b6620
3e81f3de
be5908bf
be5c6fb5
be474d47
3e665f63
bd91c4ac
3d8819de
bddbd70c
3e1892fc
3eab1c6f
bd29446e
3c9cefda
3e85276a
be4516d8
3e3730de
3edcbcff
be3009a6
be4a80ee
3de5af64
3e0d067b
be0fc684
bcbd2df7
be0ce507
bde1e93c
3d4e0915
3e00593d
bdc866a7
3dbbd53c
3dbe6044
bde9cefb
3e557ef5
3eba799d
3e3e1515
bd57ccc5
3e0c46b4
bd4e6319
3dbdbf10
bd988344
be290da5
bcc82e01
bb805f95
3e6ada37
3d93afec
3e11be63
be532f59
3b3bd606
3e30f061
bd933494
bd89df64
3ed5658c
3b883c6c
3ce3685f
3e7d1cce
3dd73545
3dc72873
bd776e09
3e5eba94
be0097d1
bd767bc2
bebaad36
be32caa1
bea3f0f9
3e3dc7f2
3db922a7
3c449f6f
3de0282d
bde212d7
bdad91ca
3e25fe9a
be6e029f
be04691c
3e5897eb
bd2b3334
3e480d74
3e1d7285
be0f2ed3
be91d87b
bdc22d02
3db7c32e
3d9f9886
3d297d00
3e82fadb
3df7fe55
bd2ffffd
3e797030
3bc9e8cc
bd0407df
3e1716d6
3e604ebc
be9ad449
3e4ea0d5
bdcfbb4b
3e3e02ee
3e6d1d7a
be142829
3dade9ea
be525830
be08b1c2
3e4ebf41
bdfe4f3f
3dae8d5e
be53392c
bca2fa74
bd9b02f1
bd7eea91
bdd0c0d6
be09315c
3e9a8e97
3e94675f
3d4b146c
be5090ad
be31d08d
3e00c727
3acb1784
be1f6813
3e877236
3cc0034a
bb8b9a13
3e90c522
3bd0ecc8
3e843c68
be2733ea
3d0b0179
be534546
babce54b
bd5e4da5
be8a5bc7
3e1480b8
be85cb35
3d18b092
3d7d7e98
3e0f68e4
be04d88c
bd1c8c14
bcb7692e
3dc2958e
bd0d1c11
bead48ed
3e1cfa7a
3e33f843
3ded7e13
bdc48097
3ddf03b2
bae92b6a
3e81f1e5
bd7ab5d1
be4f4344
be84052f
3e8850d8
3e4858cf
3d44025b
3e4c3009
bba3c0aa
3e50ea98
bd852084
be2f683b
be197a80
3e6f08f2
be463505
3e5e627d
3cb30c9f
3dbc00a6
3dd5e2fd
bec47e30
be159fe1
bcf0ad85
3dc7fc10
bda9c18b
3d40c8e6
3e082e14
3d5e3936
bdd593d9
3e0a88c8
bd934027
3d59241c
3d816457
bd3dda70
3edf0167
be5d9458
3eaaabe8
3e14cb98
3ee97039
3dda2b27
be9064d1
bdaebed1
3d1cb715
bd094584
be0249b5
3ca9e5b8
bd54f702
3eae1b86
3d1829d4
3e76c7c5
bd8cea60
bef7385f
3c32eebf
3db8e762
bc6e586e
3da55cde
bc37a293
3d5e484c
bdee8b9a
3ebda1f5
be85c6f2
3e5b0c23
3cb4e6f5
be59fc95
3e831f31
3e840ac5
3d1583b0
bddfd99e
be134172
be20ad03
3ca1b1f9
3e2bfbaf
bd8bac50
3d89f4cf
be582db5
3e7acf61
bccac123
3e5ef5a6
3d076f0b
be35bedf
3cf5fe7a
beeea537
3d712358
bea03093
3d29d3c7
3e28566a
3e5d79ad
becd8f88
bdadbee1
bd7f5642
bd027723
3e4e960b
3de09c2c
3e0faedc
bc3b279b
bd254e33
3e70d35c
bec8e7ea
be51cb4f
be80a39b
3dccac8c
3dd872bf
3e830c67
3dd8b96e
be13e88f
3e3d2fbf
3dc4a7df
bc34e5b4
3e06bf8e
3e6ca09c
3e68f515
bd4e1086
bdd0aa8c
be2e1f76
3c8000c1
be468c6f
be1088ca
3e0a2d96
3e61c8f0
3dcca0fa
3d5fd3cd
3e2fdf10
bc294abe
3ce78585
be000703
be44fcf8
3db4ab49
3e0d2ece
3cf839aa
3d36a4f7
3e34eadb
bda824c3
3e80a274
3bdb6e84
3e596cba
be1ec5d6
3e1dc4c2
3d4b3df6
be992a2c
3ea24b9f
3ebe9773
3ce5016d
3d23dd30
be916318
beaf0509
be3e6a7c
bd76e08c
3e3e7356
3d8f354f
3e37eb9e
3d59402d
bd5c392c
be1aedc6
bcc6ee72
3ba16bfa
3ddd65c6
3e6d6138
3e8eb9ff
3c9154f7
3db027fe
3e4448e4
3ddad947
bc55e49d
3daea669
bd9c9350
3d4c1776
3d2297b3
3d373cd8
3e15862b
3d65c0af
bcb5e29d
3e881793
3e47c60d
3e202a70
bde5809e
bec2884a
be3ac27b
be4985c7
be741195
3d8b46d1
3e1697d5
be21a07b
3e162b15
bd394638
3e8024db
3e419eca
bda0bf80
be6d6eab
bdaa3f62
3cdb8a20
3d40c8f7
bd807a42
be14bb57
3e7b90ed
3e81faa5
3dbc58db
bd9112f6
3db416b1
3dc9964e
3e93cab5
3dc465b7
3e0d9a8c
be928718
bce4788a
bc70e09c
be24d530
3ed0cbdf
bdef819b
3e8b5682
3ca0877a
3d3f6983
bd6643dd
3e05b983
3d7c1b57
3e4d583b
bdadd841
be1b2033
bea3edc3
3e4da678
3d0fa976
bdab00b5
3e3b8a05
be66d2bd
3eb6d742
3e9074dd
bdbc9eff
3d83a990
be519a9a
3e67a266
be03db3a
bd9dfd16
3e552127
bdf8a959
be660d68
3d9b689e
3dc29919
3e817858
bc31eb3c
be3854a3
bd392ed6
3d76e601
3d2f4473
3c6a85b8
be4ebdcd
3d51af07
3cd1cc71
3d25ebb8
be42fb59
bda1bda2
3d7f105e
3e177661
bca744d7
bdd104b0
3e615fa6
3e5b4de7
3d2e2a9d
3d8f5f65
bb63dada
bf2548d7
bd870995
be83956f
3ecce7e9
be635e45
3ee78689
be8c0295
bed1d45f
3ddd7a8d
be6b2cdd
bd39b706
3d1cab1a
3e352992
bd43d11b
3f044412
3cde4cf3
be78dfcb
3deac2dd
3d727be5
bd05034f
3cdc37ba
be93ff33
bd24a2a0
be4621c8
bdad675f
bdab7f84
3ddf47ba
be8361cf
3e0f83b5
3e3dbd5f
3e8fbbe8
3b8766d0
3e3227d5
bd740bd5
bd75b10b
bde41fb0
3db9aa34
bef58d29
be019af2
bc7bfc81
be949b43
bded064d
bd811052
be782265
bdcaefe6
3f21c6b5
3dc4158e
3ec8c01c
bdce5367
bea394a9
bda28cce
bdb94781
be41d158
3e29f189
3eb7c8dd
be7dd664
3f01ffcd
3e37d651
3e68062c
be33b6c4
bd1ce70a
3db8cf86
3e8d1a13
3e82b844
bd40a1c5
be5ef703
3e49550e
3dde3685
3df3bf5a
3e365a96
bd35c623
be0f9891
bdb38ffd
bd79985a
bd8a6a68
bd2b744c
be31d8f1
bcf66edf
bd36e962
3d9f295f
bbb8d36d
3eb8bde3
bc979dab
b9542962
be579d24
bd849007
3bb8cba0
bd5ba73a
be51f385
3e8351ef
3dd5b3d4
3d84cb16
3e72fa35
3d17947c
3dd7a2e4
bddc87d7
be7ea93f
3c8aa028
beeb443d
3d54109f
bd805766
3e6174ad
3ecb7d4d
be9f3d27
be3b8670
be48f7f0
3dab6f24
bea8154c
3d49894b
be436837
baf1a42a
be6298e8
3ce5c605
3e8a0efe
3ea8ce01
be593515
3dabce5f
bccfe2f7
bce0fa88
3c327e2f
3e139325
bce1f9e8
3da00aa2
bd0c5b0a
3c640f9f
3ea12a5e
be37c203
be4faabb
be15152c
3e0863ad
3d82e3bd
be2bb5e6
3dd12234
bdec6a3e
3e3c2f3a
bc3b504b
3d609eb6
3ddc9ff8
3e4e1024
bd95c3d1
bdbd17f7
bd1c39c6
3d41896c
bddb1315
be1c2575
3d4d9ead
be180470
3e00c37e
be22e6c0
be254c79
3d66aa02
be366559
3d83632b
bd9c4285
be53bcd6
bda773df
be93cb3c
3e97d084
bdf726d6
bc30f497
bdaf18c8
bcb320aa
be196f97
3deb8b44
3dc22d69
3e112324
3e2ad7b2
3dd041ed
3e2f5b85
3d8bef73
bca9d588
be36e053
be79d243
3e0a5936
be8bb9b5
3df23391
3dbbb0c2
bbbcbe46
be31929e
3b098af4
3e23dafb
bee67877
3c5fb568
3e14c8a1
3deb1df1
be128012
3e69b88e
3e03e534
be43a6c7
bdfde7fc
3c895120
be3d0ad3
bdb8b0ec
bcd35e8b
3ea33a31
3d2b5226
be5cbac8
3e3c2ddd
be77f2fa
3e72f5e1
3e5ca7ed
be43bd2c
bdf8849d
3da2b636
bdc49fe0
3e73127d
3d669f17
bd2e12f2
be45514b
3d4a64ba
bbc04c5f
3e9e6510
3c3c9cd6
be279df9
bdea1374
3e01726d
3df5722c
bebc0806
3dad32a1
3da1af1d
bcf45428
bde0d555
be72d1e9
3e31239a
bd222ad7
3d453237
beb0e184
bca5b980
3e0d3736
be632dc5
3dcd8b64
3e406fbf
3d14f554
3caf2f3a
bcbeb6fd
3e7cf515
be8fa531
3debd8b7
3cc4d3a4
be6598e2
3e80b7de
3e990c4c
3c9dc350
bdfd660d
be8c8953
be8be1a2
3e82618c
bda214ed
3e48d73b
bd1f6c5e
bc23780f
bea15c6e
be908f54
3e50b664
be860bbc
bdc32d9f
bdaba638
3c05d3e5
3e607d55
bd104b0b
bdad47f0
3e46b8a0
3c01b156
3e3fafcd
3d241125
3e393310
be039168
3e153761
be4f5e51
3e3c2fcd
3e0bdd2f
be2e230b
be44a764
3dcffa26
bc7b41d8
bcf44cd0
bea5cf77
3d454c82
3db87537
bd208e45
3e53dce1
be949150
3e19a2f7
3e0708b2
3dacb121
bbd40bd8
bc5546b7
bdcd91c4
be3ab0c5
3dab8f5e
be168d3a
3e1ae145
3e2cf30e
bbefff03
3cd27997
3daec128
be9eae19
3e22c817
bdf0244c
3d479af9
3dde4116
3e589d83
3e7f65e2
3e0a29d6
3de33996
bd04b48e
be06280a
3da3c206
3da27fd1
3d2b8b0e
be8351b5
3d7a714d
bd14fdb6
3bc74678
bcfd30f6
be0b5e2c
bcba8f8e
3dc6b83c
bdd4a5dc
3db02087
3d93dcc8
be565a12
3e04dbb5
3e08cd8a
be971ccb
3deed49e
be61735d
3c91004b
bdb6d755
be457218
3e9d35a5
be7eba45
bbd210c7
3db71af7
be4ca352
be8cb61f
3dc80360
3e0d9865
3dd4f9c8
3ea0b97b
3e4ad378
be19787a
3dd3e533
bea94a46
3ddecb2f
3ee15278
bd04127a
be0ca2d3
3e2169bf
be26f306
3dd92c80
bcfdb763
bdd07a27
be864e27
be1279e0
be306b62
bdfc6884
3e8f3036
be271c3f
3dbc2e08
bdb048b5
3e57ec5a
3d803c8e
bdd825a2
be6f25ac
3d8dad2c
3de22fee
bc0c29ad
be1e4dbf
3e54457c
3e642492
3e7fc8fd
bde043a8
3da2d692
3e814e82
bd83506e
3e42a305
3e18019e
3dba83d1
be39ecd5
be2cd4a5
3e8d228c
be3d8ca9
be954bc3
be14497a
3f028bc2
3d0c3d6d
3e178227
3dfbc63a
bdbeba3b
3e72843a
be7e4ac4
bd00a1e8
bdd706df
bdace317
be22cb6f
be7bd63f
be0a4c44
bd6adea1
3e3afaf4
bdf845f7
3ed7fb6f
3d0f6705
be04b44b
3e3337e6
bd3028d6
bdae6c9f
3d75a7ea
be89e32a
3e3e2ad5
bcc1b5f3
be981bd8
bdcf3c32
bc9130b4
3e261a0e
3ef49ca6
be9d0092
3e96795d
bd95d21e
beec5b76
be4a835f
be50affb
3efdcd56
bd1bd385
be422d43
bde90d17
3d14617f
be8e535d
be06dfb7
3e8bccde
be2793e2
3e837fda
3e834b31
3e8cdb06
3db90666
bcb1e476
bd2d9bed
3e469e87
be7abf68
3d2fd0f7
3e14392c
be8b3e8e
3e571d0a
3d49e41e
befcab24
bdb3e91f
3f012f51
bd166a39
bde80b6a
3eb4d4ea
be1741a6
3e85964c
bdab4418
3e2a3865
beabb4b1
3d2a5a7c
3cd91afa
3e17dd53
3e337d88
3da056c2
be2297f5
be920e58
3e3c275c
bdba86b3
bd9cc9bf
3e8dfedc
3ce76922
bd367afe
be25c48f
3daf23d4
bd4ccfe6
bb86e88a
3e67c649
be3b07c6
3d537318
bd7c1902
bd846dfa
bb80f638
be4d2934
3eafb7e3
be21e010
3d713b88
3a8218b7
3db61452
bdee6f9f
bd28dcb4
bcfc8fa5
3e5fa4b2
3db764df
3def6b45
be20ab60
3e8471d3
be779d7a
bc1ea0c9
3d0d843e
3d797884
be457772
bcebace7
bd87a5ef
3e1250d4
be5c1e02
3e83c845
be95fcad
3dbeb808
3ed3ad86
3d8392c0
3ea00fea
3dfc18dc
3d0bbff2
3db54696
bd8e68cd
bda58031
3dc26dfb
bdf2b882
bd4c8ed7
3eb119fd
be24561f
3e6e9ca9
3e803a6a
bd35c1a4
be1d5320
3e8265c6
be112534
b9027214
bda95d52
3dafa9fe
bcee24f8
be3e3e38
be9640dd
bb6b3c99
3dea6ba0
3e87dccf
3e4c52ea
be3c6684
3dacd573
3e29bdea
3ced545e
3e155377
3bf452ab
bd3b0870
be13e2cc
bdff02ad
bcabc65c
3e437d2a
3e735de4
3e3682ce
3d587ce3
3d0509d8
3df9ffd8
3dcdb152
be29ac7c
3e9b29e5
3e83b01f
bd5841f3
3de7c518
bca607a9
bd371481
bd685395
bd0892e9
3e462905
3b7f17a0
bcafb3ab
beac4647
be0d4b51
bebf40b0
bdf275e2
3e29b652
3df4a079
be154281
3e0adb68
3e66668f
3dfcda28
bdba524b
3e09adb3
3d38bead
3e8cdaab
bd43e732
be371c45
3ebf0191
bdd4b72b
3ea08189
bd4d4566
3dd888ae
3d91b77b
bdb1d9b0
3e8ccbc2
3e0c3f95
3eac0726
3ddb3a14
bea774c7
bee3878a
3d512156
3e83644f
3e5e527e
3e0e3d6e
bc7a1827
bdff9cc6
3d4a9c4a
3c980026
be31e5c9
bcc6e1f0
3df0d79a
3d71136f
3e7afa29
be24fae5
3da37be9
3d5e4e66
bd0d2595
be935cd2
3e44c6cf
be983a17
be969d64
beb71a1c
3cac5a66
3f13d3fa
bd32b231
be1862ce
bda863e2
3e2b02b4
bc10df55
3e43a90a
3ca29d97
be3682cb
be47db56
3e3c456d
3e3b5e52
3e471ede
be159097
3ea7f6c6
bef9fe6b
3ce44518
3e47f2c4
3e9a34c5
bf29a8d5
3e92f9a3
bea0faa4
3b06241f
3d211ccd
be3a79f3
3df8ab74
be0fa0bc
3e4529c2
3ea4756e
beac976b
bea6273d
3b4ef17f
be343caa
be20d28f
bd78e3b6
be69d82e
3cdde1e3
3d055dc9
3cf64cf2
3d779ad0
3ecc214f
bcee74e0
3d0b7f02
3d3ada83
3e12e8fe
3e865871
be4c44a0
3ed99a42
bc844278
3dc9e99b
3e345016
bdc98181
be27b2fe
3d7b8303
3efa5980
3db5962d
be73c497
3dd0e4f1
bdc7f4dd
bede2c35
bef004b9
be594e2f
3dc84011
be1075eb
be8ec9bf
3e4f9073
be97273e
3eac15cb
be11b848
bebe4ad9
3ec30ec5
3e9076a0
3e67df43
3dee9d66
be8800b3
3e50128c
bc5ca2a0
3c936a53
be3614a4
3df111af
3d961385
3dd4f592
3e97d732
bd0b169e
bd21a5ef
be0d0d3d
be26f9b7
be2c9072
bd02db19
bde39ac6
be4de8d1
3c3342c8
3c27fe97
bd9da806
be92a97b
be829558
bd05b8b3
bd4f4923
3e84f194
3e937924
bd8b6527
be40deef
be8d6c39
be227537
be32b53c
be82f569
be745a98
bda090a3
beba9ede
bda7d6ad
3e8c5f14
bce4b0d6
be1f72e0
bdfb2d43
bc0b8c9e
be13ba94
be1b3f86
bd7298ac
bc5b079b
3b6bdcd4
bd6ab0bd
3e104a9f
3d979cc2
3df4e981
3e4ea1bf
be4bdda0
3e7654ba
3e2ca9ff
be82ce92
3e349a27
3e03dca0
be6f61c8
be88ff06
3db3084b
bde7999c
3e1bcdc2
bda41baf
bde116c3
be513b8f
bb172d25
bef01a87
3dd99ab0
be2a830d
3d7d1b4c
bdb85be7
3e220a0d
3c2ed88f
3e5c749e
be47cc9f
3cf85140
3dc08788
be74d352
3cb313c4
3ceb5d2a
3e9c9911
3dce02a9
bd9c60ed
3de07e8c
be04e45a
bd7f4a94
3d90ce21
3d9e3795
be0434c5
3e473492
3e5d3f30
3e262c38
be8c3b3f
3e172c21
bd373498
be4686b4
bf1886c7
be01cf02
be8088c7
be476889
3cbf0ee4
bdd01c7b
be45936b
be19e02e
3d9468f9
bded44ad
be8b87ce
3d425e4f
3e46d8fe
be5bcf04
3d0b884e
bbd0b1b1
3e001b41
3e53d0ab
3e8c5cf3
3e861b7b
3cfc1851
be1bff87
bde7ef86
3e1bce8a
3e9a22b0
bd79d79b
3e493c3c
3e6d6a01
3d7e16e4
be340e1f
be921077
bdb91cd1
3d7192c1
baa9de5c
bec9963b
bd471cc0
bbeaaeff
3e13d451
3e1b4149
3d813660
3d6f683d
3e96f21a
3d6f3115
3e499e22
3e09066b
bea489ca
bdd2fada
3e29ff56
3f1db915
3e83da2e
3dfad57f
be500ef4
3e5788ac
3e98623a
be25669f
be9e491d
be06e60b
be718753
bd3efbf3
3dd87a56
3cbc6f05
3c64ab70
3d209907
be74ef18
3e3bbc05
bd4a58c5
3e9cc740
bcb71fc4
3d249812
3e83b213
3e1159fb
be8fb740
beb0dcd7
3ea1e7b2
be8efe50
be2aed28
3e4f921c
3e88006c
3e68416e
beedce74
be76c98e
3e047400
bee17f9d
bebb0a3c
3cb7d5db
be2ff329
3f679263
be1f2ef1
3ca53b17
3cd1f360
3f2a5b2d
be7d6b4b
3ebc4918
be621a86
3d7fecad
be76ec74
3f083b4b
3e7b7053
bd089cb6
be724b10
3ecb0514
3d3c55a5
be2aa264
bddc39d5
3e137f27
be9e42b3
bea5e0d8
be960012
bee7f33f
3e068e91
be89a2be
3dd22f00
bcf5a2e9
3d3593b0
bcb3fb47
3d291470
3e163a41
bd9736cd
be937d41
be2d2a31
be004d35
3e61b817
3d8dc99d
be45449a
ba08f7dd
be2e0fba
bd897243
bde29e27
3dbcbb1d
3d29cc39
3e4fe7ee
3e54d739
bddcaa7a
3e469da8
be475dd0
3d671404
3d8c02e6
ba497c02
bd6ab965
3e69150c
3c22e48c
bdcb2fee
3e815587
be544703
3e72385c
3e386c13
3c75c98a
3c5b5a81
3c5db19a
3d0fabca
3e6941ed
bbc0cfb1
3e1e4956
3ab39451
bda1539c
3e1da5f4
bd3a13be
3c2b25e9
3e536f91
3cfea4f4
3e758590
bbe564ea
3e752925
3de305a5
3d975100
bcc01263
be2ca5a7
bdedd45d
3e31d252
3d7757d8
3dee6287
3dfc0185
3e55ab92
3dbab75f
be18af04
be2e6ddd
bdba5337
3dd4cc8d
3d9d8fb0
be954b69
be1050d5
bee45f68
3e4fead9
3e0d07db
be1defbb
bdea466e
bd3738ba
3e75def2
bd2067d7
be2245db
3eccbfb2
3dcee734
3ddcabaa
be45efb9
be965298
bed2cd21
bd75cc18
3bb72491
be3dd3d7
3d0fff0b
bc39f260
3e774d9f
3c69a79f
bdd4c402
be2a2ef1
3e9b9295
3e4df8cd
3dca57fe
bda95bec
3e4808a0
3cfb8e86
3e6df229
3d3a13ab
bddf967f
bdcb54be
be9ae1bb
be08df13
3d3abfd3
3d3e792e
bd79671e
be1b84b2
3e4fefe2
be9eebd2
3ec44afa
3e216652
be8e2714
bec39fb5
3dce47ac
3e0877e7
3e280251
3e08efcc
bd49d063
bdc69ab7
be0530ea
3d0ea3c8
3e920456
be966936
3da69678
3e3e245b
bdb84e2b
be426b49
bd658725
3da6710f
3ebe89d6
bd3666c1
3e95cb12
3e0a38a8
bdff8b48
bdf83e9b
bd346126
be5d3bd4
bd92ae89
3e26b5a6
be5eb227
3d99e541
be3ec4ed
3bcce43e
be95c645
be15f794
3cd483cd
3e9f754d
be11b04d
3dde8ad8
3e2b7a44
3db89a0d
bd8726f4
bda522e1
be0f6fd4
3e893f39
be1d5202
be78d938
be3bf776
3e1d868a
3bd17c69
3e79d3d3
3dcf3903
3e85e836
bec679da
3b845f8e
3e90a3f9
3d708380
be2d86f7
3e00bf0c
bdba9a2e
3e10fab0
3ebe38d2
3c165432
bd05f25d
3e276273
bcffb267
3e40c2bf
bd4a5caf
be7151d5
3f0be637
3e16b583
bea0a284
3df4cec2
3e984d91
be6d2652
be93baa1
be5f22fd
3cb38d0b
be41c5a9
be16aaf5
3e06998f
bd657800
3dbada5d
3e4fb3a2
3e8dda0a
3db3e79b
3d9806d5
becade64
be895810
3e6a3132
3e05397e
3e452ee9
beb71764
3e2beaf7
3e225c71
be42f0f7
3e9763d1
3dd89ece
3e3a8048
be463c95
bea35c5d
bde9b0e7
3c057ce0
be8177e9
bea053c5
3dfefb9d
3e07165a
3e74ea94
be10bc88
3c00dcac
bd9eb0e4
be68ee79
be0a5cc9
3ca41298
bdc0ba95
bd24869e
3e43b5cb
be881886
3ebfdc0b
be01c241
3e47791e
be2fa24d
3e6322ea
beb09a00
3e7bde88
3e1d492c
be3a0595
3d4c40b9
3d8c669a
3cb73b58
3e995072
be6e17fa
3e561c0f
3dce0707
bebe47ed
bdfe1941
3d70ff19
3c4b97e8
3e140ab2
3dc9e2fb
bdc92921
3e1baf7b
3db01529
bdcb382e
be208b7e
3de79534
3e35e1be
bde348cf
be193a5a
bcb8ae3e
be52a22c
3e34e926
be882d92
be3f2f9f
3dcfece4
be80fe8f
3e6b73b0
3e429a11
3d0cbb84
3de81143
bd6c8c6d
3d183465
3df884fe
3de9a1db
bd764c6e
be193f53
bdc4bd47
3e40c4bc
3ed54d05
3cc279c8
3c91ef8f
3a9f4565
3d5d2abb
be0acbf5
3e6c0d13
bd9ea6ed
3e2e8f27
3e3b17bc
bda36b8f
3d05af5b
be1f06c5
3d93bf8b
3db5ba7a
be013f90
bd873a23
3df7ab6e
bbf6e8d1
3e3a2564
be3fdb64
3e3e3395
3d63c569
3da9b093
3d88a657
3d059f16
3d3f1aee
3e34caf8
3e0feb08
3cf84c73
3dfee7f4
3e4f7c72
3e60797f
bda7cd3f
3ced0953
be2dcf7a
3d9d4273
3e568512
3d695cad
bd9e75ff
be1bf07c
bd8ddccd
3e43fb25
3dbaf457
3d96b9d7
bc90fb1d
3d18eaed
3e8ca43c
be3d7cb8
3e431367
be41432c
3da23847
3d65f34b
bd3bcb8b
3e36cf9d
be81a3ad
bd5e043b
bd535a7b
be37743b
3cda8783
be9fac24
3e81a28c
3d645326
3e12147b
3c3d652d
bc59c5bc
bcb7484c
3e9197ef
be5cc6c6
be140602
be1b5de0
3e8955e1
3dd06ff8
3e68bf92
be66bfe4
3dedbcfb
3dd2dd3a
be65ee07
3dc85ead
bcc1c0f9
bca21c33
bcd098d3
be993e3e
3cea4004
bd8a74ea
3e6dc474
bd15c525
3de8637b
3e5680ba
bd858316
3c119a2f
3e6f6bb2
3dcc63bf
3e4cedfb
be83378e
3de86e74
3e22f247
be1434e6
3e1dc47e
bd1f117b
bd87fc49
bdf6b232
3e05d530
bb380f66
bc8aa864
bc9127ca
3e300121
be383abe
3df7dd58
be0d89b3
3dccd7a9
3dd2caf3
be3b926d
3e2cb6f7
bdf266fa
3de41254
3e852be9
bdb3a4f2
3d930feb
bdeec20f
3d902644
3cf5a24c
bde68cca
3d5dbf4d
3e2d6b9e
3e834104
bd9ec0ec
bd6257d5
3dbb41cf
bdf0dfeb
3e8920e4
be67f65d
bd432678
3e52e70a
3e43c819
3d4be266
3c77085e
3dbc6ca5
3e0bf764
be68d638
3e4b3f2f
bd634984
3cadda93
bde84bf1
3c193964
bc97ca60
3d1a55cb
3e8e026e
3e09a760
be9d70b4
bcbfe48a
3e578c8b
bd84cd12
3e26e74c
bc530cbd
3c8782dc
3e20ddfd
be253644
3db1b4ee
3b62d136
3dc03c4e
bd8b3dcc
3ddbc464
bcc61f4b
bddbece3
3ddb1dcf
3d928a79
3ce7577c
3d9da78e
bde5e115
bc6fd73c
be0e79b6
3d900979
be36df1a
3d4f71ae
be27cd77
bdef6c92
3dcde63c
3e29939b
3dcf65b6
bd3b8a28
bdcf40ea
bd6ad3bb
3e17be83
3d473fba
3de731d3
bdf5b5b2
bdd4bf78
3d94a71c
bd8207c5
bd1bd8bc
bdfcaf6e
bdeff72e
3e11f156
3df4ccb8
bd7580b5
be0bcfa5
be1fe097
3e0add61
3d99dd92
bddfe031
3e1290f6
bd3e09a2
3e1cf493
bdce894b
3d63f459
bdb77030
b964157d
3e0d819f
bd2a479b
be07bc0b
bd55ae4c
3d13da53
bd8fb75c
3e3006c9
bdb580cb
3e13afef
be11c643
3e17c101
3e26945a
bc4cedfa
3dd7d8b2
3d872a35
bd7f341a
3de379c9
be066583
bd825a17
be216a54
3db8e5c3
bdf235d8
be13c5f3
3db6e9af
bd6b9f67
be82ae34
bd086049
3d35c5f9
be6f10b7
3e0162dd
be97d585
3db32b33
bd9a88bc
be43690b
beb643b9
be1dd970
3e095861
be5d5a96
3e9c2716
bcdaf889
3d336c91
bd4c3014
3e03d2ac
3d53cb4f
3c959275
3da65b67
3d3619c0
be97a557
3e6ae2ec
be7594d2
bdbc9e86
3e332cec
3e0020bc
3e7aff40
3c485be5
bd311d88
3e8851b3
be88f963
bdf42dd3
bd7f0428
3df54b2c
3c0b7786
bea97aa3
be9b574d
3e18bd63
bd26a00a
3c282ece
bccda51f
3d382da8
bcde8d82
3e50857b
3d759c9e
be8be354
be057779
3ce4bbf1
3ea76864
bd72cbc2
bc8f687c
be3fbccf
3df2c21e
3c853ed8
3e47a8b5
3e074f0e
3ea27b91
3d660014
3ca896c2
bdefa212
bdfa42fa
3f200666
3e0761ff
3e95b240
bda0684d
3e1f8b03
be0896f4
be479ddf
3d1de036
bec919c4
beb647be
be8de308
3ebaed60
3b1db8ac
3dcc573a
bdeccfad
bcad1602
bd0c103b
be5f7d53
3eaa4ab9
badc45c9
3de26c0b
3de507f2
bd272b14
3d5efb97
3e7b4af8
3ebce47d
befccfa5
3d001015
3dfdc04f
3ebbfd99
bd0e1e92
be68ca6f
be3a599d
3e854968
bf0f7723
3e00d125
3e494996
bedd4164
3f107277
bd70cff1
3e502040
be3ab1d2
3f1ee56c
be395ccc
3c5fd560
bead405f
3dd9ca51
bf00453f
3ec8b7e0
3ebb342c
3e748bbe
3d856b3b
b9032379
bdbb626f
bc3f9115
bea7e756
3e1c8108
be55dcbb
beedd75e
bd941491
bf5ce4b9
3ea99640
beaaa3b3
3e2e739d
3cc871ee
3ea15f9b
bede1ede
3c3ce1a3
3e2b20f1
bdb79a96
3e3c5242
3e6d3028
3d0c4814
3ebc3654
bcf95095
bd818884
be57f0c8
3e69bfec
bdbc2b26
3e3a43d2
3d2347d3
3e3c4863
be1e535b
3e80cb49
3d4e9aa4
bc16a307
3d8157cc
3e8eb28a
3ea8c6f1
bd177dbb
bebb9868
be369946
be5202a0
be3ff981
3eacb173
3e856f32
be38169b
3e3d0e6b
3e9763bd
3e961e09
3e447002
3e3e902a
bea7a1d3
3e7fdfee
be6cc701
bdc08919
bd890211
3e1ad953
3e070791
be405515
be4b20a2
be0158fa
bda371c1
bd64d78a
be093924
be86428a
bd1f2d83
bd80e336
3d5d47e6
be654792
bbb9881a
3d59f684
bd381d79
be335736
bceed3af
be805d65
bd8368d8
be60e7de
be9f58a3
3e106551
be70a667
bd4ffd8a
be416d71
be226dc2
bd9b8a06
bc90c9ac
3df170af
3e834645
3e189eef
bedcd038
be88825c
bdba7c58
be8ee9cc
3dab723d
3d5f19a1
3db5ad39
3dbaac5c
3e35720d
3e0edc71
3e26b8d1
be244451
3d043932
3df4dd83
bdb6bd00
beaac397
3b645e64
be63e587
be3845e3
3e18f720
3e0151fb
3e5e38f6
be166716
3de243aa
be0c0c4e
bd64eba8
3c16ed92
3ceafbb2
bdaef746
bd7cc5f8
be6bbb13
bd8148eb
3dec44b7
bca98470
bcca53fc
3e1e9850
bd3cd2ee
3e35b48a
3d6975bf
3e27571f
3cba37b6
3d6a2b4f
3da412f0
3e320f89
bdcb0757
3e250429
bdcc95bf
3e4ad82c
be6b39cf
be8ff9c0
3d41f9ba
bd7437da
3e0d7887
be8cabe4
3e4f33b6
be9cb6c6
bc3a2560
bdb18094
3f22ecba
3e8aed06
bf15ac9a
3e073811
be892458
be226333
beac3832
3e96eb54
3d539a68
3d89f366
3b334f72
3db0c425
3d760ecf
3b9b27c2
3f302b21
3e1ec4c2
3d5ac03f
be00d2d8
be9ba4c6
3e219b3c
3f24d619
be9a8988
be22bc32
3f1a1dcc
bd696cdb
bdf10822
be4cab9c
be53d190
bdf96418
bb60adbb
bf01f34f
be21ff5d
3f1eb40c
3e3137d7
3db286b6
be367ae5
3eda3c96
bce42a3d
bec297ce
bd786d9c
bd24a9fe
3f1b014f
3d1a95dc
be44a1bb
3e7c3f16
3f0a8f1a
bda650f8
be3321b2
bde82a5e
bd785d22
beb022dd
bd83577d
bde74213
3e34374c
bebd325c
3e4a11db
3df3158e
3e89cb29
bdedb62a
be3a669e
bb413d0f
3d7280e3
3d6a0598
3e7d9f10
be72b825
be8ab170
3ed7a956
3e25fbb1
bda1fb3b
3e0524ab
be8487a1
bcd89cbe
3da66763
be6ce765
3a660101
3de5a9f0
3dbbb087
3e030265
3d84a204
be67d306
be2e1e8a
be3fbaf1
3d567799
3e28ea22
beb2e8c3
3d9ffbd7
bda2a761
be8de8f4
be6585a1
3bd6f9a2
3db68a37
3e40d6e4
3cf1fa62
be592de8
bda68c33
be4db241
be72100d
3e2d16c3
3d8be0ce
3de4b3d3
3eb35961
bdd2affa
3e9660dd
be7fa927
bdff6f15
bde63a40
bdef248b
3ddd177c
3e07bd3b
3d321d39
3e02cf1d
bd377e9e
3dffa95e
bddf2743
bdf868ff
3e02e22c
be60859e
3bb400a3
bdc591b5
bda7d9d6
be0ff659
be6da101
bd88a0c7
3b9d84c6
3e05e919
be52821f
be2912b0
be2995f7
3e581262
3dde79a2
be767de2
bebcc848
3d1d2077
3db5fbe3
3d1c2266
be33078f
3e0ca8a1
3dd24e50
3e393c33
be654483
3d902704
3e009c47
3d2ce10f
3d5a679e
3e0e1148
be2fe504
3d38a688
3e8deff3
3e25a841
be255856
bee624d0
bd630b24
be30d965
3ea7a821
3e46f7cd
3dc4ac80
be2814c8
3d44dcce
3d0c8f57
be0a8605
be333dff
be92dddf
bd10e4fe
3e1dd579
3cb0b279
bd121a60
3e289f7a
3df9f597
3d1b0386
bdcdd749
3d722e64
bde5cbbc
3e1395a4
3de5bb89
be073553
bd8a3a25
3e22bce3
3df0d7f8
3e8a74ea
3eac4093
3db0d13e
3e6518ea
3e349647
3e862cd9
3d8c442d
be1b43e0
bea965a0
be1f3628
bd3cc41c
3e6808b0
3d947f9f
be168169
3e7cce4d
bea9e090
3ccaecc8
bd522733
beecda8a
3eb28f33
bde79b6f
3e5bfaf1
3e4e147d
3d505b91
be68b11c
bd98135e
3dc20991
3da0b8a1
bc6d752e
3e3b2a08
3dc8eb84
bdfbde2e
3d4c0589
3e9c7fbc
3e4272ef
bf072b4c
3dd9d3b5
3df2b724
3e01ab94
3e79fb64
3e8b190c
3de35757
bd21b73d
bf02c0fb
3d8ea86b
3e07be39
be822970
3e3e0dea
3d674ba5
be3037ac
bdc2fa4d
bdfd8781
bcde4ef5
be3161d0
3e7def24
be573735
bd61cc14
be23a7f8
be008b9f
be40335d
3ee3e537
3e211a99
3ed0bc69
3edc0e31
be707db8
3ebf92e5
bdd72fd3
3d514674
be6ae13c
becd6d6b
bd09519e
be2f93ff
3e5a3b1a
3dd18fce
3db9a3ea
3e1bb070
3dac1d5b
3e8c84fd
3d4d81ce
bdc93213
bd32093a
bdf9b8f6
3ea20860
3e125301
bd862a94
bdd4bd37
be25db28
bd034044
be78c971
3e0120ba
be0b4713
bc525aa3
3d8e3a3e
3d512f42
bdbe7e8e
bda0ced4
be1bf799
bde1e2e0
bda27a34
bd1bd3a6
bbffd806
be840aed
3e479604
bdd4fb39
3daee584
be81aa72
3e8b9fc9
be07f267
3b772b2e
be332464
bebe5696
3d9ce983
3e0e4df1
3db0f4c3
3e0bd8c8
bd763078
3df4da4a
bde95e68
be6105a2
be8fcd0f
bc847546
3d61438d
bd3c1ae7
bd443a14
3df34522
3df04472
bea568ac
3d739950
bd3697a4
3e145024
be08b7ab
3e804a0a
3d452cf3
3e54431c
bdc20ee4
bcd7e1f5
bec9e3d7
3e2f1b9d
be489bca
bd958b0e
bdffa260
bee5984b
3d7193a0
bd90ba8e
bd878f4a
be5b8c8c
3d92a3c9
bd7455cc
bd417696
3dbd12f7
3e4a2bc3
3d9cc1bd
3e768259
3dc5dd8d
3e36201a
bd97609b
bd7ce162
3e58b48f
3e5ad880
be3be5f7
bd2ac1f2
3dc3f95f
be536383
be486917
3d5d0382
3dab26cd
be66a58d
be6b6a78
bdd96715
be7c7200
3c04ca8c
bded8bf2
be286c26
3d22458b
be10ff0f
be85b174
3d108dd4
bdfc7619
3e12efb8
be200b4b
3e354f51
3e50555d
3e52c2ae
3ebc7ecf
3d82d289
bca983d6
3dd7b21e
3e806ce0
3d508b9d
3d821598
3e0e570e
3c081ab7
bdfd2490
3e33593c
bdaabcd6
3c99d4d9
bdd954e5
be975373
3dda794a
3d020ec9
3e2b36dd
3eab05a8
3c1cc988
3e62510f
be9c268b
3e404bcb
bca83fbb
bd19678b
ba27b4db
be8f670f
bdd54c36
be6a38b9
3e805033
bd4f3771
bec78699
be333ff3
bd984e64
3d7a169f
bd299d9d
3e46d7cf
3e20c0c0
bd734a2f
3e08c27a
bd862142
be82000e
3d31dd6b
3e5b7c3a
bdf33fa8
3e3c996b
3dc73e6f
3e5d9a4f
3e1deaa1
be897d0e
3d8f63d2
3e7eeedf
be8680a7
3e91d24a
be05b5f0
3dd84827
3e553207
be0ba5f2
3bf55b9e
3d65fa36
3e54acf7
be4fcc09
be399cf4
be4eb2ef
be32b308
be925d47
3ea19cd5
3d6a6874
3e3bb520
bddd048a
3d6500dc
beb77c73
be7a84d1
bc1c5db3
be2371a1
bd6c6e32
be70e305
3d0e35ba
3c8e0cf4
3e2c2523
be0c02ff
3d04510d
bea68ab2
bd2f8a06
bce1e2eb
be31d936
3cef2e35
3e466394
3e08031a
be4fbd1a
bd31b383
3c870902
be1ff302
bddf3de2
be99fa92
3e194cab
3e7f546b
bd278ea1
bd683165
3e2af4b3
3dce9a57
3dc65d6b
3e0c53dd
3d5c7ae0
be3c406c
3d236aba
bdf50f18
beb09dd8
be6a69c3
beaae0dc
3e322ebd
bd9da3ca
be41455b
3e5e6371
3e60c0a1
3e66d0a1
bc8a0f10
3a09b6d2
bdafd3bb
bdbe6afe
bd945e8e
3f0ad64b
be4cfa82
3c8e7e72
be7eab87
3dccf935
3e0c1e74
3df30fe5
bb0942c4
3d2865d7
3e7161f3
3d2d3d47
bdfae338
be16d764
bdd0a6fe
bef158ea
3e660dee
bdc9a2ca
3e7446be
3d58567b
3e827c7b
bda35ed2
bdd9ba57
be7bb62d
beac3266
3e2628d1
bca65037
3e42ddbf
b90c1e98
bcedb3dc
3d1d1164
be8c861f
3e63f26a
3df52fb6
be6dc3a7
3e2c77c2
be2d8ce2
3e3f4414
be6cd13c
3db1b379
bdd7f2dc
bdb6ec20
3eabc1f0
3e6adc22
bbb366d3
3d65b5b0
be20a410
3e8c7e74
3d1792fe
bcb19543
be8f8e61
be012048
be03e9c3
3cac9e95
bec892f4
bd5f38fa
3e85e7dd
3e9b1cab
bea828b7
3e6f5026
be018cd9
bd3c7a80
bd4c14df
be76bb4f
bcdcb998
3d218727
be0e3824
bd953b3b
bda70457
bda38a2e
3ea5a127
3d0f5396
bd885270
bc7ff247
bd977b9d
3ebece60
3dcdb0ec
be9f50be
3b6b094b
be60f6de
bc092511
3ba822bf
bd2b5980
befcd483
3e04731b
bc646c0c
be90e2a1
be8a20f6
bc1d3566
be92aec4
3e743837
3cd2422d
3c11b2b7
3e83104c
3e230f79
bdb81512
bd63535f
be3fdb5a
3d7dbced
3dada28d
3e2be39d
3d8415ea
3ae7768d
bd8179b6
bd99d28a
3c2b484b
be1c29ec
3e21a9a7
bea66255
3db6ba9e
bd526c10
bdf342ab
3cb3ee40
3c3532e9
be829f22
bde5a1e1
bdf9265a
3dc4d17a
bba9c94f
be6368a9
be5e4d7c
3d321bba
3e190e13
3e7645ed
3dfdfea6
bd9dd700
bd94067a
be3941ec
3e69f39e
3e73a528
3d167d3c
3dc1ca9a
be23b8f4
bd5b0c6a
3e98aa90
3c4b77fd
bd1f659c
be6634fb
3eaa7c5c
3de3a9c0
beb0e91e
bd8fb364
3d26846d
bd5e4c2a
bda48c34
be1fe493
bc83ad30
3e271e5b
bd876368
bc489e20
bd4a3396
be81c70e
beb5559b
3c636504
bdd6a2da
3e00ac13
3e0b1a67
bdf3beba
3d100e4b
3dc9d976
3db2d63f
3e05b5c5
bd2da8ae
3c323345
be17c48f
3d9e4ef3
3d1eeae5
be240709
bdb7c224
be405df5
be073217
3d5eea55
3d096b1e
3bb1689c
be794078
3e0744c0
3d908620
bbd550d7
3de38d0a
bdb5ad38
3e8bad94
3e4d9709
3db38d5c
bdb808e0
bdebc5f5
be3f9f10
bdfec8ad
3c85ada1
3e637889
3e6d6fa4
bd1370b9
be14d748
bda1cf15
3dcfe31e
3e4a4a04
3de3dce5
bdaa15b9
3e3ebc8d
be49ea2b
be018d98
3d9a7091
bdc7431b
3db06619
3e601a04
3e1f6bf5
be06f44a
3e0bb91a
3ddda0a8
be29a1e2
3dcb3703
ba69ad92
bbb89488
bcc21a24
bce15c9b
3d96628e
bb214602
3e3d5d96
3de7443c
3d4e043c
3dc5504d
3cbc1a44
be20ffa0
bc80a97b
be1a7808
bd8829c5
3df4ad27
be1a76ba
be37f09f
3e280e33
3e5c25f0
bc0e4a4c
3e42dc04
be6f166a
3e498185
3daecc27
3e61406e
3dc09e93
3e20b958
3e3b7817
be4e2dfe
be073eee
3de5cce5
3d2fda62
3e5f9a02
bd97da6e
3d42eb76
3be0199f
3cf28884
3d52c160
3e42c8f9
be70474c
3e7131b8
bdf27048
bcefd3d2
be6473ea
bdba466c
be3459c0
bdf54eda
3ddee277
3e442081
3e8631db
3e01b001
3da8d81d
beb0a111
3af707c1
be77ee56
bdad29cf
3d8db865
3de06b4c
3c160646
3e8c586a
be281854
3e2d8384
bd57e65a
3e7e6ad8
be3dae9e
bcff81f4
3e0030d9
3ce316f7
beba66b1
3e1883b7
3dce53d0
bda2e2a0
3cfe7fab
be928558
3e2c9f55
3e639239
be29bd36
3d282233
3e146578
bdce3ecf
bdd6e891
3e1868fd
bed3bd47
3e1d86b5
bd39aa13
be51a5e9
be1225fb
bd6cb2ac
be194294
be0af63e
3e5778ee
bd56dbac
3c2bc738
3d947a23
be39bcab
3df6d600
3d88cd56
bdd5e426
be06385a
bd6241c4
be1a4c41
3ccc9300
bdd102b1
3e8cf01f
3d0c03de
3e2380b2
be231562
be081cc1
3e3c311f
3d154beb
bdd74dae
bd1cda4c
3d853450
3ba1b505
3da7e72d
bd0610ad
3e12eee7
3db10270
bdb92dec
be0bc780
be6b8cff
3e905bb0
3dedbda7
bccd5ad4
3eb848ce
3d589b7d
3e3bb1c6
3c507f86
bd446ec2
3d9fa8f4
bc91b68d
3e0641a7
3d859467
bc042dc2
3e2f7f65
3e65a530
be259e4b
3e0b30ee
bc57c489
bdb8e32e
3d78f1ae
be6ad8c5
3e292dfe
be15a12a
bc889b8b
3de8fb19
3e1b01b8
be56ddf6
3e0e1289
3de943af
bb67ff89
bec952f6
bd0cc548
3deb59c7
3eba9703
bc137d4b
3df3e45a
be0f7bfa
3e17da69
bd1e4fb2
3df8185b
bd038a68
3ddc3ef5
bdc9e2b0
be1a66c0
be079c60
bd97ba5b
3c07949c
3cc6676b
bea78733
3e426c90
bcfaf85e
bdfab96f
3bced5cb
3d1b10d2
3da1c42d
bd93ee6b
3d26e033
bddce2cd
bdc83986
3c9213d5
3da429d6
3dbccab9
3d07fed1
3e454791
3e9b500c
3e75cec0
3dc790d9
bd9a1062
be582a57
3d0c1d98
bd7f1b21
3e887181
bec146d9
be22826c
bc07b49d
3dc9c4d3
be1f58c4
3e06daca
3d086ac9
be48fe8d
3ea028e6
bdb72f9a
be1bffaa
3e01927e
3e019c29
3e82bc35
3e374768
bd921924
bd974a5b
3dfec03d
bd35beda
bdfbbc26
bd8b8029
3de14092
3e5b8126
bdb7b037
3d98331c
bd887a14
be6af0ad
be6354ee
bd5dcec0
3e054eb4
3defc8fa
bdcf2c7c
be0d49d0
3ef00421
bb170843
3c0dc77c
bedfa688
be7aa873
3d9d12c1
bea43b5c
bc880d64
bcc2dd43
bbad9eeb
3eae0486
3c887a50
be31a37a
be3e804e
3e3fe60e
be037c9d
be97609a
be3af843
bb2753d2
3ed41b67
bda1c584
be5f9f2a
3dadbb58
3e28b6a0
3e963f3f
3e3e094a
bda12025
be88c226
3bc64684
bdc41a41
3e826bb6
be609cda
bde99fe3
be393194
3ecef0b1
bcd5977e
be8b6d73
3e2ed2b9
3db87d09
3e8b792f
bdb78511
be45a006
3dd0abff
3e097c33
3dc9d2b4
3e7ef5f6
3e52f172
3cc06969
3d1851f2
3d976e88
3e38b38c
3d516ef0
bd71b4e6
3de27750
3e06ee44
3e1236c3
3da9f07c
be21c74f
3da6e2d1
be33ab79
be58cc49
3e703637
bd598d1b
be32f1af
3e63e344
3e142381
be3f4abf
bee418b6
bda19dc9
bdba49a8
3af7b913
3cdf8ac2
be15e841
3e123b56
3e0ec1be
3e325d08
3dbf36fe
3de6665f
3e07f941
3e1cfd87
bca4fffb
3cb8cbc2
3e5b9500
3e20c13a
bc70d18a
3db87b1d
3e6106f1
3dfc6680
3daebf99
be6f888e
3e193c58
3df97ce9
be6c6865
bd9497d6
3e0718d1
3d828e91
be5e3d28
be7859a9
3dbdac85
bb9c96b9
3d442452
3dbd7651
bd7060a7
3e0c66af
bb940ce9
be2de68d
3df32368
be0bd075
bcd9fe86
3dab3d43
3e0835ec
be18088a
3dad8a8d
bdd834d7
3d42d59f
3e396911
bd80931d
3e1bdd36
be8e6c4d
3e1af02a
3ddc1fbe
be3e4446
bdee5f8d
bd34411f
bd85ead1
3c10a6dd
bd9bd403
3dfed509
bdde53a2
be0d8475
3e679df2
3dacbae8
3d8b8a1c
bd613655
3d3562a6
bc91f7e2
3cc380c4
bdeec609
bdea7499
bdefa400
be1de022
3d01f2ad
3d86cc49
bdaad873
3dcefeaf
3e74318c
3de71695
3e2616ab
3e8e96bc
be21e6b6
3d6a1bf7
be38d1cd
3db10b22
bd7cf44f
be2817d1
bde7bba0
3ea476ff
3e6f12c2
bd6837b4
3e3190d3
bd74e80e
3e0450bd
3e3ea084
3d3b8924
3d569b42
3df9d148
be8d39d4
be0968c2
be0e7850
be76415d
bcb6bea9
bd962bd4
3e784502
be7939e7
bcbbfb65
be262d9d
3d433707
bc4ca2ec
3dc9a09f
3dc56152
bd9b8b85
bdd94c93
be02a804
3d2e0c81
3e296ecb
3e48d084
be390313
3be4c0e8
be35062a
3dec12e5
bd9102dc
bea29816
bdafff8a
3e2303f6
3dde3297
bc6f05a6
be257e50
be64c436
3df75611
bdcc84e0
be06e52f
3d63625a
3e2c5dd8
be0d1d3f
3e3a75aa
bddcd10f
bb5c3904
3e16728a
3d4a35d3
3d6bd161
3d12580e
3e4a66b7
3d9bb2a8
3e57348e
3e0b16d9
be22a216
bd54c3d9
3e0ae0e4
bdae3d8e
be264c22
3df32bdb
3e7b354d
be94cf63
be026944
bc60c7d2
3de1d149
3d44c0e1
3c9601b4
3e7f0daf
3dce3639
3e8dabc0
bda86d4f
3d2447ef
3e7103bd
bec416b9
3e848eff
3b996a62
bd5bce5b
3e16d53c
be1ae6c0
bea78699
be5b0eff
beb8ca56
3e392be6
be97b3c5
3e72c32e
bd0a26d7
beaf8cfe
bf1b563e
3d1c04ad
3e989598
bd856de5
bd891682
be851a14
bbfc4f2b
be8bfa4d
b980ba2b
be4009f0
3e3b5ba3
3cf56518
3e2dd0d8
3ea2150d
bd294496
3f03dde4
3e901817
3d61f146
3dea4f4a
3dd6cd57
bf27cb8e
3da54d70
be5fc3f2
3e22e116
be855090
3eec4098
3e12160f
be9fd079
3ee967f5
be818dc6
beee9f8a
bd88d438
bdf0444c
3e1e0454
3e8c7928
bed85234
bcefa65c
bea9c784
3ebc8b22
be01396c
3e2297c8
be59c281
bd5daf2b
3f15b3fd
3e4697a5
3d6f1bff
3e2fbcc2
3e47a328
3ceea6b5
be6a8d4b
be36e81e
3d3bf8c0
bc886913
be9a14d2
3e032fc5
bd98cce4
3e83590d
be649841
3e24ab18
3e299250
bd95f220
3d34032a
3d7a79e0
3c760a0d
3a445048
3de20366
bd5742d6
bda2f406
3e199535
3d8e6d56
3ddb1d81
3e477469
3e233411
be0fefd6
3e93d9af
3d8fad71
be83096f
3d19f301
bdff8eff
3dd1aa2b
3e19f173
bd0c0348
bda7e73f
3e1cb70c
3e040ee9
3dcec73f
3e06b7e3
3e941999
3bb42f31
bcb6d6c3
3df6d1a4
bcc76bc8
bb087ce8
3ce82323
bd4f1091
bda92021
3e2dba3d
bca9c124
be517ed7
be5014c2
3d5990ac
3c593915
3e0f42c9
be1d8731
3e378092
be87df31
bb2ebae9
bd20f2b9
3ed1ca60
bec58275
3cdd5d3a
bdd680da
bc438a85
3d1573c5
3c081c51
3e1f5226
be1cbadc
bdc8b000
3e5a3623
be3128cd
3eaa1a25
be391ae9
3d6c9448
3e936ddf
be04107c
bde2a511
bdd6e288
3cf4bf4c
bdb07693
beab7945
be48dc67
be2b3ab6
3e409d03
3d759967
be191fbf
3e864ada
be8ae7ed
be371286
3e8d39e7
bca01a4d
3ec009b3
3ddadd08
3eba0e45
3e73d6b6
3e27843a
be3fa3cb
bbfc1e88
bd18c7fc
3da7838e
be8605c5
3e6a95f5
bda31345
3b642393
3e4e178a
3ea4e1a9
be09ce39
3e8a0e86
3e060cd7
bd44a2f8
be272b1b
bea33a4c
bd74027a
be2baad1
bdc52bcb
3d2fca2a
3e288057
be0beade
3e844c6b
3e30ecfa
bd051fc1
be415f37
3d994eaf
3df3a74c
3e6367e1
3e890a0f
bc5d9dcc
bd7ebfdd
3e65b89c
beb61a7d
3e571ca6
3be15ade
3db6ad97
bd2571a8
be83dead
3e7d7603
3e32fa5f
bda3a58f
3dd86986
bec75caa
bdf08184
bd279be3
bd8d552a
beae5308
be148c80
3e9d84f1
bda05047
3dbf7966
bebd8f43
3b38fdf0
be73a7dd
3eb1122f
be89e407
3e827003
bd389b64
be7b6689
3d574df3
3e144f11
3e7f1b3a
3ecee5e8
3ee22d80
3e88eaca
bd600655
be38be99
3e910fe4
be1b6645
3de04d5d
be7b86b5
3eaee268
bcb42af1
be20a2b0
3dd481d6
3d9d8346
be61c5e8
be1a6984
3dce4154
3e1e4b71
be1be828
bea80a87
3e67ba1e
bd542ca4
3eb6173f
be01a1c5
be1e789f
bd8b5bd6
3dcd761a
3e7b8b21
3d81fb82
bef63155
3e91f539
be98f0bf
bdedc1f1
3d304cb1
be1fdd53
3d0be033
3df69be0
be5d0317
bec3fbbc
3d5e9980
be611712
3e90b0bc
be7476a6
bdafba3d
bcfe488b
3da722c0
be34ffa5
bdfe742a
be866c9f
3e98c130
3eba702e
bdee6d2c
3dbdaaa9
3d9469b3
3ebd0d6c
3e28098a
be422aa2
3e7f1486
3ea927f3
3e3a6ad2
be787f86
3dd8173f
3e9ee95d
3e2fc423
beadb120
be94119e
3d75bb8d
3cc2fa84
bda1d825
bee0f96c
3c5565fe
bd97261b
be301135
be861844
3de87ca9
be02fb8b
3e7e6ec4
be13c4d1
bf02b86f
be54fe66
3dc60c4c
3d259178
3e605c57
3b59a83d
bd8ec4b9
3e3cdb66
3d18383e
be39f117
3ca2ef48
3c312cd8
3d93fdf2
3e8b76b7
3e7d65f2
bdb11623
be4a99f4
3cec5072
3e0aa8e4
ba492dba
be152521
3da60989
3e33d187
3c467ae6
3d16fc86
bea42760
3de86831
3dfbf305
3dd0735c
bde6b977
bd9c3a1f
be09f7b8
bd95db9d
3d0eff2f
bde9cf7f
bdeb032b
3e7c4892
bca017f2
3c255396
3d4e78e3
3dd7b4cd
3e90d467
3cc241e1
3e99fc02
be6e88ab
be86c08d
3b5f6de5
3dd76843
3e24b7ed
3e4b86b6
3d0097a1
3e0c66dc
bdf336c1
be89e6a8
3e4a7273
3da25958
bd3fd2dd
bda00bf6
be097210
be3a7aad
be297ef9
bdf6fc17
bc780c1a
bd5df67a
3dd6822e
bd8060e5
bd831c4e
3c38b8ea
3e0df8c5
3e1c2956
bde1f460
bd2b8426
3e665539
bc8b9ca1
3db5cfe7
bdf90261
3e6ecdaa
3db2539d
3e8c6cbd
be4263de
3b8de113
3e00fd35
3e6956d9
bd2b9340
bdbe8d91
3dd3b09b
bdd79e22
bd8315d1
be6c75ed
bd349f73
be3dbdb9
3e5f0c9b
3d9ab8b6
be55bdf4
bdb2ada3
3dbc81d4
3e18dce4
be81924b
3e4139a9
3e4be1b0
be80df10
be26b9ea
3ba6c905
3e2cb5cc
3ee9bd08
be093500
bdfdf9ee
3d8abe93
bdce66d4
3e4fa919
be811202
3bf32ed0
3d41e711
3e191df0
be3fd444
bce77062
3eb48320
3e21d2d6
be45dc0b
be01ddbc
3e40b80f
be2e3fb3
3d2f3a4d
be4ecd75
3c3468e6
3de356e4
be808f58
be0269ac
bd84d41a
3d9c17eb
bd44d969
bdc017ec
3c59146f
3dd3c2c2
3c5cad61
bd482272
bd2875f4
3d3c7f0b
bcd630a2
3e8f61c0
bdfd1ea6
bd0bf151
bda9c3e6
3e76d95f
3e4ac064
3d4a4259
3d5eee5f
3eb31967
3d54474a
3edb9d84
3da285c5
be81ef67
be2ce35c
bdf0ceca
bccc2883
bdf5b53c
3dc925e3
bdca0fe3
bd4d8532
3d9f325e
3e345f9b
be442956
3e3dd29f
bdc7863e
3d18e3f3
bd16867c
bd031dad
3e1c99c9
3e1c6728
bcfffc0f
be351f7b
be9f0bd6
be6d65ae
3c86ec30
be040852
bdb0aec1
3eabadb4
3de63fa0
3e4e9b10
3d58fd78
be9dc487
3e984a78
3d9161a5
bd8ecb42
3cce72c5
3e6d22a6
bd7c9ba9
bb9453a4
3daf29f9
3d722e0a
3d8b6ec6
3bd4fab2
3e37386f
bd87becf
beb057cc
bd4097ab
3e2bc06d
bdf647d5
becf2920
be455ada
3ca56c1e
beddb47b
bea91b09
3d53940b
beaf073a
bb1220ee
be870845
be553f97
3e414566
3e96a630
be27a2b1
bd364d36
bdbc4b34
3d9091e1
3e8f4cf3
be44a827
3e12a46e
be8696b2
3c5942aa
3e42751c
3d87e7b7
3e312336
be604cb2
3de110ed
3d17cd99
3e27ebb9
3e53ac33
be51546a
3e4978ad
bda0b170
bd09101e
3d8b1318
be88d46e
3d10a9c9
3e586556
be5a2c36
3e2a5b38
bd596145
bd165327
bdb750d2
3d37296c
be3d5a77
3e3ba964
bca26cd3
be26c021
bccaadf3
3d405b7b
bacbe51a
3ec720f0
bec8d026
3dad4d90
3d9b3d6c
bdf70e23
bd414065
3e230689
3e1f13da
3dfbab1d
3e4e8af6
be212ffc
bdb97a7a
be8dac84
bd2197da
be41fedf
3c8ebaf9
3c61e557
3d2e63ec
3d4c10bf
3d127c48
bdc264e8
be36fe29
3ecbff45
bbcb268a
3ed4543b
bf19e932
3f1044e9
3e9db57b
bda1929b
3dc3daaf
be2efc22
bd8a3613
3dd8c7ba
3e3aba14
be352414
be1619aa
3d8c8582
bdc62e84
3dd605d1
3e29fc1e
3e90a978
be854477
bea77d85
3e26cff0
be066726
3dc4fe20
3e4aadb5
be75be83
3db7c5d7
bb4e2e2e
bed3ddf3
3ddbfdfa
bdf097fc
3ea732fe
be891447
3e477544
3e2becb1
3e69a875
bea739dd
bd4547c5
3e552c98
3d865e2b
bee2e9b5
baa3e208
be538388
3e7dede1
3e07a78e
3db4eed1
bd128026
bde25a8f
3db5d1bf
3e29cd7b
bec55421
3ea6047c
bd80c5c0
3df5a77e
3e5e7b8e
bd32479d
3d653781
3e829320
bd675c9e
3eaade7e
3e606b52
3e6a9543
beb449cf
3e4c2aea
bdd6586d
3dfc45ef
be8aa0dd
3d3cf923
bd7d3290
bde6db6f
3e02fe1d
be000dbd
3d56c3bc
beb7daa4
3e1b6f68
3db2813a
3ddf0190
bd4325cd
3db73951
3e1e2999
be26cf4c
3e34d443
be1afde5
3d4fd027
bd4ca634
3dd0a090
bd4b691f
bdfb6177
be8ffdd4
bd311b59
3ddf1490
be3ea2c0
bd4137ba
be156329
be986e4d
bd3418be
3c95e716
bebbd940
3e28c370
3e294348
bbcb2599
3d2bf465
be33c132
be3c9085
3da7aa22
be7a4339
3e84774f
be05a37d
3e1d1c3b
3e2b9d40
3d6ac333
3e547d11
3dcfcd50
be95befd
3e30fae6
bc1cb791
3db11b83
3e752f0e
bcd4f2ed
be37ce99
3ddc2516
bdd63552
3e062e61
3da49db9
3d174572
bdf73319
3d87e0da
3d25b622
3e975df3
beb25cd9
3e41fdd3
beda6fa0
3e212fef
3e205a8b
3e0cc917
3e8dffc7
bdd440b8
3e02625c
bed2c053
bdce19f9
be428f31
bdaa3fc5
bda2dde4
be231942
3e8c1f7c
3caf1460
3e898237
3da549cd
3d839a81
3e4de4da
3e8ee8f6
bcc2bc8b
3e93a0b1
3e6b0c75
3ef46870
3c9984d5
bddaa23f
3d187674
bdb05fe3
3ec5dc2d
bd44227b
be1ae6f6
3ed07c47
3c94e5f8
3dd04f09
3e0a73f3
be05c3db
3def374a
bdf0ca22
be60ae90
bdbffd4c
bd16f240
3d65de53
beba9aed
3e9909ab
bdc1346a
be65419c
bdabbc21
becc94a2
3de17b65
be824aaa
be52fd27
3eaa1012
bda19098
bea1a3ec
bdaa189b
bba177ad
be85770c
be0766fe
3d42e5eb
be52cbca
3ecc1e9f
3e32f3b4
3d1aca34
be979f4c
3e0c8663
bd863786
bde922be
3dd5c3c3
3c3a10ed
3deadefc
3e04a189
3e5a8772
bcac5e8c
bcef9d74
bd5b4e5f
3d5db162
bdaa3f98
3d924592
3e0677d1
3dfa6a0a
be1d9545
be179d39
bdea5c06
be531632
3dc97e67
3e333bf9
bd466954
3dcc5e81
3c551136
be1491ce
bd437597
bcaf2ae8
bd8677c0
bda10199
3df58882
3dcd891d
3e37b25c
3d7d6181
3dbdd8a0
3e20253f
be5451d9
3c0793f1
bc834b14
bdafa688
3dadc71a
3e5a535a
3deec0f9
be1f8811
be922c80
3e01442b
3c94450a
bc8dcd50
be765a45
bd139f0b
bc3da78a
be433e50
3e7dd2ec
3e32f678
3cc594e0
3e085829
3e19310f
3da215fb
3e418291
bea2f70c
bdc810d0
bdc75536
3d00d5d3
3d468835
bb82a777
bd7d261f
3da6635b
bd4918ad
bda79498
3dfde8c4
3e0a146e
be17dd8a
bdd6209b
3da2d83f
3e2ac085
bda5bc99
3d71561e
3d7da1c2
bc0308fc
3d58de02
be360db1
be1c3ba2
3e1fe06e
3e3d6f1c
3dbced4a
bdcc46e9
3dcc7d34
3d9b78d4
3c430d83
3bc0d6d1
3e3fa4d3
3db13790
bda01162
3dd8d4c5
3d35f4ca
bcf7871a
bd35b95a
be23b4ab
3d746680
3de60645
3e05fece
3d92c38c
3e04b709
3e25860d
3e12914b
bd63afa5
3e1d546b
3d983295
3c9cfdd2
3dd3fcc7
bda061c6
3d184904
bc039b15
bd204d63
3e03871e
3dabc9f8
be1dc722
3de959dd
3de64c71
bd965271
bd5335cc
3bcfe1bb
bce171d8
bde54763
be0d523f
3dee6b9d
3d3a6853
3e00c455
3de60fcc
bd18cd64
3ea40f9f
3e542f0c
3e8aba1e
bf08f384
be7123af
be9fc185
3e1bfb9c
3e74aa41
be3ab6d9
be055e49
be79797a
bdd63d06
be00bde3
bd5fb8df
3e7be8fb
3e7b5ae6
3edfe879
be3544e6
3ce1874d
3d3ea6b2
be45bbe2
3ea51999
be3c407f
be966d62
3e87e42b
be324a3e
3e7bbf4d
3d3bd2a9
be67c362
be0fe342
3d7fd005
be280e5a
be90a4e3
3d6731d6
3e3a7259
3e047278
3e571303
be950549
3e37db49
3a99d7a8
bd145cdb
bd94228d
be818f09
bd7433b0
3e4673be
3dd771f8
3e0ac7ed
3d893b72
bcec71f6
be3d1db3
3dd0c7af
be6a7cac
3eda3ce7
be7f51ae
3cb27820
bdcaaf5e
bd69413c
bc315914
bc134ad2
3e3e4a0d
3e15b249
bd9cbcf5
bd432f3a
be14f3f8
bd8942f1
3e2ba734
3c1a869a
3dcd89d6
be05e667
3e44ab03
bdb728b8
3ece7322
3cc694c6
bd51e3f1
3e3f083a
3cf60c5f
bd8a11a8
be3077a4
bd847a36
3dc36549
bda377bc
be652312
bdb69bbe
bdeac315
3c023286
3d314101
3c3bc189
3df87d23
3da347cb
3dae35c7
3e4a6f09
bd58c007
3e1b3f14
bda91551
3e2d04a5
3e613bc9
3e5ba3ca
3e086e89
bd5cb485
bdc8977a
be1e7f3b
be18bfc4
3e0cacc1
3e6bb057
3e35ba48
bd0f0322
3d660b95
3e800f88
be344888
be82e0fd
bd2694e8
3e71aa2c
bd025556
bd713c72
3dc5b5c0
bdb36b61
3cf24069
3dd15403
bdd57441
3e5eec9b
3dfa83a3
3dd681e7
3d85e072
3e5eebbd
be82100e
3cfc699e
bed79717
be6837f1
3eaf1423
be1e62a6
3d7b8546
3e64f1ae
3e42d1bb
3d77302f
bec5f6da
befc7884
bd2de601
bee6f155
bef251dd
bcbdebbf
3e1c4e1a
3e43c809
3e15a3eb
3b86a042
3e8b319f
bdb7bafd
3e09ad64
be847e7d
3e5021ea
3e6b65e2
3e5f1d55
befa6aef
be286f0a
3e948ec0
3ecd46ad
be7d45ff
bdd30f1d
3e76fdae
3de35811
bed26d11
bedb8e2e
3e605bc3
3e12bdcf
be29e416
3e90a52f
3cec8852
3e10bcdf
3e845765
3d761ded
bded3a9a
3e343b99
bd2123aa
bd16ca4f
3d3d61c1
3dab7095
bde63eae
3df0efed
bd805d59
ba1c6df9
3e61593e
3df47794
3befb3c0
3becdc25
3d2b86e8
3d5c4ed5
be9f2187
bd086a34
be12f04c
3e1674a4
bf04466d
3e86d876
3dec6dde
bd33fbb2
bd671a15
3dd3eb26
3e7bb351
3e132b75
3d386aa5
be6837a4
3e7627a2
bd81e390
3d1ffbff
3e1b24fa
be005f79
be1d3f9b
bda29bc1
3d389d21
bd2c7789
bcff3077
bd08dfa7
bc36354b
3da4b79e
bd9f5620
3e75dba7
3e1043a2
3e44ffd7
3e8f6654
be5e99d0
be0e5df6
3da2ceb8
3cbc42db
be154728
bd92f610
bc231158
bdd481a3
3e0e5c5d
bec726db
3dd4865a
3db17b98
3dade7ed
3e24859d
bc709681
bdd59d84
3e76ab3d
bd30c960
3de95559
becf2665
be3e7280
bd991a08
3e574295
bb23cb59
be1b06d2
3cb1226e
3df492d6
be128bc9
3e69dd18
3d21500b
3c7bd388
3dd40d17
3e75c21d
bc68e44c
bef9b54c
bc525a05
3e1f593f
bd921c4f
3d602455
be45a5ba
3e5395ef
3e5659c6
befadd46
be9d7bbf
bd7eca53
3e89595b
bedddd22
3deebcbb
be8f5c82
3dc33643
bdc34880
3e8b816f
3e512d19
3d695803
3ee44e91
3e055841
3f089789
bdd86a09
bbe8f13b
3e9a829b
3ed85772
bdcdd971
bdb710ab
bc93bbbf
beca2239
bd8bc348
3e964102
beb61061
bdf4db6a
be05d44c
bccafd47
3d9e5983
bd360aaa
bdb1f02a
39fc0217
bd875e1b
be1b4bb3
bda87eda
3df100e5
bdff2048
bda610ef
3db9bc95
3de761b2
be5fd27f
be2142da
3ded59a4
3e034a75
be690345
3e6178d9
3e904a7c
beb3ac35
3d43b294
be3e4f84
bbf6b133
3e14a395
be73d515
3d2049c3
3e28c503
3db8728b
3d9db4a7
bc28724a
3db42611
be01d855
3d3860ae
be9d337d
bd64772d
be1a4763
be201fab
3a050ed6
be094f99
bdd2896e
3d3d0c20
3de152e2
3e9fd6fc
3e8486ec
bdc717df
3e29c288
bd33d84f
be31ff4b
3dc46469
3e887f3b
bda4b456
be3d6966
bb9332fa
be1f1a38
bcc11c70
be339428
3d4c9e64
3ea1c7c6
bb481e15
be1e4ee9
bcccbbf1
be1c12f5
3cc877d3
3e0ba498
3e85c4e5
bc0da34d
3ddf7fb4
bd4122f1
3bf15a6c
bdc54cdf
3e791434
be6b711e
3d93437b
3dde782e
3dd60e72
3ea37a91
3e5a0a2b
bcb4d6cc
bcb7dafc
3c8fa9bf
bbb29613
3eb73f14
3b90fa1f
bbbcc54a
3da1e03c
3e43f51b
bdf1d75a
bcb1ca1f
be2e10a0
3da79645
3d341438
bdf69323
be82fbfd
3d401a90
3db91145
3e1bcca9
3de33a7e
bbc04d6f
bd952450
be00f5cb
bdee3007
3e962a29
3e878fd4
bea339ae
be81ae94
3da8da43
be04d2cd
bd4ca40e
be464b7d
3db7a2b2
bd0234e7
be746051
3d77eb3d
3e3c6d2b
3da4ffbc
bd2e2202
bd94ab8e
3e2925db
3d4701b4
3e0c694f
bc3512c5
be956fb5
3ba30fc8
3c97b7b3
3cf4c29e
bb94b796
bc04515b
3d0b8593
3db97078
3e2220a4
be3766be
3e211218
3e389d02
bcc56246
bd19058d
bcc6c356
3dd8bd4d
3e04252b
bec1e1a7
3dac812d
3e4a2a18
bec3f097
be653df2
3dd0129a
bdb2fe34
3e494a4f
3da96b98
3e9418b9
3e29c78e
3dfd6df4
3e171336
3e7c7e91
3e63ef92
3e0ff115
be00dcb6
bd88c2a8
be1e634c
3d478bae
3db57557
bccc3dd5
bee03509
3ea68a4a
bd68a35c
3b33100f
be6bee7c
3dd399a4
be81b072
3d5a5e50
3e4c0830
3f043c28
3df439fe
3df3acf4
bd918fbf
3db0c517
3ded9082
3d8af0d2
bdb64dac
3e65a977
3c9ef1f9
bdcfff38
3d3fbc1c
be0ec883
be7d1009
be071c41
3ec65896
3e1e40a2
bee6ec71
3dc90cfd
be599296
bdef408e
bdbf970a
be965f85
3db27c99
bd291f4a
3ddda9db
3e17a96d
be37b5dc
3ee3a8e7
3e53eba9
bdd9b425
3e8a54c4
3e554166
3e93ebc2
3e9b073a
be405475
3dd22799
bc0e902f
3e81159c
bdaee861
bdbc8473
bd81cece
3e4add39
3dcea8cd
bc38010b
3e53f1d3
bd39db4b
3d8d5240
bb4c8773
3e345452
3cb1e71c
3db0e9e3
3e5fd1ec
3d4951c6
3e145364
3b6207e1
3d6842e9
be32fef2
3e175a61
bd2bf369
bdffbf36
be373378
bc884012
bded0983
be76d77c
bd14cf66
3e8f433a
be4bd4a9
bdfb1aef
3d9b941c
3e9faa56
3e53f517
3e0ebb1e
bb8a6a01
bd58fd08
3ec14ef9
3d61fca4
3dbf2591
3e47d281
3e1c918f
3e2b114d
3d7ea57a
be07b861
3e8d650d
3d757fd2
be043440
3d838e01
bcb40707
3dcac197
3e71e929
3dc1af92
3e9bdbb4
bd838dfd
bd9cef3c
3bd65f9f
bbd72107
be0c16d3
3b89066f
be29ed32
be2c8dc0
be0f4a17
3e0c258a
3e57d3ef
be486a31
bdd6a24d
3cf9c8f4
3cdbcc7e
3c902876
3e858425
be01817b
bea9cc6c
3e5e10b2
3e791c95
3dd5e04c
bdbec106
be694fdd
be10d301
3b88dce2
3e917f5f
3d9a75a1
3e7637fd
bc622cc2
be11f04e
bda3e156
bdb638d6
bdd6b10b
3dcdd53b
bdb0015d
be2db944
3d00f79f
bdc5e905
3e2e1c1c
3e5696ca
3d16e535
bd739aa0
bea783da
bbd75b00
3ca1ac1a
bd85afc9
3e77caf8
be27dd88
bd3b0cb0
3e0a0d7e
bd963d4a
3dcdb4f9
bde397b8
3e287c77
bd404259
bd3555c2
be1d6b50
3e55e399
3e01ad83
bdb18ae0
bd85efa4
bd1b980b
3da628b5
3e7f7376
bda37fb0
3dc72862
be26012c
bcc61886
bd0c3304
bd8180d2
be899996
3e175339
3c33f46b
3df5dadb
3e1ec630
3e2df237
3cc47675
3e22b6dc
3dbc44f1
3e55afdd
3e8dcb49
3c325eaf
bdb60fe1
3e8f4b46
bd2df70f
bec7418c
3e6643fc
3d06a0ac
3ebffd3f
be8bd1d5
3e0eeaf0
be5e8def
3e3c04a7
be8017b0
bc9a310b
be7cf1da
be4a6b9f
3d76d506
be37891e
be526ed8
3c504071
3e4c9d3e
be8e14f6
bd8cc320
be136c21
bd8dc5e8
3e095491
3e25bf8b
bdbd9c6e
3e37b155
3cb4de81
3d76c364
3d976492
3d59c8ad
be8b122f
3e5337b4
be706c6a
beda773c
3e2a0e10
3d005acb
bebb7b11
3e59e8cc
3e3cc957
be91df9a
3ea957eb
3e189cc8
3cfa1144
be658956
be0bb734
bd5bd746
bd9cca59
be54c7ee
bc8d2f91
3e3726ae
3ee99f74
bcafd5f3
3d99a208
3e3cee0b
be8ee465
bd30d7dd
be5e172d
be99c474
bda1f905
3dacaf01
bf20ab56
be88aa72
bf0cad95
3e2118fe
bc6d99b9
3d58efbb
bdfcb88b
3da85176
bd20add9
bdc570d8
3e19a043
be132a02
3dab925d
3de19e92
be0b3f39
bdfdf656
3e05cfd3
bdc10a80
be35b85e
be62a34b
bda2e165
be2093d9
bd84d94f
be82db3b
bce0a7f1
3ea4ff59
3d469ccc
3dd20a3b
be03172b
be283b0b
3eaa03c8
3e91e27a
bdfd2cbc
be3739cf
be791a74
3e3b6c10
3e289496
3ce5eaad
bc43a80b
3cc0ea88
bde14459
be6c3b1b
be07746a
bd53cc94
3c1f4156
3e18bbb7
be7e683b
3e95177d
3db637d5
be547b56
3d1150b9
be8031e9
be6ab4b9
bc249838
be367510
bd24a0f9
3ea44126
3e3fbdbf
bdb92c0e
bdd6d54f
3e4d9b74
bd35e7e2
bd15a9d9
be70e7fd
bcfdb6cc
be852f19
bd795b83
3e33c2c0
3e750a13
be7f0046
3dcec0e6
3e709a8d
bdb7a8d8
3cb949f4
3f08bafb
3e4672a9
3ee56bc0
bdd411c0
bdec4030
3d24669d
be005f9d
3e1c10fc
be1b1604
be49675c
3b75e352
bd2a675d
3e2ef2b5
3bed2ab8
bed00cd1
3d77c31f
3b97e26f
3e6a7187
3d6ac8f7
3d8269cc
bdc0fd07
be22c63c
be431967
be7443e8
3c3caa33
3d4a6d2e
bbf2a4d8
be47b444
3cebbab1
3ef96520
3db5db5d
bcef013c
3e92705b
bec51346
3dd6a40f
3e880c6a
3d9c6847
bc60eb93
bce3a000
3d1fb549
bc25d786
bc9ea103
be39c73a
3d191bb1
3e43ec9d
bd9f572c
3d1a9d73
be82e6da
bee851cd
be99fa1c
3eac5f69
bea4aaed
be093a3c
bd136df1
bda4ef0f
bd960565
3dd1e993
bee50ccd
3e1a44c2
be903b02
be6ccd3d
3e1fb4bb
bd16e5f0
3e3bf50b
bbd922f5
3d85a93f
bd83aa21
be38861c
3da0e514
bebf6f8e
be2cd111
be50e1ba
3dbd8454
bc1b8015
3e382fbb
3d49341c
3de12c2b
3e661442
be28830c
3cd79372
3e9787cc
3e315505
bd6eafcb
3d55abf0
bb191206
3e54df05
be96ae83
bc1eec80
3e760e10
3d1e2972
3d20e5bd
be30281b
3e7c1103
3dd3e3c0
be0f64b1
3d381d6b
3e9f92c7
bddd7d71
3e6b3eb8
be4ebff8
3dff1a06
be5b34f5
3e7aa4e2
bdf227ce
bc36a7c1
3e251684
3e2af14f
3e643d0c
3e3cca51
be1d3336
3e231166
bdc300ed
bf0fee22
3ec48e9f
bedb8a4d
be96e29b
3d7dafe0
3e768fe4
beb993ca
be95c9eb
be9c1791
3e9912b6
be287caa
3e260b20
be67f29a
be5e7118
bea1248b
bd35782a
3e2b275e
3c660dc3
bdf353dd
be2c4e01
3c96b196
be593a69
be808de5
bdb3f8fe
3d4d4813
be9ee3f7
3d892884
bd65d81f
3dd26637
3bf7a3f4
bc7f902a
3e1b37c5
3e925bd2
be447985
bddbdb4b
bc911699
be020e45
3ed0e2d1
bd29383d
bed12995
3e239287
be234e9d
3ece0313
bea0747e
3bc7884d
3db9dd41
bc6fbe5d
3d4031e2
be93afc8
3e8cd5b8
3dadb082
bdec7799
3e8af13f
be0e6376
3cf5966a
3dfed336
bdf70cd8
3e1af82d
3e6c08b8
3abdb614
3e449982
be532fdb
bbbae7c7
3d6fa58f
3e3c437a
3de8b38b
be2b891a
3c550fdc
3dfd8ccc
be182652
3e1834f3
bd846aca
3dda1f87
3bfa1553
3d9723a3
bd3b1050
bd66ff08
bd9504be
bded31a3
bda60689
3e8fd936
3d2abbfe
be837047
be34e812
be046c7a
3d93e6c1
bdf45de5
be1c7976
3d0eeca5
be3e017b
3d5975c4
be81649c
be2a5b0f
be00d7b6
3deeafa4
bdbb4fc7
3e863c86
bd4dc92a
3cf17402
3e38a56b
bd0f0504
39685878
bdb36644
3d4c0996
3ea6ed6f
be11e33b
bd6511af
bda20a34
3d911b4c
be844c9a
3b4756fb
3e48d62f
3e2ddabb
3de80c5f
be4a80d2
3da8888a
3ea2e4d7
be3fcd5b
bb86c8f8
3e836096
be180b69
3e0287e5
3e327f57
bd5dd17b
3e3426c3
beb0f2d9
bd6c8168
3e2fa477
bdca38dd
3e5f7a79
3d0c408f
3e12eced
3dc3f199
3e950b83
be11b2d1
3dbfad40
3e155386
bdba1af2
3b2898ce
3ddf9228
bdbb6891
bd84e424
bd9dfc91
3cacf955
bb369ba8
bd333b8e
3e2412fd
bda77203
bd1101f1
3d7e321b
beb4cb79
be30d6eb
3ea74a37
be31c0d1
3e41a7c9
3cfceccd
3ddfd30f
be27337f
3e97bc4e
3e85356f
3d6d4b2a
bd9e4f5b
be188f5f
be80d73c
3e1538dd
3d88d42b
bdb8e761
3e66167d
be0f1e49
3e68cf0d
3d5cfce1
bee5dd28
3e884d01
bda6f494
3ea19580
3c98f395
3ea87ed7
3d6c4067
3e12a8e7
bd4ef31d
3c708e1c
3e02f3ce
3e7df326
be2dbd67
be022153
3d6dd198
bcd1d857
3e2c8d3e
3e6e2438
3e01c89f
bdfb7bbf
3d56f19e
bd888766
bdfde82b
3d9b09b0
3c7c9495
bd72b5dd
3e894056
bc5111d8
be16b1fc
be0804fd
3e57f52a
bd915ea7
bec4d100
befc6453
3dec7f6d
be1112f6
3e903771
3da7d8a0
3f080ca7
bda043db
bd6aaa8d
be3fa5ee
be861f6f
be1db30a
3caa593a
3effcd71
bdbd8e7a
3eb883ea
be39429e
be0bf223
be815614
be2c76ff
3ec5cc66
bcaf370a
3e665867
3bbbab33
3b49e197
3ea5aa24
bdf388f3
bd8c294d
3e309c40
bdbd16bd
bd5e18ef
3aa234ce
be61daed
3dc193c5
be3766ba
3e28c543
3d6cb637
3ec4b210
bea67a62
3e8a1500
3e4f38bc
be062c0e
3e75d7dc
be32b50e
3c8538ed
be9081d4
3eb35bb4
bd8bea46
3dc45eaf
3e1cf49a
bea1385e
3d88f6cb
bd9a9ea7
be2fefbe
3eb85389
3db0ed36
be8f4f87
be3d4a56
3e8f8558
be3cab2e
beb31363
be061cf1
3e07c6d1
3bf258ad
3e162c8a
bdd5d4b5
3dcfa157
3dfa435e
be5b9451
3e67fca5
3e1505c9
3dcd0b44
3c85c709
be0d282a
3d52da40
3c8654cf
3d6cbe3a
be857942
3e226b71
bf121c22
be473311
3ca0f2d0
3ed4bfd0
3e10ddb8
3d8753e5
be7abd75
3dd7ff02
3cf5e6c3
bdf61d8f
beaa0879
3d8eeeb7
3e5632a1
3ea900a5
3e816563
3dbc42b1
3cd9757f
be571676
bd560316
3db43163
bcf31307
bc848b7b
be476bba
bc54b73d
3f11f37d
bdb8c425
bdfcc19f
3e35e95d
3ec18e89
bea0a62f
3e85f2ab
bedc331a
3dd3d665
bdc53ce3
3dc5afe8
3edb0e74
3ea4a029
bd8c80b2
3f00d280
bdfb7995
bf2356e2
3d04e3ff
bdb66df0
be76a8d3
3d010a01
bded970b
3d39178d
3dc24e0b
3e0c5c8f
be042af5
be8827a0
bdd83f20
bd91d93e
be5bee62
bd7e9ef3
3df11e46
bdd9544a
3de8d1b3
bd85ecaf
3d5f7834
3d6e5e96
3c9b87b8
be1d7154
3c995324
bda7e148
be8a50b1
be554f16
3cd8d968
bebbe8bf
3d3e657f
3e579e7d
beab94f5
be62754f
bd408c69
3e476221
3e8b49ca
bef4ced3
bc09001d
3cbbcf87
3cc80a44
3ded8b63
3d460c35
3dff47a3
3d71a4d4
3ca72187
3c9f1c4f
bdfab6ae
3eba97ff
be4c478e
3d69f480
3d6f7ea3
3d8d2324
3dbae565
3e27f4c9
3c907562
3e4a0b99
be67c7f4
3d8fef29
bdf5b0c1
3e1c8343
be8ddb0b
3e60dd80
be66c2f0
be00c70d
bcb424de
3e43dab7
3cf10878
3dc9ba03
bca28ab5
bcd68b0a
3dd16008
be4c545f
3d3457f9
3e848ebd
3d96a6bc
3e537102
be882e91
3e14d856
3ee02c03
bd025f8c
3e4788e0
bd616bd6
3e0b6438
3dbdd024
be8a2af1
3e091a85
be13d944
be57fbe3
3d0e87f5
be48911f
3d907262
bccd1a04
be0b8683
bf10629c
3dde9489
bdd14312
be00e337
3ed9ff2f
bdfdc0c9
3e04938c
be1f9967
3e4fa78f
3c334cde
3e904240
3ebd318b
be389fa0
3e0a2998
3ee7c46d
3e4611c1
3ee7a885
3ea72417
3e79a174
bade35a4
beca0b1b
3d96c427
be239cae
3da80480
bc082246
3e44638b
3ddf0948
beb2bb1d
bda984c0
3e2f50ad
be742b6e
bddcbffa
be547d3e
3e89b8e7
3e608857
bead874d
bd2f36f0
bde40f78
3d920e75
bebb420f
bc91ad91
bcf86e0b
be4bb460
3d4536ce
3c6c459b
bd045434
bd44eb05
beafddcf
3dcd1736
3cbe8709
bd334105
beaefae3
bc110dfb
3d8d95d5
3e3b0879
bcf5a709
be66aa78
3e263486
be0714fe
bd31cede
be1956fc
bd2c3268
be2225e1
be145eb5
b9484d3a
3e4db7d6
bebd6080
bdaa50b7
bdce675a
3dabefcd
3ddc7f95
3ea4771b
be92e778
bde1b400
3b8991d2
3e9edecc
bd84d601
3dffa5a7
3e6ae719
bdfd413f
bde3d55d
be439e0e
bdd55782
bda9447c
3d6551af
3d16a4b8
bd9fc0fa
3e09951d
3ec6cef4
bdc9a8d4
bdef62e4
bd198410
be7306ba
3cf0186b
be174ae3
3ca5868f
3dd0deeb
be6a74c3
be828db0
be02c678
bd8277df
bd8b553c
be821f55
bd836670
3e2b1030
bbca82eb
bd9807ed
be41604d
be6234e1
3dfcb2a1
bd94cd75
bdb0b208
3cae208d
be09f1c7
3e64fa13
be88fedb
3e36013c
3ce965aa
3e0572e4
bda825c3
3cea78ee
3d98b758
3e88c9cd
3e73399e
be753c5b
bd709345
bd466144
3afd7525
3dd615ba
3e2e9659
3ce43d24
3d117d8b
be299e1d
3c42ad5c
bd825413
ba9949fb
3de4e2d2
3e155a88
be5b7d25
be45348a
bbc0772d
be68cc4f
bc855667
3e224a92
bdf530e2
3da81449
bd62efc9
3dd162ee
3e9792d8
bd5a0bf5
3e450930
bcb1ae37
bdc53882
3ddc7711
3c6bf82f
bcc4b49d
3d7b00eb
bdd99662
3e57e3d3
3e24dc0e
3d87854e
3d19bc72
bdee723a
bdcf88d0
be69a0b2
3e0a7799
bdf2231a
3dfe5116
3d78dd94
bde27907
bd397439
bddede27
3ecfb498
bd89d62d
3d557180
3e0f2e9b
bee1f63b
be953ded
3dfccf25
3c3d8743
bd858f4a
3dc4f380
3ddd73c1
3db92d37
3d8f5d39
bdb918eb
be571b52
bcea6469
3c362643
be182808
3e9351f0
3ec8c496
3e98a3d9
be81bd00
3e0e2d8d
3d2802f5
be26d5f5
3d01e50c
3e469f6f
be9d20bc
3e5d81bc
3e67d054
bd4c15cc
bd4f3da4
be32968e
bf122ed9
be35fdd0
3d35551e
bda71207
be1b328c
3b997278
3ea19a70
3eb09c48
3d4c1814
3e98169f
bd0a704d
bd8fb1c4
be139948
bed7c65a
be1a5dd4
be4d001b
3da3a19d
3ead8349
be1c1b31
bc949a54
be9ae1b8
bdc1fb61
3e93b568
be11868f
be26ac78
be1a3097
3cdfe338
bd328f15
bdd59023
3eaff264
be91fc13
3e12c500
3f018c35
3c26fc35
be3fae61
3d98bb97
bdcbe74d
bf029500
3b4859cd
be836a1a
bdd3dc5b
3e2cb8ae
bde2d2b2
be548787
bea55f34
bd625822
be47f8c7
3e5899bf
3ddde706
3eef1566
be8f2be5
becd6db5
3edd02b5
be5d827e
3de41619
3cdbdd8b
be54feaa
3e167fce
beab181d
3d753b5b
3cd190bd
3d22e657
3eed4931
3e7f92ce
3dcc25fc
3ec33477
bd4f910e
be85cc0c
be0a4e3e
3db5f3a2
3e910d03
befa017c
3e7eba09
becfd3d1
3ecb9e5f
3e800756
3eaf877b
be68c592
be571b3c
bdd76029
bb8d01da
3d9a9a89
bc17622b
bd8816df
3ea78b11
3e234054
be63104b
3e51359a
bd4fa8a7
bc9ac933
bea5c664
3e5d914f
bda1b8ed
be01ef65
3d9589b3
3ebb3b9b
3e196742
3de22b03
3e5cbc52
3d945ad6
bccbbaf5
be57ef35
bddd1dc2
3e71c2fc
be8c3a8d
3ea8d1b6
bcce3da7
3e6050ca
3d82d0b8
bed2a2ec
bb50632b
3e08cc24
bdb63794
be4fa0cb
3d1b8573
3c7525a8
3de86995
be6b85d8
bb14fe47
3e1c7717
3e00e0b7
3d047048
3db8e61c
3db6c690
be48ec7a
be02176d
3e4ffa05
be2910f3
be7dfed0
bda8d5f6
be2fb7c3
3e3949f4
be321c67
3dd37ade
3df5c3b6
bdf3e4cb
3e199d39
baaaad4b
be476131
3e6cc722
be3eef2a
be5f5a60
be4f7e33
be2fab32
3e7942fd
3df0f24d
be9131c5
be329a37
bd77767b
beb87589
3decd45f
3d9a92d6
3df39a6a
bc1a8e12
bdfa714e
3e46a421
3e3215cf
be24b2d3
bdbcbfa8
