3da5429f
bcf1a1e3
3d8dabf7
3a4ef318
bd8588d0
3d972dfc
3dd3052a
bc44644f
3dcd6124
bd3cf90d
3c9db5e5
bd4cae25
3daaac33
3ddcf659
bca128ac
bd94912c
3d950065
bd270aba
3e2b1fe5
bdb87598
bcd7cbde
bd1612e9
3db1cc48
3dd8abbf
bda85d29
3d5e6837
3d62a26b
3da4a223
3d7f3854
bdb76d9d
3dfcdc2c
bd26de01
bcea93d4
b9eb881b
3d9e5b76
3d1007ac
3d53e12a
3e744548
3c83e527
3c359306
bb780956
3e258b29
bdf6d842
bd854da7
3dc8d03f
3d1def34
bd36ede8
bc44c0f6
3be28761
3d594fed
3e445550
bc8df1b6
3de9e10f
bc879acb
3d01126b
3da598bd
3d139ca3
bd5710a0
bbb9dd8a
3d7ade31
3dd789ec
bde0e8ca
3b0c777e
3da93aa4
bd135ba2
bc76d13e
3d9b1cf6
bd41a078
bc5b90c5
bd8f3c51
3d52548c
bcd1038d
3b59533a
3ded2076
be1f8d07
3d35373b
be624d88
bccbcf9f
bc653964
bb9e498b
3b00ac45
bd993923
bd1d9283
3d3e3e9c
bda8e862
39fe2829
bd96e4f4
bdb63abf
3d6a1905
3bf0f61d
bdee8a0a
bcef995a
3c2167e5
3d722963
3dadd552
3d467606
bc4c22b2
3d364e40
bce325db
3e46c3e9
3cce312c
bce08e3d
3e06036e
3e30f290
bd93c4e2
3e1e8f59
3d89e18c
bc839c5b
3cb2ac5e
bc2170ba
3cd99e61
bb85b872
3c080d8a
bd9d1c90
3de35bec
3d92cc19
bd2b3b9e
3dd8c273
3dbecf6a
3dc78d95
bd7d4e64
3dbe3d94
bd5e4dbe
bb2d9e09
bc4fb927
bd44ad27
3a3f8d84
3d1be2a2
