bcac2d60
3e0458a7
3d5579f7
bd92f9f5
3dd311b9
3dae47b8
bb8e6e9d
3c7c2eeb
bd8d6efc
3dcea31c
3cc76269
bc709acb
3e04b987
3daa94aa
bbf2a923
3d6279d8
3dd18f20
3daf18ab
3e0a3551
3e124b54
3bd4d4e0
3de877e4
3da1e292
bdadbf1e
bba1d9ca
3e1c7592
3e581a65
3d40e26f
bcb55350
3d25edbb
bc851f8e
3e08c3e9
3d4513d5
bcb2d9ec
bd02d707
3e40d187
bd513084
bc39cf6c
3e0512af
bd39733c
bc659e56
bdada2c7
3c8e75b9
3d888f54
bdc40f37
3d476671
3e5d4b24
bca065e7
3e11ab39
bc799019
bcaf1666
3de01eff
3cb13e43
bd271a53
bcb5995b
3e349338
be1623d4
be02fb48
3c7a0582
3e1fefb4
3d02ae4e
3d4c4dec
3c7d182b
bb575031
3db53538
3d53d200
3e072b48
bd9eb360
3db2bb8a
3dc5aa52
3e0f7dcb
3de3c79d
bcaa3727
3d1d4ad2
bbc20877
3d18113f
3d9492f1
bd9ac4a3
3d20fb7c
3d19ed55
bb21a09a
bcc87464
3e02fa9e
3c668a24
3e11717e
3d5ffcea
bc92612f
3e3f9fd8
3e3ce764
3cf7c862
3b358cec
3d94559e
3e05b16f
3d7d52c3
bd396791
3d448668
3e056f5a
bc8f3d67
bd81dc60
3d2131c3
3e12656d
3d916b9a
3d212c6c
3e8c092c
3db7289e
bcc5989a
3d3c39bf
bd255801
3d972680
3ccd5dec
bd675c6e
3dc8b412
bccd716f
3e2c107a
bd8e5644
bdaa537a
bce2786b
3dbe9070
3dba8d60
bd90db24
3deb3138
bd54f955
3ded10f5
3dc42099
3d724bad
bd4b69a5
bd8eb7bc
bbe2f8cc
