bd5673b9
bd5927b8
bbca1cb0
bb0d2c00
3d398606
3c398a08
3d404432
3d4bf172
3ab94080
bc7438c8
bda0b484
bd45246c
bd69a78f
bd070ff4
3d2f9464
bd2bc242
3d2f4f44
bd77e675
3bc92290
3cc1c25c
bda2d4ae
bc8751c8
3d7b05c2
3da132ad
bd95c7e7
bc890f50
bd1f2d83
bda1ac50
bd8a2dc5
bcb24986
bd4f1a1e
bd5f7186
bd949af3
bcfc1370
3cd18344
3da4ba6f
bd9b03fe
3da0ab41
bd3603bb
3d98a31b
3aa0c6c0
3cad5da0
3d626db6
3d475e82
3c98ae00
3d8d03c7
bd97eb69
bc262140
3c3b42b0
bd53ac0a
3cbbde58
3d90a88b
bd7f84d8
bd353ea1
bd4d8e08
3c9dfccc
3d057362
bd218c6d
3d016c8c
3d169f80
bd9e4c83
38760000
3d0056de
3d8de403
3d82a317
3cf3f45c
3d484de2
3d85405b
bbfde470
bda4386c
3d6d6b7a
3d3e6ef6
3d3aa9aa
3ca8d2f4
bd909fa4
bd38d2e1
bd51bf88
bc346618
3d309058
3c8af818
3da1f02f
bd458146
3cc84530
bd667af8
3d062e62
bd8b96b4
3d0f00ea
bd3217f2
3d12a97a
3d8ffbc7
bcceb8b8
bd078317
bd23ba4e
3d3405ea
bd39de23
bd7daa2a
3c55b390
bd9d9c80
bd8de6ee
3ad6ed80
3d458ee2
bd3cc5ec
bc3c0b60
3ca1437c
bd4ccd17
bcbbf14a
3c94314c
bd17604e
3ca2f4bc
3cf504d0
3d0125b8
3d1e4024
bd5e4da6
3bdb8440
3d7cc482
bc0d3280
3d864089
3d0c2bae
3d3a03ea
bbbb9c70
3d97b37f
bbde1eb0
bd1b58f2
3d23dcd6
3cc32564
3c82f190
bc9333ac
3d853a65
bc039870
3d9e06d3
bd4e6ce2
bd62719f
bd0a3de1
bd1d2b36
3cfb9d6c
3d907e6b
bca2e304
3adfaa40
3c2e74d8
bcbbe55e
bd7b4a29
bd541d5e
bcfad48c
bcb0ba42
3bdeec30
bd853428
3c4615c8
3cb873fc
bd45fe78
ba8b1980
bd4079b3
bbde0d20
3d45901a
3d5a6f8e
bd2dbb7a
bd21df71
bc7fbdd0
bd36c2af
3c8c9740
bc2e4770
bd12fa8c
3d403252
3d026c1c
bb328cc0
bca59ae8
bd83ae0e
bcbc7bc0
bd977b9c
3d3e8452
bd54ac6e
3cbaa8e0
3c4cb6b0
3d07e8e8
bd176f1b
3c39cbd0
bce22a48
3d3efe92
bd819061
3ce5f52c
3d3de306
bd613ac8
3cf03f2c
bd756fb8
bd65267d
3cb69204
3c6b6640
bce40ce4
bbf31bc0
3d5dc59e
bc007fc0
3d92df43
bd70e3f7
3d418b6a
bb0add80
3c5642f8
bcd0a4fc
bd380031
3d89736d
bcf527c6
bd8fe6da
3d933f81
bd1a6c1a
3d7d8d66
3d3ebb96
3bace0a0
3b7fb3e0
bc601a40
bc4803e8
bce5f720
bd95587f
bbb4eca0
3d71d58e
bda56fbe
3d608582
bcdee736
3d5e931a
bd8c5716
bd6200c6
bd85afac
3cbb2bc8
bc3df968
3d3adcba
3d8bdee7
bd940aaf
bd8efc90
3ce1f404
bd27794c
3d4040ba
3d4e925a
bc82a704
bc83f16c
bd185e19
3d2f806a
3c08d1f8
3d92412d
3d943e6d
3cc53dc4
3cdae020
bd4e1ba7
bd7b13eb
3da4db2d
3d534126
3c626188
3d87086f
bd373911
3cab112c
bd98893d
3d97d827
3c1cff28
3d9853cf
bd6969fa
bca1916e
3d5a4c4a
3d7f0c52
3d9efb43
bd347f1c
bd84e8dc
3c8dcdc8
3cc45328
3d5f3f22
3d5a2b16
bd1b0627
3d777ebe
bc9a4a32
3c552778
3d856ff3
bd47a4b0
bce32a78
3c320df0
3d5aa9aa
bd90064d
bc802b70
bc0ed9e8
3d109520
bd3b7af8
bd832116
3d4a11fe
3cfbc178
3d3e91aa
3d2f4900
3c93a368
bd0332e4
3d6c418e
3d37f7ce
3bcd9ca0
bcf472d2
3da5a405
bce842d0
3c905aa4
3d446e2a
3d84f0e1
bd4ce116
bd32f635
bd0ff26b
bcfebb58
bc274540
3d418d5a
bd05ef38
3cad458c
bd018f15
bc390978
3d8ff8bd
bd74563a
bbd21710
bd4118fb
bd30f500
3d8d4633
bccf6dce
bd1795e1
3d7c5e7a
3c80644c
3c2f5908
bcd652da
3c963f50
3bd90f30
bb5221e0
3d83210b
3c0e6df0
bd299f20
bd09b201
bcc7fe18
3d8a7d21
3da0330b
3d4960a2
3d740b7a
3d1e19d6
3d2f39fe
bd9d4d3f
3c56be90
3c863034
3d8227ef
3d79626a
bd98bfeb
3d9318d5
3c64b918
3cd4e06c
3b7a0e80
3d81c2c3
bd478f22
3caeb714
3d6bbab2
bc34a0a8
3bc78870
bd3ae238
ba8cb840
3d73517e
3c874828
3d04c13e
3d506e9a
bd119a77
3c9db19c
bd8d2571
3d038496
3ba28470
bd237a3a
3d2563ea
bd577bdc
3cdb16ac
bd609fdd
bc507e58
bd2539c6
b9fb3800
bd3dd0f6
3d80fe4f
3ced2608
bd0936d1
3b6afce0
3d60d73a
bd8b3f05
ba6d7380
3d09f3b4
bd8ecdef
3d24f674
3d3d289e
bd179cbb
bd82fbe8
3d33b9b0
bd71ca7b
3cda2f64
3d309746
3d985bab
bd9ae1a7
3ae55400
3cd47830
3c8e7cd4
bd829099
3d8c3473
3c13bd20
bd8f2d23
bd3047bf
3d0b205c
3bf65240
3da0928f
bca26f50
3d968835
3d77afd6
3cb862a0
bd46195b
bd956dcc
3d264172
bd8d9359
bd938472
bbec2350
3d824dcb
bcbe6170
bbdf00a0
bd9df456
3d33c412
3d516716
3ccbc2e8
bcf15ede
3d82357d
bd96ff1a
3c3a6120
3d30c174
3d1da0b2
3da0fc79
3d904643
3d673cb6
3cb8f74c
3da0cb5d
bd849b2c
3d88efef
bd9d5a78
3ccf6f18
bc84397c
bd02dd37
3a3c5580
3d11823c
bd137cab
bd72bb0e
ba038180
3a9c2880
3d0fd37a
bd60adf0
3cfb71d4
3d143590
3d744aa6
bd65e30d
bcbbfb1a
bd887d2f
bd5d3681
3a7b5100
bc3c8d38
bd8fc264
bc1d1850
bd3bf145
bc0404d0
bd4df5a2
3ca8e4a0
bc91682c
3d1a39d6
3d953eed
3cced744
3d933cad
bd70eb9c
bc86ddd4
bd6da776
3c184dc0
3cd356c0
3d8d91b9
3d7b2f46
bd40935f
3d8b2261
bd7e1d58
bd1e7254
bd29b184
3d654c36
bd9fc884
3c94b878
bcbac242
bd577a76
bd31b6e5
3ce9d2c4
bccefd96
3d8d6aff
bc54d468
bd91c3c3
bc1b67a8
3d9b8877
bb0ab0c0
bd55a20d
3d3db8ce
bd3ed2bb
3d1c5164
bd90410c
3b03a140
bd15e610
bbe34080
bd0a31db
bc19d7b8
3d712ff6
3b390220
3d0cbef0
38979800
bc3f6d38
bd178eec
bd23e71e
3d98bbdf
3b33b0c0
3d1faea4
bd582cf7
3d7d45a2
3d0f12f0
bc6f0390
3c918e94
bd66bfc0
bca739b4
bc289428
bb73cc20
bcb1c5ec
bd5836a8
3d140c12
bd407b2e
3bc8a110
bd39c088
3c9a7c0c
3d93d54b
3d196296
3d153d70
bcf4949a
3d54e1b2
3cdacf04
bce5c32c
3ccbf8d8
3d8dca73
3ccac7b4
bce92442
bd1b10c7
bd14a72d
3da4f155
3c778758
3d182318
3d44475a
3d9c3f09
bbd81f90
3d2c58fc
bcc2bd08
bd755d78
bcaf407c
3d27e790
3d910a97
bd856f7e
3d96360d
3d25a958
3d57294e
bd4d6fc2
bb910ef0
bd5aa120
bd8c760f
bc69a5f8
bd5d66f2
bbdc0920
bd549e18
bd13076d
bc6e0330
3af3e500
3d4fedfa
bc353d70
3d772be6
3cf41af8
3d65ff22
bcbc4b72
bba89e50
bd0899c9
bd2c6bcc
3c5866c8
bcfe58a2
3c1cd048
3cf27d30
bb764ae0
3d3370ce
bd8036ce
bc0fe4c0
3d8de3f9
bd322588
3bff8b60
3b9cb340
bd3dd715
3bb9fec0
bc012768
3d1da676
bcb1f56a
3d044d3c
3d992149
bd7410d1
bd8d9116
3d3c9a02
3cb9c034
3c25cf18
bcddd518
bbbba2e0
3d8b0c15
ba611d00
bd55d50c
bd7715d2
3c9ba8ac
bd29ca5b
bbf7a520
bd84311a
bd859f15
3d21f81e
3d61dd7a
3d9d5729
bd4e37d1
bd09c071
3d8ca7b5
bd264e91
3d5c72de
3d1f0100
bd8a6fa4
bd22bdfd
bd5fedf8
3c154af8
3d066250
3d1147c6
3cc40930
3d28a720
bcda3ad4
bbead8e0
3d152d9e
3d3ba662
3c4ca938
bd6ea40a
bd887698
bcb17cd8
3d7f3a2a
bd928692
3c214298
3d5837ba
bc1a8aa0
3c89ac04
bbaa2250
3c9731fc
bd95b047
bbbb5720
bc9379d4
bd973a48
3cd73ff0
3c25e430
3ce2a9a0
3d3c5eda
3d5e7bda
bd840dfb
3d6a9432
3c9021a0
bcc646ac
bd81e99f
bd6f6ca5
bd6d19cc
3cec0300
3c1958d8
bd1588e9
3d967bb1
bc9cc7a6
bd582fe2
bd2db8dc
bd55685c
3d11c8e2
bc0feff0
bd948863
bc66dc80
3d195652
bca2c79a
bd9ce764
3d7b835e
bd86a094
3d69ffce
bb9daa80
3bf7e990
3d2194a8
3d3f3c3a
bd53da4a
bc6b21d0
3d8526cb
bd1e9f44
3d10c79e
3d3f59f6
bd0d6092
bcc8f4d4
3d960a33
3d48fda6
3d28791e
3d5226e2
3ca4e240
3d578ebe
bd813a42
bd46ebb7
bcc38ef2
3c7ebac0
bd972d08
bd8a17fb
bd9e4d02
3d9df8f5
3c88d1a0
3943e200
bda2b76b
3c0232e8
b9301200
3c7b8458
bd92a14e
bd1d0072
3d2122d2
3d301c22
3ba650f0
3d27345a
3d976807
3d4492ca
3c444010
bcdc447e
3d732ba2
3d7f1f0e
bd93e8d0
3d0e3366
3c003c80
b92e8c00
bd89d528
bd83ee0b
3b924f70
bb450e00
3d11e42e
bd08a2f9
bd9c66d0
bd2ae978
bd1db8f4
bc25f5c8
bd3fe7c8
3da22f4b
3cf683b4
3d4b8102
3d888bb1
3cb1e2d8
3d4c5006
bd4e28bb
3b8489c0
3d51e86a
bd28a587
bd71e87e
3d137358
3d6b7706
3cdb13a4
bd5de6c7
bd8ed1c4
3d0c76e4
3d8c44a3
3cb4ae64
3c8bfb90
3d5d0222
3c578698
bd54838c
3d014014
bd06d3f9
bd2d2547
3d9f8e4f
bd8ca0b4
bda54aba
3d80b255
3d800045
bd162545
bd1e861a
bd2540d5
bbc92a00
3d4b898a
3d770aaa
bcaf45a2
3d3fa2be
bda5f7c7
bbd66b00
3b7e79e0
3d9c65d9
bc07d2c8
bc9d6214
bd91e6da
bda5a40f
3cacff58
bd2a892b
bd6ab128
3abd4640
3d4d2b86
3d9f3631
3d04372c
3d9c923d
3d013f30
3d9d1e05
3b4955a0
bd952e9f
bcc4a552
bd66f4ae
bd7ec65c
bd9a4faf
3d7e798a
bd306452
3ba7f540
3c259ce8
bd7bab26
3d55bd3a
3caa3e0c
3d947ad9
bd86bade
3b42e040
bd4583e9
bd6e1f38
3d3ed6f6
3d99fb8b
bc578138
3cbe4fec
bcc56722
bbbfd4a0
3d4d1652
3ce66118
bd887525
bd2b6b25
3cbdc858
bd1d9b2a
3c1d0ac8
3c059518
3d652602
bcb89f2c
3c2d1430
bd7e3fc1
bcfd463c
bd1eb5d0
bb97a850
bd40c458
3d19893c
bca9ddd8
3d945823
bd799006
3d31c4ce
3da119e1
3bdf4b70
3cd9ea90
b93e5e00
bceabab4
bda5cabb
3be36930
3da2f4eb
3ccde1e8
3d8c8929
3c8a63dc
3badd010
3c81bfbc
3d407eb2
bd81ecac
3d9ca2e5
3bb541d0
3d7a810a
bcff2c60
bc9a8170
3d856e25
3d73351a
3d309436
bd4504f3
3d47679e
3d53ffe2
3d72702a
bd8b413e
3da39ed3
bd992e09
3c7770b8
bc16b0f8
3d8145d9
3c70cd30
3d61f5ea
3d5c087e
bd47474a
bc0f1cf8
3d0504d4
bd09e102
3d61456e
3ce405ec
bd13e80f
bd95e822
bc9f7a58
3da34bef
bcf5fd76
bc5d4fc0
3c1915f0
3b52c4c0
3d5c2ee6
bcd31f44
bcbf4c36
bc290bb8
3d5e2796
bda2fe30
3d12ea4a
bca1e154
3cdbfea8
bd0b59b5
3ce49814
bc083060
3d910e71
bc2b2ee8
3d93accf
bd84f746
bb2fdd40
bd7f4902
3c0ebf10
3d0b5318
bd1e6d7c
3d83de7d
bbac2970
3c984374
bd7cac88
bcf75b40
3d764d86
3cf82e94
bce11236
3c6ed328
3ca764fc
3d8a0327
bd87bef8
bc100e70
3da062c5
3d4ebfc2
3d8d2663
bd6c7e16
3da15c15
bd950acd
3c8f42a8
bd0d442a
bd9a674e
bcdd4b20
bd8d55fa
bce054b2
bc02e420
3d9a467d
3c3a9080
bcb6f22c
3c7f5788
3d329130
3d04d59a
3d90a53d
bd323a8f
3d37c18e
3cd57bc0
3d55695a
3acafcc0
bda2eb45
3b52bd60
3d5de912
bd0c0f02
3d915c2f
bd43fe0d
3d90e357
3d1413ae
bd0604c1
3d0d910e
baeca0c0
bd96ef44
bd6b4d50
bce3f096
3d5cff8e
bca6d4c4
3d33316c
3d5b60a2
3d921099
3c4eada8
3cd5d038
bd91e9d8
bc808364
3d4d278e
3d84d8df
3d9dedf5
3d57b1fa
bcafca6a
3d968e71
3d8138b7
3c7ce710
3d78c572
3d3e89b6
3b81a9f0
bd8e1ef8
bc2036c0
bd5d3a3c
3d1d87d2
bd993cf1
3ca29fa8
bd4aa37d
3d406d5e
bbb719b0
3d626662
3c993f44
3caad6c4
3d9b5f07
3d8e1e65
bd8811a2
bd9acc09
bd3f1394
bd8eddea
bca95eb4
bd3c2286
bd876015
3d177a32
bd7d18a2
bd7fa687
bd831a84
bd45d4f5
3d9b37b1
3d3b6db2
3bd6e020
3d90c6d5
bd978ad9
bd491bd3
3cf80b10
3d31b50c
bd3a9479
3cbb5c74
bd92b9ab
3d810fd9
3cf056d0
3ca3e864
3d8ae1db
bc8d2a64
3bfa8eb0
bc354a40
3d58580a
bce08de0
3d23130e
bd44cf70
3cfbfb98
3d9fc349
bcdaec8a
3cb38918
3d16405c
3d187cf6
3d775196
bd94fee9
3d9b199f
3d92ddc3
3d64d936
bda37b62
3d7a6d0a
3d8dea21
3d6de582
3d881da9
bd9d7ac5
3cbd9814
3cdbf568
bd8eb2d8
3d003f2a
3d91e78f
bd9d6e6c
bd91295c
3da49747
bb6ece80
3d3f6826
bd638860
bd53cbac
3cfc7a20
3da334a9
3d76ec7e
3d78a2fe
3b063ea0
3d222196
bd2ef471
bc363a80
bccf67ec
3d9c9de7
3cbc25f0
3d130ac0
bbb6c9e0
3d07c246
3c8a5538
bbe37c30
bd82274e
3ce6d0f4
3cb7ef34
bc8cf6c4
bc84765c
3d33d6b2
bc9bfcca
bd7aef4c
bd756efe
3c39c550
ba89d700
bb08aa00
3ca0f0a0
bd0ff2de
bd8fe39e
3d090c50
bd06343f
bd68cc08
3d8484c1
3d90640f
bc00bb88
bd5b3a78
3d852d4b
bd63cc2a
bd5b9112
3d9a9e25
bd9b41d2
baa87980
3d5cdef6
bd20b1c5
3ccdd394
bd5c7ebf
bca8a814
bc2595c0
bceef6f4
bd1ca434
bcab5e8e
bd021f8a
bd39d8af
3d8633e7
3d9d2693
b987b800
3d8d2e91
3cb91a0c
3d8f65bf
bd9d767b
3d5cf666
3da357cd
bcbe25fc
bcd2a1f4
bafe1080
3d4c3876
3d5e66aa
bd0f54e7
3d84b711
3d9a3145
3c3777a8
3d006572
3d042d66
bd8a13a7
3c9717ac
bc212908
3d9ad13b
bd628a2e
3c0d10c0
bd712153
3d7fb566
3d342a92
3cc67c54
3c93f3f0
3d81a357
3d92f83f
bc832578
3d86fc41
bd7077d3
bcd31c1c
3d0d01bc
3c835184
3da1b919
3d8f68f3
bb98fca0
bd9f9904
bd8399c8
bce46050
3c5c9b98
bd249543
bda11903
bd797e58
bd427ec8
3c9efd28
bbd480f0
3cb9c424
3c1d47c0
3c14f168
bd424119
bc5b58f0
3d27cc8a
bd5f8452
3d6dbc86
bc620b78
bcc2345c
bc6fda70
bda3ae71
3c3eb270
3d9c67b1
3b424a60
3a3bca80
bd14e681
3d196b44
bd8faad7
bc8a4ffc
bd35c688
3d18a9e6
bc58adc0
3ce79368
bd3e47e8
3d544b3e
3d8f5ced
bc87e0a8
bc81ed70
bc310f98
3d486d3e
bd52e964
bd6123a0
bc4b0a18
3c6be980
bc8677a0
3d9c7b9b
3d36b6e6
bd0b827c
3c7881d0
bca0025e
3d6d996e
3d3572ba
3d9b0641
3d04476a
bd75fabe
3da2a1ab
bd7de3bc
bd83f4e8
3bb10600
3d6209f6
bd1a524f
bd86186f
bd2f3a0e
bd807d43
bd44c040
3d805b1b
bd3a6864
bca613a4
baab2800
3bb80ce0
bd151e69
bd7d71f5
bc1610a0
3d0901d0
3d7690be
bcc74852
3c885150
3d5e8cbe
bd8cd54b
3d7d9b3e
3d956023
bcbb396a
3d35de3e
bda05a72
3d87a4df
bd5294f0
bd50c455
ba11a100
3c98e954
3d84bcc7
3d693146
bc88a030
3c185820
bafb8e00
3cf71168
bd88035e
bd8bc5fd
3bafd2c0
3ce59ba0
bd708372
3bb92bb0
bd995296
bd2bc453
bd7b73ca
3d82be45
bd28c4ac
3c7d89f0
bb69ab80
bd03e097
bcbcea8c
bc92f2a0
3d40c522
bcf25f4c
bd983a7e
3d2a7f74
bd6f1ea3
bc8be384
3c34fe68
bd63e5ad
bd5769c0
bda001c0
3cc85338
3d88b527
3cb07d4c
bd7271cb
bd412584
bd844f44
bd99e0e0
3d84ffc1
bd4d05ce
bc879d0c
3cf616a4
3ce31914
3c1439e0
bc1e9710
bc7abde0
bd66c7e8
3d337d14
bd1c86a8
bd8600d2
bda455e0
3d3449b2
3ce2a784
bd144364
3b9abb10
3d6cd12e
3d8edcf3
3d31b70e
3d9c3ca5
bd1bcabe
bd7356a0
bda21aea
3d81961f
3d30ceb8
bd6f65e0
bd64347e
bd38838d
bc9f8644
bd372289
bd7712bd
bc4f4a20
bb7163a0
3d982481
3d1f6040
bd11e8c7
bd372f4b
bce2a8b2
3da499e7
bd4cbb97
3d64d70a
3d21b69a
3d86aecd
3d85ded9
bd66e6e4
3ccc0058
bcc66ee8
3d6d26d2
3ab19ac0
bbcf0fd0
3c0c4800
bd68f098
bc8f9558
bd2d03f1
bd1afabc
bd99e0d8
3d6d301a
3d98cca9
3aab8ac0
bd9e1d9f
3cb85ffc
bd781f46
3d52951e
bd7a6ad8
3d4d374e
3d6b6a5a
3d6ee54a
bca311a8
bc87eb48
3a382300
bd002873
3cc47188
3c6ead70
bcbe608c
3d8d52d3
3d4023ba
3d3cd88a
bd2b2f10
bd978ee2
bd236ee9
bd648dd6
3d59dc12
bba64790
bd238d16
bc28a4f8
3ca0c8f8
bcfbce0c
bd07542b
bd1f71ab
3da2a4ed
3b3a6ce0
bd445d75
3cf43fd8
bd910717
3d1c0ce4
3d7175ee
3d835223
bd7ac769
bcd50184
3d5f7eba
3d12446a
bcd8b5d2
3ada9740
3d4c6e3a
bd979c6b
3d70e48e
bd73f912
bd173f5a
35f10000
3d680066
3d13a2fe
bbda0040
bd049eea
3c93fbf8
3d143b0e
3cb8e13c
3d84e35b
bd818da7
3b1b9da0
3d0ee19a
3d0428ec
bd0feaf0
3c87671c
3cb67d94
3d63f712
bc70bbb0
bad2af80
3c48c310
3cd540e8
bd9a304e
3d8e2853
3a184900
3c88c134
3d40fee6
bd80ce26
3d1d7c76
3d8e6d7f
3d60d76e
3d8752e9
bd1102ee
3d5d2b56
3cc2d41c
3da22f39
3d6c845e
3c921160
bb849760
3d3035d2
3d333d80
bd896e9a
3d086a94
3c8c8698
bd4f46cf
bd8bfbce
3c8f6310
3c0eeb68
3d58c016
bd84a2a0
3cd95290
3a875600
3ccc6c10
bd6544aa
3d2037b8
bd81927a
bd0dc495
3d1b16ae
3ce0526c
3caba018
bcea0d94
bcf8c236
bd2a559a
3c067738
bca975dc
3d898b55
3c40edc8
3c7ae620
bd1ba0f9
b9688000
3d3ab122
bca202be
3d05f29c
bc80a2fc
3d5127fe
3d8fac51
bc968070
bda34e2f
bc07fe18
bccfb0e2
3d50943a
3918d600
bd3e8d71
bbc632d0
bda0e734
bd5512cf
3d08dd5a
bd837759
3d9aca69
3da38017
bd967210
bc7503f8
bd3f7270
3d9f8939
bc93de68
bd198401
bc296eb0
3c65c498
3ca35c98
bd8b3baa
bcfc0ca0
bda25f31
bd93c395
bd551402
bd1cb61b
3d88cd65
3b6c5b40
bda5ed72
3d0073ec
3d302bba
bc52c790
bcd0136e
3c0861e0
bd5dab58
3d2c1812
3d1eca50
bd71cdfe
3d91bd67
3b173540
3cdb320c
3d887e1b
bd9d6a8c
bd2df7dd
bd6311ac
bda5b1b0
3cb373d8
bcc70708
bcf328f0
3cd544f4
bd96aabf
3d7699c2
3d7238ba
3d7e8c3e
3cd2fff4
3d19ae10
3bdacc50
bc043e78
3d79c8be
bd9bb92f
3d841c03
bc8bccb8
bd2ca53f
bccd2ff2
3d1f43ae
bd8b0d35
bca7f7a0
bd77ae74
bda3fd93
bd1e1518
bda333dd
bd4affbb
3cea9f68
3c0eb0f0
bd4294f7
3d125ca6
bdc42b9a
3da12ae1
bd15699b
3e1adcb6
3c7f4e37
bc4f53f4
bd9d243f
3d4b3c95
3d667f46
3db03bcb
bd0526d9
3d5e7c2a
3d29c278
3d1d42b0
3d000f6e
bd20902b
bd14b052
bd8958bb
3cbf35c2
3c0565a7
3ddc6234
3d0d1670
3a9ed275
bc60bd88
bc3c594f
bdb1fecd
bd3f4a34
bd9923fd
baa36766
3bd8991d
3d738369
3c71e340
3dbd21ed
3d1905fa
bbcfd4c0
3d9716a7
bd996b11
bded715f
bc033458
3d1dc3d2
3b3b2da0
bd18ee31
3d9a1862
3cc1ccdb
3dd9a4c9
bd4ab841
bd056816
3d3a4ef6
bd5e9eb7
3bdce107
ba25bcc2
bd09e462
bb69a600
3d0b3b36
bbdaa4fe
3d5421ac
3b207e20
3d4a6b36
3d41fede
3cafe768
bd688d88
bd9d1c37
bc3237ab
3d328763
3dac6660
3bde54e0
3d5c2a16
3bfd8f3e
3c3a5450
bd5524f0
3d0e926f
3c9a4021
bca57d56
3d738e0c
bc668988
bd9eab55
3cdde808
3a6feb1a
3c787470
3ceb000f
3d33612e
bd951ed7
3cb66c69
bd8185c8
bd935deb
bd4313cf
3da4f579
ba14bea4
3d8a5f37
bd7596ad
bb1b7a14
3da9ac78
3d2d0c2b
3d326fd5
bcc1fb5f
bd35abfb
3d0d8e60
bd9331f2
bd75eabd
bd9f0618
bd64c960
bdc04192
3bc22686
3ca4f940
bd4c8bc5
bd33397c
3dc2c041
bc4d1329
bd822516
3d26f342
bd31b0c2
3ded1da6
3d9fa40f
bcae93f7
3d0bbd0c
bbe32cb0
3bf4e101
bd4b224a
bcc52ba4
bc9682c1
3d20f30c
bd7e9926
3a8a89e8
bd5b284c
3b47a7e6
bd2ad24e
3c80fd8e
3bbce370
3aa36b2f
bd8a205b
3dde38fe
3dda7a23
3d75e69f
3e0dc7b4
bd2b6676
bd9fc7b3
bd09e9f8
3dea8878
bd2539b5
bc03ef38
3da07e5d
bda65a1f
bc85c106
bb28932d
bceb5d4e
3d3452d0
bc1d01e1
bddfb8d3
3e121c12
3d17888f
3c1edf7d
3d995ba9
bd80fbec
bd8febd2
3d1176b8
3d430a92
bae244ea
3cc7c16c
3d122a8d
3d3c2f6a
3e164859
3d099ff0
3d762d1e
3e0e0d05
bbbd3299
3ce009da
3be64ab0
bd5f5172
bd94349e
3d5ec79e
3dc30baa
bd2bfc38
3d0f8d70
3d944d71
3daa40a3
bbec1220
bd03603b
3d23aa00
bd4fdd84
bc4ff329
3d881dab
3d9e79e3
3be1c99b
bc823b61
3dcc3fa1
3cfb40a0
bd55a016
3ce40c40
3cc55db0
3d03d306
bd160c43
3dfce0f7
bba0d8b8
bd8153cd
bd0db103
3c276234
3da571c3
bd848b2d
3e0346b6
3dfc1e6d
3d821309
3ce73ff9
3d6159ba
bc873f90
3ce6952c
bd9e36c1
bd93210e
3dba066c
bdbb280a
3d4c446b
bc5e4c8f
bd86820a
3d8bd7a7
3cebfc42
bd1727c5
3c74c0a5
bd3f7c74
bbe60583
bd567c0b
3d824e6f
3bee65a4
3d94fad3
3dc05ad7
3bfc1dcb
bb7807f6
3d72e91a
3cac91ac
3d8a861b
3cc0bd8c
be0fb8b8
bbe4c4d8
bda2d85f
bdd64d63
3ca24c6d
3db952a7
3a608c45
bcba500e
3de510ca
3c252ed8
bcca5157
3c2c9240
bd3c9e76
3dd67151
bd01d135
bcc40c07
3b4492e5
bda13ddc
bcc5f4b0
bd02e1e1
3db06ed5
3c54eddd
3bd7b170
3d414605
3d87563e
3c802cd0
bd1fd98c
3c92509e
3a033900
bca73a4d
3b840630
bc31e348
3ba3cb80
3d58a1cf
3da600cf
bd007003
3b367c45
3d936925
bda5b13e
bd14bb27
3ba91e81
3cca4da4
bd43ebf0
3c07e8d8
3d539cd8
bcc47ee4
bd80d808
bcda432e
3ddc0ae5
3d826333
3d6e3276
3c593a63
bc6eb69a
bcb3bea2
bc47b850
3cfdd5d9
3d07701b
3ddcc035
3c864fa4
3d8c9e8a
bc2a5f68
3ad63a80
3c9db844
3bfb31a8
bd9cc3c6
3d00eb90
bd940bdf
3d3e9a22
3cbb247c
bd57086d
bcd5e405
bc72b181
bd46af54
3d42d7a1
bc57e518
3c0e4c60
3bbd9820
3cf038d9
bcc04c52
3c9b65cc
bd1fc6da
3cdb8535
bdc2851d
bc213f6d
3d49a3f2
3d840315
3d96e0cf
bc522c3a
ba074880
bd99ab19
3cb50600
bd3973f7
3c9adbf4
bd94b50f
bc9d2760
bd24dab8
bd3f50a7
bbe4af66
3d499323
bd166671
bcb26360
3d61147e
3d627fb2
3d9f7cf3
bd2b4e6c
3d8ba5c9
bc99cee8
bd90c922
3de99f62
bd72bd08
bc4d3c48
3d8e0299
3d8cff82
bba8dfe0
3d8949d9
3d400516
bd6c6146
3d5a78db
bcf20b1a
bd107c8f
3c6630c8
3d02a116
bc89fa4d
3dc90a22
bbe758f0
bd6c1334
bd81f889
bc71f228
3d2ebaf1
bd56a297
3d853a17
3bedcc2a
bd2ad4de
3d07d260
bc39408c
3d53ecba
3bfa8029
3d8aa061
3cc3d787
3cf3c1f4
bc1e8ce5
3cfc8c39
3cffb010
3ded3151
bd6e88a8
3d099be6
bd1c5640
bd9fbfe3
3d766fa9
bdb7d320
3d019a8a
3d9dfc26
3d426ac6
3d315e34
3d80c265
3d4c7a90
bd362071
3d9f2660
3d3bf692
3d5ef6f6
3cfb3598
3d28833e
bd2241f8
3d80263b
3c622ec4
3ba0c53b
3c819dc8
3b8b8470
bd892315
3d44771a
3d39774f
3d3d7892
3c60ef38
bd94457e
3d8a856a
3d30d740
3d5f7ea0
bd9f5185
bd885379
3b9dea6c
3d89d4f3
3d449f02
bd660e5d
bd23442f
3d53e68b
bcab6c25
bd0508af
bd93b636
3d78d90e
3d612416
bd119def
3d035a74
3d857959
bd146cc7
bd2569cb
3c803304
bc9678a8
3cd6f0df
3d582f73
bd0e0cc7
3c236e08
3c149e34
3d7c4de2
bcc9e764
3da3c57b
bcd111b9
3d14695a
3c9bac74
3d9aa467
bcc539f8
bd004f78
3c99e562
3d9e6b73
3d025cb8
bd82eee1
bcf963dc
bd25a604
3cbfcf32
3d8b0e55
bc5f5a9a
bd031897
3cc60398
3d98b712
3d88d43e
3bee9d20
3db3f1c5
bd4b6655
bd52ee7b
3d973358
3c8799a4
bd22b456
bc8ce588
bdac0e1f
3d53a30e
bc7d5998
bc5c2793
bcdf0620
bce5b771
bc0ea258
3c9af5e0
bc8834d7
3cd29d94
bda3e9fc
bd63961b
bb108100
bd4c8d9a
3d3d3ba8
3d62e7dc
bd5ce9ea
3dafce29
bd3ed221
bc97c1bd
bceaeebe
3aac5000
bd740cc2
3d3f0876
bd2466e5
bd81a9ec
3cbf2528
bd74f6a1
3d81e9c0
bd4a43fd
bc8af093
bda01bdb
3d0ca29e
bb5003b3
3d7a845e
3bc7e350
3d6033fb
bd642cf6
bd18b3b6
3d9afbe7
3d9aecae
3c6d6e58
3c1d00d5
3d817b4d
3d9d8da6
3d2e73aa
3c64b4f8
3d966102
3d55c29e
bd02956a
3d98b599
bd3617d8
bd09a485
3c2a4510
3d05214c
bc785900
bd4d8f83
3d88af2b
bd8ebcec
3c45a9d0
bd131092
3c7881f8
3cc691e8
3bad0c10
bce52840
3d7c1caa
3bb1be50
3d8ed69f
3d891ad3
3d3db946
bcd3493e
bd0e576f
3b7a4020
3d206de6
3caa32c4
bd26e3d9
bae23340
bcb6ea64
ba750680
3d82da63
bd516ee8
bd4661c9
bcecb568
bd513d74
bd9c1ece
bbad72c0
3ce76da8
3d99c715
3cc03fc8
bd8cb9b5
bd7ba372
3c960e70
3d030ed6
bc5892c0
3da1d54f
3d859d29
3c6f94d8
3d594352
3d8c6997
bd9f0f3d
bc961d5c
3d9b5ea5
bd50a06c
3c3f5ec8
3da02a47
bc82cc34
3c849b8c
3d828061
3d270070
bc2735c8
bd948973
bd3ec4a3
bd8da7d4
bd321b01
3d8a4045
bd818f3c
bb9e1440
3d6b0f4a
bd898bc3
3c9a0f30
3da1b813
3d9b674d
bda4bb81
39fb4500
bca4ca2a
3acba180
bd44cf4c
bd972d10
bca16386
3caeeb28
3d22eff8
bd2e2515
bd49dcb0
bcc5bb34
bd8b80bb
bd941f13
3da1e571
3da04935
3cd86d8c
3cafb3fc
bc340170
3d94eabf
bceb14f2
bd246fb0
bd975385
bd878ed0
bd8cd5f4
bd9077c4
bd8c994e
3d57152e
3d953935
3d78579a
3d26b71e
3d9e4a2f
3d884889
3d99ad09
3b80d800
bc1b4980
3d01340e
bd051a2a
bd3b6527
3ce4cae4
bd8f3e77
bd20d503
3d8723c3
bd7b911c
3c8db9cc
3c5278b8
bc96b980
3c347f68
3d4b0392
bd252599
bc980b74
bc3d1060
3cb152b4
bc3d32d8
3ca56234
3c8b315c
bb625780
bd07bc3c
bd6ba270
bc8d7e58
3d052aa0
bd7e34e8
bd9a763b
3cbe107c
3d7834ca
3b5d64e0
bcdff17e
bd6ad934
bd774f69
bd9dc72d
3d7322d2
bd16d209
3d82f759
3d57f5a6
3d69c91a
3c8cacf4
bc5e0b20
3d7d51be
bd91e1c8
bd5aea44
bd2b3ce9
3d687d62
3d2f5f8c
bd0d4be9
bd73c336
3d6ff8c2
bd406cf2
3d7ec1a6
bbbbd7f0
bc8b2628
bd664f8e
bd0da305
3d540312
3d20838a
3ca5c1c0
3cab1fc4
3d3892c6
3da0da85
3d9961d3
bd8c5da0
3cdcbf00
bd7dfac5
bd23aebf
bd849ea7
3d326ea2
3d257142
3d951df5
3d8cdf43
bd9139a9
3c5c1e38
3d806da3
3d1b957a
3d86b657
bb938f60
bc5297a0
bd53c200
3d4c22d2
3d890e7f
3d2c27da
3c7f31b8
3d673196
3d654b02
bd6436e8
bd8b7ece
3d9ac89f
bcec552a
bc09bb78
3da0f625
3b4eac80
bc637dd0
3cf078a4
bd64ea0a
3d5108fa
bd1c4f09
bc6bb938
bd23c2b3
3cb78c20
ba983700
3da32ba3
3cf3cf38
bcafa14a
bd9198b4
bd5302fc
3bce0730
3d750f1e
3c1d72a8
bd863230
bd31e807
bd89168e
3c46cea0
3c464c88
bd24b8b5
3d49aeaa
3d79eb8e
bd78f36c
3c418c58
3d272412
3b95d350
bd3ff441
3cd06424
bd68e85c
bd27ea81
bba5d990
3d182c6c
bc5bfd30
3d0173e8
3d910d4b
3cf344ec
3d9e9c77
3be55970
3d7bcc7e
bcccbe44
bc86c0d4
3d154f28
bd4e7590
bc855684
3cb2ffd0
3c8e07b4
bd5636c0
ba6b0600
bcbace58
3d79aaee
3cd6b41c
bda0967f
3c0a75f0
3d145b90
bc53d198
bd79d9c2
bd58d40e
3d09f9da
bd2ee02a
3c155678
3c19bbe0
3cae6284
3c3dd418
3cc9339c
3d614e12
3b6009c0
3c824b48
3d59a322
3da5e15b
bce03d40
bd0f29b6
bd5c9907
3b2bb5c0
3b9140b0
bd917989
b9784200
bcb43c98
bd6d50b1
3c6a04d8
3d322598
3ccc35f4
3c4ee728
3d71fe0e
bb270c20
bb5451a0
3d9ec80d
bc1efe50
bc168300
bd352135
3d434e5a
bc9ae64c
3c34a7b8
3d3885de
3d0929d6
3cc75350
3d039c08
3d01cbea
bb6a6a40
bd1b29ec
3d227236
bbb71f10
bc995144
3d1e229a
bd025e9a
3d19929a
bd5ba978
3d84815f
bb1a7520
bc890970
bc73bc08
3b104bc0
bd83e7ba
bc8e6ee8
3d20da96
bd67272c
bd998dcf
3c0d1e38
bab13780
3c034a80
3d1abecc
bc37acb0
bcf73186
3d9062ab
bd31e127
bc229048
3cbf595c
3bfb5ce0
3d0b9a5a
3d22ed04
3cff7ad0
3d326f18
3d321184
bd06add5
bda5a681
bc0dfa48
3c96f694
bad35800
3d3daf1a
3b2078a0
bd56248a
bd952ce6
3cd271d0
bc2ba758
bd7803ec
bcdda6fc
bd6f7f6c
3d05365e
bc928874
3d9c8df5
bcaf7a5a
bcb514a2
3d85abfd
bc8770e0
3d4a599a
3d30bad8
bd34ab5b
3d44de06
bd9aa5b1
bd5f9723
3d3fe38a
3c5417d8
bd9cac7c
3cb2e5fc
3b5bdf40
bd4d0021
3d24ad94
3a9b2e00
3c92a1b8
3ca22ae4
bbd86430
3d9a7bad
bd397529
bccbfad4
bd8bc1d2
bbbf98c0
3d1b4438
bc6954b0
ba011180
3baa3f10
bd245bb1
bd955008
3c6baf00
3d354346
3d49d676
bd8fc76e
bca87648
bd190a37
bd7750e4
bd35b433
3d780b52
bd66ae60
bc98eb98
3d55839a
bc9af3f6
bd028a67
3d1e1cfc
3d418e02
bda33c5e
3c18ef80
3d5bf4ce
bd3061f7
bd9ef3c6
bca48adc
3c9aac38
bd931fe4
bc221498
3cb990b8
3da43c73
3d1de1ca
3cc4c848
3bcabf60
bd66bc15
3d9f0c35
bda3ae9d
3d37e376
bd92c530
3d1cf180
3ca96c74
3d69c6aa
3c8c4e80
bc98471c
3d79ceca
3cca563c
3c1f44e8
3ccaa668
3d9d0513
3d47c8e2
3d8328c9
3d976365
bd9aa179
bd139b01
3d262420
3d48c6f2
3c9eddd8
3d1c8260
3d21e834
3d447eca
bd8fe1c6
3d687bda
bc86b314
bd1ef83e
3b0be8e0
3cc62f1c
3da464f9
bade2700
3d0ae044
bd084c15
3d972f89
bd94bfc9
3cc7bfec
bd0de2a2
3bf26b70
bd997344
3c8ff748
bd54cd95
bc85186c
bca2f21a
ba00d180
bd6ca3e8
3c97f530
3c73c778
3b1d5940
bccffcd8
3c04fad0
bda244ad
3d593ac6
3d2eb838
3d9c5523
3c5193f8
bbe0e030
bd8052e2
3ab7f780
3d0ede80
bd8a25b0
3d128b10
bd7382c0
3d431276
3ca0af60
bce4ca7e
bc8a4a44
3d3d76c2
3d7f58e2
3d281906
3d79ee9a
bca579da
3d44ea2a
3c17ee48
3c3a6d10
bc9e5a34
3c293af0
3d2e72e4
3d0da76c
3d605516
bd0a98fd
bd93d534
bbb942e0
3cd95730
bd3def31
bd72b42a
bd4f03e4
bd8d7231
bcb579dc
3d9b799b
3c363578
bd9113e2
3ad25680
bd921403
3b63e540
3bbf9680
bd841e3e
bcd59d68
bcaa7902
bd2bd6fb
bd990fb1
bd568562
bb4546c0
bd7bc366
3d4df1aa
3c002d58
3da1bc57
3cb063f4
3d874cdf
bc979090
bd7cd9ff
bcad1866
bd542e28
3c3c9720
3d97e20d
3d896095
bd39f05e
3cf3c4a0
3d4da0a2
b9183e00
3d5d2ae2
3d34a7f2
3ca4cecc
3d878ec5
3d93c7c5
bd9e0ec4
bd0e396c
bcba02c2
bb021960
bceeac60
3da60dcf
3d8c8191
3d25e0c2
3c6953f8
3c7e6988
3a9e0300
bd8bb963
bd4ce43a
3b775ec0
bc1ec1f8
bd45e75a
bc327848
bd0200f6
bd5698ee
bda2cf68
bd943aa9
3d199d50
bc8d5a90
bd5156ec
3d1f327c
bc6e9e58
3d5b70e6
3c1867c8
3da2c7ef
3cc773f8
3ba47c50
bda4bba6
bd2872ac
3da45601
bd6c678f
bd41ae15
bc2d2f08
bcbdd586
3cb36304
bce1828c
bd9b2720
3d18c630
3d962581
bd3cef4f
3c5d3048
3da0e165
bb324a00
bcdbbe0c
3cc61318
bc034620
3d71b246
bd70a047
bda27eb6
bd684f5e
3d0b661e
3c82bf84
bb8eb4c0
3d5718d2
3bbfebb0
3b920990
bb891390
bd10cf6d
3d6a6d4e
3cdb1030
bc9e89da
bd5bf686
3d1e6c6e
bd5459d6
3c1d5700
bd884b4d
bc436490
3d6c430a
bccb0c2a
bb50ef00
3d09c600
bcb54d22
3d680396
3d2cc2ea
bd0e607a
3d5bd1c6
3cb3aa90
bd0263c1
3c169ef8
bd91d28b
bd7aef7a
bc15ab68
bd655368
3d664f26
3d73295a
bc97c220
3d11961c
bd620d78
3d015526
3d82869f
3d64775a
bd8349d3
bd6222c2
3d0db64a
bd9777fa
bcaa6e0e
3a3b7680
3c752020
3d40f4b6
bb740a60
3bafca30
3d2352f8
3ce8efdc
bda12ab7
bd8a6f8f
3d0aa8be
bda2085f
3da44a15
3cda7a0c
bd714f27
bd90efa3
bc9d7258
bcd38544
bd17610e
bc6cad60
3d5d659a
3c2dc9e0
bcfa0704
3d6089de
bd083e8f
3ce3e564
3cd17e90
3d94faaf
3d9b9821
3d18d418
bc213d10
3d01d716
bbccd4c0
bda0d907
3d3d53ea
3d218f92
bd9c9c53
3d0ebb58
3d301964
bd8e07c3
3d3bf8fa
bd92b8c7
3c8d6334
3cbd5dec
3c4c4640
bd754984
3d7e7df6
bd72fb9a
bd7efed4
3b1f6100
3d3c6fde
bc5c64d8
bd82cd23
3d645f22
bd983bb3
3cb4b7cc
3bf6abf0
bd5262a6
3bc57f10
3d4d86d6
bc7f3a18
b9c4b400
3d3e802e
3cfae024
3d1ae098
3cb79198
bc0d61c8
3d0f5fea
3c5b53e8
3d5158f6
3cc66038
3c8c28dc
3da26173
3d0f6164
bd688aae
bd9aab32
bd0906cd
3d1db248
3d8f0b91
3d649902
bd3236ee
bc9c62aa
3d9a6809
bd93cd63
bca9db36
3d57990e
3d910fab
bc911994
3d969601
3d06b4f8
3d08df32
3d6320d6
bcae55ca
bc0efac0
bd336893
bc741430
bd48c6c3
3d839731
bd7620f2
3d46749e
bd9d0855
3d50592e
3c7407b8
bd98a7a5
bcf6eb70
3cf1d5bc
bd1b8fcc
3d39d606
3d900641
3d403576
3d352cd2
3d92ad71
b6c88000
3d579176
bcf7bcb4
3d3416b6
bcf3c622
b8d52800
3ce05ca4
bc125490
3cd99814
bcc2c2fe
3d44df1e
3b51b980
bd39f1f3
bd492a1a
3d2722e4
bc652b20
3d251f8e
bcb6a784
bd0daaf3
bd4d7d8c
bd442121
3cb41790
3d475dd6
3cae4658
3cdea090
3d8a255f
3d17b864
bd8d8462
bcc3f44c
bb39af20
3d9f94a5
3d94d959
bd53eb29
bcc6e432
bd5eaffe
3d537b0a
3ceb0058
3d221c56
3ae2f480
3d49e8de
3d7e6376
bd45132f
bc915660
bd038bee
3c827170
bc96dfb4
3d8a00a7
3da02ec5
3c9be558
bb79fb00
3d488b9e
bcb03480
bd6623c7
3d9b8851
bcd589f0
3ca9a74c
bd0755cf
3cc16a98
3da4bcbf
bc693670
3d0bc1c0
3d26f900
bda27cb2
bc2d8650
3d2809c6
3d8f4255
bd204a99
3d89d825
bd1fce3c
3d68d82e
bda3f3bb
3b8b4360
3d716f16
bd85ee2a
3d1efd8e
3d92fd83
3d892c81
bc34ccb0
bcc31cde
3d6e21b2
3d37e732
bd1aee6d
3d2b9dcc
3be6fad0
3ccf01d8
3d8de6b3
bd722d41
3c71d340
3afb7200
bc498678
3d734dbe
bd968430
bd82de9b
3d25bfc0
3ca0a750
3d82d8eb
3ca76720
3d955bf3
bd0b2cdf
3d8e0309
bd6f07ae
bda1bf0f
3d766bda
bd8a99de
3d9a03a7
3d8dfa8b
ba96b240
3c12e618
bc0ed4f0
3d736436
3d95d0f9
3d893cc9
3d92869d
bd5a0682
3d184b72
bd755312
3d67913a
3d8d19cd
bd84ba5f
bd3193ff
3d9cbf6f
bd8211ca
3d38274a
bb412180
3cfe3920
3d977865
3b0c52a0
3d15d7b6
bca14a96
3d34578a
bd8ade32
bd6008e5
bd39c66a
3c92c5d0
bd30f308
3c8f6904
3c10d060
bcec1664
bd979062
bcf6455e
3d323f92
bd0cd534
3b9f20e0
3c3ca920
3c978638
3d6c5372
bcb19434
bd70a314
3d680426
bda247a1
3d4c2dda
3d60525e
3d743166
3c309a38
bd897702
3d1ce10e
3c57d270
bd61b4ac
bd933411
3d8b19a1
3d2b00f4
bd44937a
bd9215bf
3d8a7d2b
3d947e33
3d91fc95
bd8a6e77
3d01c1f0
3d5b8342
bd5850b7
3d328c28
bd9f31cd
bca64f22
3d9e11a7
bcebd912
bd89390a
3d8adf91
3c9ce5f0
3d53dbaa
bc57f1a8
bc023c50
bccfb792
bcce9a10
3c600240
3c1bc760
3d5ceee6
bb9adab0
bd4aa875
bcbaf73a
3cc326c4
bd489b10
bd524f19
bda61bfe
3d4b680e
bc4b45f8
bd02dc72
3d22a94e
bd237bba
bc00c470
3d2151ae
3d835a37
bd83f562
bd8252b0
bd08b318
bd65aa99
bc2df460
bcb0a254
bc475c50
3d253354
3d85e4d3
bd827c19
3da193eb
3cebdf70
bceb8ffc
bd0a8016
bd039940
3d859a09
bd791022
3d10210e
3d815b71
bd0dac1b
39c20f00
3d3ec1ce
bd922dfa
bd5d87bc
bbc80120
bda154b6
bcba700e
bd95ad70
bbdb3510
3cf12de0
3d98c1a1
bcbdf10e
3bb71360
3d9cff07
bd98fc68
bd36dd6e
bcbf1cec
3c3e5cb0
bd0d802f
3cbac030
bc230fc8
3d91a2ff
3d2c6d96
3d8a969d
3cc0a950
bd9afc3a
3da45d23
3da0e94b
3da13c5f
bd07980a
bd4f9c61
bd56c768
bcd1e004
3d8f974d
3d2f00a6
bd95ac99
3c9e6a78
3d948293
bd950d9c
bcebe4ca
3cbc7f64
bd9d6c7e
3d9fa4ed
bbe9d990
bd75a5e2
bda59c2c
3b18f6a0
bd098170
3cd56ed8
3d5ee35a
bd911536
3d3d816e
3d45b742
bd1eed1c
3d9b4c77
bd18b94a
3d248296
bd5bf7d2
bd4798d4
3c961e38
bd694526
bc644870
3da495fb
bd7276b8
bb0bcca0
bcf3838a
bc830494
bd9c755c
3be2a590
bd8faf5a
bd0a1897
3d8579f9
3d4d87c6
bb469980
bc8850e8
bca46f28
bb3c7020
3be48540
bd1f7508
3d3356ba
b8b97400
bc2d9a70
3cb39690
bd8aa4ee
bd405d7f
3d4e7026
3d4fc39a
bd76fb8a
bced9780
3bbc85b0
3ce8df70
3ae2f000
3d079fa4
bd463c22
bcfc476e
3d4c21be
bd961406
bd0e4f48
bd3bdd28
3da25fe3
3cc482bc
bd9e5992
3d4221fe
3d2562b8
3cba2ac0
bd8fd4f2
babc7680
bcac7638
3d5693c2
bd934814
3d7f19de
3d9fbf95
3ca95970
bd4e1bc6
bc8386b8
3c7f1500
3c51c940
3bdf7260
3d62c6be
bd79241c
bd0038f0
3b865d20
3d4fd67a
3d37f83e
bc1af490
bd101763
3d725d16
bd2b6351
3d6cc4f6
bcabc866
bbdeb7f0
3c8df7ec
bd2d5921
3d16eb6c
bc569a90
3da229ef
3d1833ae
3cba2070
bc87f4c4
3d30e3de
3d1a4d4c
3c66e2a8
3da097b9
3d813587
bd760a47
3d7ba752
3c27d210
bd59df98
3d5eb6ee
bd8f01b4
bc9757f4
3d098f84
3cccb154
3d62365a
3d58a5aa
bcfc53a2
bcf32108
bd7d3628
bcbcbe18
bd7a89ee
bd6965c7
bd6aed09
3d0bc886
bd33b3ed
bc50f9b8
3c83c08c
3c4def08
bd329163
bd8d2321
bd55643a
bd552cd4
bc5cf828
bd8555c0
3d81aecf
bd2b2c1f
3d8942b5
3b25b3a0
3d1a8614
bcbb2260
bca04ebc
bd9e74ac
3d8b065b
bd70805c
bd8f0a0f
bd8467c8
3d5c82f6
3cde21c8
bcec7470
3c069528
bd9c208f
3d916d7d
bc8303d0
bc39af40
bba98050
bbea5e40
3d8687eb
bd843888
3c4bf210
3c3292e0
3d37a54e
bcbb1c36
bd285cc5
bca1b6b4
3d9e9021
3d14b06c
bd922374
bca04db8
bda5416e
3d4a989a
3d908029
3cb99f84
3d600836
bd8ecccc
bd2446b0
3d2ef33e
bcbdb87c
bcd34b08
3d5a8d02
3d4ead8e
bb935380
bbd67fa0
3cdf5048
3d96b36d
bb9c2ba0
3afa2000
bd289ffe
bcd90d4c
bcc07158
bd593ff3
3d513856
bbd5fff0
bd991bc2
3d8d45b1
bd77e09e
bd9d9a40
3d7c84c6
3d397d66
bd134bb3
3d3c1252
bd7a5d9a
bd95dbce
bd9eab14
3c89ceb4
bd135005
3c9357e4
3d7d0b92
3d0b3c5e
bcfe46ac
3b95d7e0
bbaf4550
bbd6ee40
bd79d15c
bd90c0aa
3d25bba8
bd8c57f5
bd963ee4
3d87cb2b
3be1dad0
3bfc7a60
3cbdb104
3b1f9b00
bd4e1ea2
bd1d7bea
3cfcf52c
bd0b464d
bd1ac6ed
3d9760b3
3c91de28
bd5b5d48
3ba16450
3c3b6d88
3ce0c3dc
3c2b0970
3d8239d7
bd2e1eb2
bc2d1948
bd3b3b1e
bc13a3d0
bd2c3678
3d592402
bd27b57b
bd39d5ce
3c80c540
bbd6de30
3b1f57e0
bd6b2f5d
3cc5c480
bda5e3b6
3cf1a09c
bd2725e0
3da36903
3d9e2e9f
bd49978a
bc5fae60
bd8f5592
bca47bda
3d5d207a
bbae8e50
3c709988
3da11509
bd5f1eda
3d7b6afa
3d20c89a
3d3e6a36
bd9b6a1a
3d44e7d6
3d542706
3d1b4cf0
bd8279d1
3d5767fe
bd8ce25d
3d4479e2
3d33a0ce
3d76b3b6
bbc43f30
3ce6ef74
3d506292
3c2abc20
bd01dfde
3d85904b
3d4957ba
bd0cf5c0
3cf804dc
bd9b23ba
bc97e820
bc91dc20
3d40c4fe
bca0cc6a
3d22caa0
bd54d22a
bbf58550
3bced560
3d3fe352
bd6115fb
3d873845
bd976bdf
3d859ebf
bd1858fd
3d1b2956
bcebf8be
bc839640
bcbe29e0
3bcdfd50
3d8f4821
bd895e64
bd1a1a67
3bded390
bc647968
3d29c390
3d0deef0
bd904284
3d11fa04
3d41fefa
bd936c4c
3d28f6a4
bd1ab407
3d7124c6
3cc53770
3d523e12
3d58900a
3da4c685
bbc4ee60
3d8dce2f
3c4d9ab0
3d548542
bd175aee
3d85742d
bc8f68dc
3c577b28
3d270338
3d8e9509
bc1f0a80
bd3edf57
3d98c4f5
3c1fe218
bcee9e24
3cf239b4
bcc0ca7c
3d696ade
bc6f7e88
bd80aef4
bd1dd2d3
bad174c0
3d3a27fe
bcf63352
bda2a97f
bcbafc76
bcc17578
3c92cbc4
bbe45760
bc629ce8
3cda69b4
3ca3128c
bb8a1120
3cc66d28
3d4570ea
bd74f680
bbeb9ed0
bd934396
bce35754
3d375b06
3c6b0050
3d6e1ede
3cb8b1c8
3ba93140
bcededa4
bd10b939
bcdce4e2
3c62dee8
3d72ffae
3d81e0cb
3c0c7148
3d62b57a
bd1fd7b4
3d9b0d13
3c1b4018
3cef5874
bd07788c
bd9e8561
bd9c2505
3bf06140
3d023374
3d4b4f96
3c7c7d20
3d7479b6
bd09626a
3cf13098
bd4ebcdc
3d19d586
bcbb2b0e
bd98a40c
bd0f2403
3d858009
3ce976f4
bba54450
3d061946
bce36b9a
bb292de0
3c889200
3cdbba70
3da5df8b
bc8f23cc
3d976c63
bc09ea48
bc45d030
3cc77308
3d124f6c
3b1e0b60
3cf0dc3c
3c230650
3d3ed8e6
bce5263a
3c84d40c
bd7110cc
3c86cd34
bc1e1398
bb86e920
bbff0fc0
bda48f57
3cbd3f6c
3c52a070
3c98e758
3c9b6778
3d59819a
bd772ccc
bd8d672f
3ca25b64
3d0fd8b6
bcfe325a
3d8938dd
bda3884a
bc777f10
3d5f8862
bcdb92dc
baf15480
3d656bc6
3c559fc0
3b03a780
bd4f22db
3caed824
bda0c83f
bcbc58de
3d60dcfa
3d9ab44d
bcad4fb8
bc14d7f0
bc5a1b00
3cd8da08
bc9d8f38
3d13c878
bd85a746
bd42da94
bc7ca990
bc540420
3b6f5900
bda3a00b
bd0cbc8c
bd3a32e6
bc831644
bd4faeb1
bd6fb8c0
3d9ed597
3d915a4d
3d71a06e
bd758d44
3d9d61db
3d03e1e2
bda412ed
bcbd6c66
bd78ef49
bc4a2728
bd3c215e
bcad5176
bd8f50d4
3cbe3ac0
3d371a3a
3d66d70a
bd5cb4c4
3ad71dc0
3d4dde6e
bb948c20
3d25172e
bc93ed60
bd77a4a8
3d439f36
bc8ae614
3d4319da
3d8a0b33
3c490408
bd20da39
bc91f7dc
3bd8b4f0
bd3d672c
bda27ad9
bd67902a
3ba23350
3d3645b6
bd8de261
3d8f18d5
bb854690
3bb1fc40
3cd7fa60
bd26e0b5
bb58bd40
3acfd180
bd374d0f
bb36f6e0
3d72289e
3cae69a8
bc61c388
bd261d40
bd11380f
3d9ad52f
bd76f80e
bd8fac28
bc0a2a58
bd076031
bd92a46b
bd734cfa
bcf59ec4
bcfe4f44
3ca5e0f0
3cc053d4
bd9b184a
bb0d3d40
bd9d8179
bd67f62a
bd8cbacb
39e73f00
3d1ec22e
3ce2afb4
bd924ce9
3d63a186
3d9d9e65
bd634de6
3b3a2b60
3c17e790
bcddbd16
bd05b441
3d457ec6
3d2f224a
bce25fb2
3d7f34be
3cac2654
bd10d6a5
bd999649
3c9dd084
bd4e7fbe
bd52c71f
bd56f3a8
3bc43c10
3cc71968
bcfcc4de
bc178a48
3c89efac
3d962935
3d807ca7
3d2eb040
3d824d87
3d7dd1e2
3c0e17b8
3d066340
bd9ad3c0
bd235ad6
bce880fc
bd8f596d
3cf80278
bd90f31b
3d8d8421
3d276534
bc7b7b48
bb892830
bcbcb172
bd958f03
3cbd3f30
bd393820
bd79f104
3d6eae1a
3d9ad027
bd27f310
3c972664
3d398322
3b787040
bd8541e8
3d41b2de
3ca7a7f0
bd0eab71
bd2d8ece
bcd3f2ee
bd5d40ce
3d8fd177
3d37f4fa
3d96bfaf
3d55c3ba
3cee4f58
3d3ebdd2
3c1fed98
3da5847f
3d6ade76
3cddb6f8
bd0c1b03
baea5640
3d187710
bd507874
3d214f4e
bcfacab2
bc94bdb4
bd6937e9
3cda5154
3c9a8540
bd9ffcbe
3d38e9a6
bd6ae554
bbc80a90
bd882428
3c52cb60
3bfc0690
3d988239
bd0b1c9c
bd82e06e
bd867611
3d17a8fa
bd81a0db
3d02d1a8
3d0c1cb2
bd5809a9
3b0b0f20
bd69619f
3d5abaae
bd5cdab0
bd4532f1
3d624506
bd67116e
bd5d18c6
3da0b235
bbf1cd40
bc16c470
bd81daa0
3d7fd176
3d37f5b6
bda4a437
3cd536b8
bc242f40
bd12f158
ba7d9780
3d8f7833
3d012c82
3d312420
bae874c0
3cab4d70
3c8b0878
3c4d2718
bd799fc3
3d2e5da8
bb53c5c0
bbdedd20
3d960c8d
bd6f14be
3da5ee4b
3d985297
3d71756e
bc1fa590
bda3c1b4
bc991200
bd51d3ab
3bbbcd60
bd33cdd2
bd5a4288
3a3b6400
3cc0a5a0
bd02ccff
bd2d5ab1
bb6ab580
3da1db07
3d95f5eb
3b947030
bd8664cf
bc38d660
bd6c4264
bda317cf
3d20ead4
3c181bc8
bcf9fdba
bd9f206a
bcc3f86e
bb779200
bd48e7db
baddad80
bd614e8e
3cf864d0
bd15b93b
3d260070
3d15baee
bd26fa28
bd84baf8
bc2039b0
bcae3670
bd29498e
3d2602a6
3d28b342
bc92586c
bd3b4a10
3d1832d4
3b9ea1e0
bda3ffed
3d53394a
3bb1b1f0
bd36b03b
bbbfeda0
3d9fae8b
3c849cb0
bd97273e
3d45d9ea
3c5ccf18
3d5702ee
bd9e9201
3d91abeb
3c2589d8
3da1b349
bd9ee71e
3d8359ed
bc2c9f10
3d8fdb51
bd3d5765
bca83fe6
3c75cfe0
bd9ff715
bd84321e
3d83ab45
bd62697d
3da3ee83
bd9c2a31
bd2273c6
bd6db7b9
bd929649
bd4ac3c0
bd8bdfb4
3ba4ac50
3d98d541
bc174498
3d810a5d
bc6952a8
bda542a0
bd29842d
bd8732fe
3cab86bc
bd8df55e
3d540302
bcb1105a
3d93ab3b
bc312550
bcf71b0e
3c986890
3d928e7b
bd99226b
3d977b91
3cd6a95c
3da1fcbd
bd857d9b
3d9feb69
3d2ead88
3d40aeda
3d87f5d5
bd516448
bc452a88
bc493738
bcd7501e
bcae0e4a
bd0ea14e
3ce965cc
bcd36600
3d905d4d
3cacc530
3da30bc9
3c2f4960
bd5bb3fe
3d8f1feb
3c99e858
3d18b51c
bd8a059c
bc696a40
3bc4d530
bd39e6d1
bd6fd478
bd919f1a
3c31bab8
bd78ce7a
bc168690
bd6812e6
bd962434
3d1d63e8
3c6efbe0
bd838bee
3d8b94c1
bda06947
3c0743e0
3d713afe
3cdf3e7c
bd88e610
3cd04e48
bc988a10
bd28df71
3d241c10
bd01101f
bd66f5f4
bb8db830
3cbcdfac
bd5be02d
3bcc7920
bd5134c0
3cacbfa0
3d9a4015
3ca088d8
bb17d1a0
bcc25a48
bd816afd
bd1901bd
3d67771e
3d7470c6
bd4810da
bd9d5657
bd0a3cde
bc3dce98
bd55c8fc
bbd0c5d0
3d871c39
3d413372
3cc7e5cc
bbb1c4d0
3c9f2d40
bc097200
3d8f4f23
bda43f8a
bcebea6c
bcd9e560
3cf0d210
bc673f38
bc642908
3c163308
3ca08c8c
3d062454
3c54e9e8
3d93b037
3ba0a760
bd99f0d0
3cd64564
bd9d9f09
bc810d48
3d0a32b4
3d9d79cf
3cf7b7f8
3d7c1a5a
3d87c9ad
3d953f8b
bd3262f3
bc12c6b0
bd24e876
3d232a30
bd7908d0
bd8559e8
bca3786c
3d3b216e
3cbbb4fc
3d97a5dd
bd96c497
3cea7a44
bd417215
3d4112e6
bc952110
bc94fa18
3d7cfafe
3cb63460
3d542fe6
3d474e62
3caa9410
bd91f07c
bd477f8a
3be1e890
3d50105a
bbf330e0
bd4a2bd5
bd706658
3d2056a4
bd0216d2
bc6e22e0
3d978d5d
3d6903d6
bd807f30
bd9d4664
3d73c33a
3ca69304
bd896c6e
bd616052
bd619587
baba33c0
3c9acd50
3cf92ff4
bd04b163
bd68f720
bccd1eaa
3c81c7e0
bd7220be
3cdd39d8
3d1e14aa
3d28977e
bd04c5c4
3d8762db
bc8e78f0
bd57f0fc
bd0dbfdb
3d927855
bcb6bc1e
bc0290a8
3b8b22f0
bd1c97c5
bd3ddb96
3bdc38d0
bd38a43d
3d02765a
bcc01fa0
3d63369e
3d9997d9
bd8f726d
3d07b27a
3d57438e
3cfe8efc
bd0a7700
bd864480
bc9cd5e2
bc8c1c40
3d0260f0
bcb53c96
bcc0d068
3d3f3fb2
3d98c665
3d9ab3b1
bda348bd
bd91fffd
bd347e95
3d15d2f6
3d06407e
3c846484
bc88e504
3d6c5066
bd9a491a
3d81c0d3
bcbaec70
bcf242ea
3c46d270
bd3f89fa
bd23d3c6
3d71a1a6
3da03327
bda55336
bc7f0ae0
bccc3212
bd95b215
3d9d03b3
3bdacdf0
bd0a6886
3c8f5da8
bd9a22ab
bd9cc361
bd145e2e
bd6cd20e
bd493419
3c00c280
bda15650
3d2b161e
3bcba5c0
3ac81700
bd2fc1d0
bcb7ecd8
3d740d7e
bd8ef82a
bcd0ea8a
bcecd534
bd1874ca
3d5ba666
3d5383be
3c3f6138
3cb26e50
bcf1a442
3d84a101
ba3d1c00
bc6ddd60
3d786abe
bc8d4068
bd4410bf
bd36fd3a
3c26a238
3d29caf8
bd8cfd24
3d888c27
bd663baa
3ccd32e8
3d78edb2
bd59bc3c
3d8a07d9
bd6fc276
3d7df62a
3d4c38ae
bd05100b
3d0c2e5c
3cbc5044
ba85e6c0
bcd73fb2
bb613040
bcf59e28
3cc636e8
bba758c0
3d255a3e
3ac42940
bd0b1ae8
bd243150
3d43b66e
3d2f145c
bd8248f2
3cd80004
3d8ae723
3ccf5ea4
3d63d812
3d42fa9e
bc32fdf8
bd97ec3d
3d18a082
3cf3ab54
bd8e55e9
bd889686
3cf4d6c8
3d9d8bbd
bd7b3e70
bcdb2a78
3d241ee9
3d4c4090
bd9b877b
bbd91b80
3cf0bde0
3db312a1
3d071ac8
bcb15c9f
bd25ec95
3cd6f704
3c88d8bc
bd45cbb2
3d9c9c8f
bbad1203
bc48d158
bc98b165
3d04093e
3d95dca5
bd92cf86
3ce573ae
3d274b8e
bd1c82d1
bd7ee5c4
3d986151
bc7ef1dc
bd9c6d4d
3d2a4550
3cb4294c
bc9754f4
bd819198
3bdba6ef
3c23862b
bce7a150
bc4968b0
bca924fe
3c9f62dc
bd1a7fc5
bd3db181
3cfc6b01
bc87b5cb
bd09b928
3bdef69b
bd3820c2
3b9e2bd8
bd8d01b6
3d155963
bd8729c1
3d84c9e5
bd9b0582
bd89e739
bca9837c
3c3e2911
3c3bfb6e
bd32dee9
bda507bd
3d0e4a22
bda01095
3da28e8c
3c886499
3d86f0d6
bda09e75
bd068b09
3c38e80b
bd44e7a6
bda0f611
bd92103e
3d688b72
b9cf6600
bd51a4fb
3c8d5dc4
3ca29f89
3da533e3
3d366236
3d592b4e
bc87d95c
bcb62305
bcc92286
bd22f43b
bd73bf57
3d9ed29f
bd879675
bc488340
bd11002b
3d8f4931
bcbb2061
3d4e26f9
bce8a394
bd59f72f
3d74dabe
bd0f6cf3
bc561318
bcceb5f3
bcc13e85
3d5ab095
3d91f8eb
3d21d92a
3d4a553a
3caa6c44
bc32dc3e
bd3f0853
3d3f4a84
3cb024a8
3b778360
3c354ca8
3c86a887
bd4b1e64
bbf14f41
bd5c6884
bd170d66
3d0629dc
bda0b76f
bd8bcf6a
3bf25c04
3da6a7e6
bd4004d2
bd6efeea
3cce70a8
bca5fd4a
3d87982a
3caa104a
3d66d9b6
bd89b031
3d955807
3cb5be6f
bd9a2efb
3d20cd30
bc0fea30
3d9ad6ef
3cc37381
bd6c0764
bd3a3cfb
3d1e906e
bc87298a
bc967acb
bbd77a07
3d2393fb
3d5c7786
3dab7f6d
3d5a848f
bd74279f
bc8027e1
3c91adf5
3cc96f98
3d9cfbcd
3cedb960
3b8baea5
bd42956a
bd801505
3cbdce07
bd1446ec
bd332376
bb4699e0
bc9c4df3
3cf59b31
bdac6647
bd875429
3d84db31
bd2be251
3d134e01
3ca76250
bcd1a493
bd38edf3
3dbd600f
bcedecf4
bc2b6228
bcdccff9
3d4fdf8c
bcf501a6
3b93578e
bcd878b6
3d465b72
3dc6217a
3d48188a
3d743f4c
3da05fe8
3c8cf014
bc7682d0
3c762eb0
bc0ade00
bd3e019f
3cd66348
3c95e8fd
bd9d25e3
3d748a27
3d6e841a
3d8a5707
3cb68f51
bbc54a63
bd011e35
bc4d4b5f
bb4ac8a3
3cf6b788
bc6b61ab
3c9ae963
3ca3d93f
3b4bb160
3dadb5b1
bd8c487b
bd901475
bd4c54a4
bda0e354
3d16bc61
3ccd897c
3daeb512
bcf4025f
bc8ea8b4
bd0cadbd
bda5d883
3d1b5eca
bcc2a352
3d595aba
bd954b49
bc8552fd
bd9ee83f
bd887693
bd7d5e58
3ce16ccc
3ccc4c43
3d1c8dac
bd982674
bd494978
3dab1df7
bd53a82c
3d821d4b
bd0c019b
3b8c7e16
3ca4ffc5
bbe696f0
3b1fdb73
bcfa2588
bd7a1dce
bdb4ec9b
bc42debb
3d9c940f
bd51051d
bca3301a
3c8efeea
bd4a770b
3d8bda52
3d5c49b9
3d965594
3ca3e265
3da097b9
bd5055dd
3ada51b1
bb345dc0
bce8d87c
bbdb3bb1
3d35e626
3a9867ec
3bb0ac20
bd5d94d7
3d404a0a
bcb6dee0
3d9262cd
bd12b4a7
3ca170e6
3d753896
bd8450b3
3d34d897
3bc78351
3e27193b
bd5445c5
3a8a27f0
3c8689b2
3cabc56f
bd1a2d19
3de8f4eb
bd905823
3c913e4c
bd86ba06
3d50a458
bcf98e51
3cb07364
3d2af17a
be032c7d
bceb42fe
be21d67b
bc9b6829
3cec138c
3de8769e
3b58ef30
3c5c0333
bcb25df7
bd5cdc1b
bd304b41
3d8b8c8e
3aec27cf
3dc1db81
3d2224f4
3dbccd74
3da47b13
bd22d854
bdd096e8
3ca53f35
3c40bc87
3cbe8fe8
3d613005
bd90a54d
3dc1c6c9
bd5af54b
3dc27701
3d50cad9
3c6f53c8
bd3dc2b4
bce234de
bd6cee8c
3decde62
be07c31b
3d9733c1
bd5a8296
bd95b63e
bcdedddb
3ce33489
3da938f7
3b1f0cc6
bd25e13f
bc130f8f
bdc5db6c
3d571b66
3da87a83
bd72988f
3e08e980
3c9ed79c
bbf07e4a
3aadf186
3c4570a1
bd4a7098
3d19b0dc
bd82f2d5
bc818860
3d831d9d
bd34aa63
bda4ac80
3d764c61
bddd4734
3d12be65
bb71f0df
bd597c6f
3cd8e248
bce4e023
bcd0ce06
3d29bbc6
bdc9bb5f
bdd998ce
bde78de5
3cff1c7c
bd1f335b
bd390ad1
3c7a0bf3
be27d0da
3e30ccd8
bd05b4ba
3daaa0a6
3d01e32d
3d8d213b
3c672b8f
3cb9af99
3cc2aa58
bdad4514
bddc1dce
bda14f76
3cbcaa9a
bbe82d20
3d9666df
3d6010a8
3cf45761
3e0b3c14
3c5a16c7
3cc1fb3f
3d0f9070
bdd8c775
bb8c8fd2
3ccc79d0
bd3a069b
3c7a76c6
bdd032cf
3d1590ba
3b765088
3cc4c06c
3b30797a
3d969173
bc044af8
3d5a2846
3cac8738
3d5ea944
bdae3ef0
bd2358b1
3d0fb4ea
3e52807c
bdaf0354
3d20bef8
bd060aec
3d565b68
3d971838
3dd6538b
bdbd8e36
3d9b87dd
3ccedbb0
3d591e54
3d9fd3b2
3c0c064f
bdc12ba7
3c20b547
bd888f71
be17fd94
bc443fc3
3d2c8164
3c8ca67e
ba8df1b1
bd56992e
bdab3a4a
3c2434b0
3d934455
3c939001
3bf41f3e
3d6b9eb6
bd8b824b
3e3789b5
bd575f8d
3d56586a
bdc93898
bc4e1976
bdbf3a13
3c2aac7b
3c8efab1
bda461cc
3c8a2401
bd54261a
3d5d3293
3ce7a468
bc972858
3db7bc07
bd9904e7
bd818e6c
3a94244e
be246f5f
bd9c9e6e
ba967400
bdb98972
3c1e986c
3e33673f
3e01fc7d
3d95d87f
bd0fc7eb
bd82bd51
3d389b28
3d147da0
3da9c32b
3cc2edb9
bced454d
3d2dc85c
bd2ec6d0
bd07a93a
bb3b115b
3b49659e
3d1a75bb
3cbc3eb7
bd51649c
3d060b53
bd2a0d4a
bd71bba8
3c98e066
bc92039c
3d8c79a6
bd2da125
bde2b3b7
3b04817f
3dc7ea8f
3ca70c33
bd086f2a
bddca710
be20ed4d
bd6aeac4
bd3f1d26
bc4e0a86
bd9156a4
3d40f609
bc78797f
3e4d7606
3d6e1282
3dd180ce
3d93b5f8
3cae3f68
bd1ec4e3
bd80ac13
3d0a4a74
bdfc45ad
bd33cc0b
bcc1524e
bd8bf46b
3d0bcd8d
3df60027
bb2c8cb1
3d000114
3ddfaefe
3d72f968
3d62fe48
3ab57140
3c0618b9
3c197c76
3c747bb0
bda933d2
bd639a1e
bb4cb04e
bca3f16c
3c1cb15a
3d694c15
3d204921
3d21ba3f
3c96861d
3da58cf7
be1e8295
3cd83802
3d340c2f
3abcccf9
bd483ce9
3e3bba40
bd9dd1d2
3e006e21
bd92b68c
bda842d5
3d631226
3dbd1548
3d9ccf7c
b9c0728d
3d0d984e
3d4d31cb
3deec71e
3c43d6ca
bd5dcfef
3d5dfc17
bdb200d5
be0ed73d
bbea7ef6
3d6164fa
3e1215f0
bb14639f
bd82ae8c
bdbe4e18
bd6aff88
3c457108
be1fbfd5
bd6d36dd
3e01125a
3da1e8d1
3e420aa9
bbb74155
3cfdc2e8
bd896e1c
3bdfa2cd
bdd9bafd
3d69fb9a
3c585de4
3c172f70
3d758110
3cfaaa83
3dbacdc6
3e238d77
bda611c1
3ddd1f40
3d2a0fb4
3b581e40
3e0666eb
bdad691d
3d9363da
3cb0e854
bddcd016
3c6bd9b7
3e536ada
3e13edc4
bda8b5cd
bc9e4549
3d3bd353
bdd00473
bb051080
3db34c87
3e0aa7e6
3d8250ec
bce20fef
3c2821af
3d7cda17
3d30e6de
bcd6fe74
3e1ece7a
bcd791e4
3d58a0ce
bc853b79
3da5791a
3c430650
3cea9ef2
bc2cb6d5
bd9be4e4
3d42b3fc
bdee1fd1
bd985ad6
3d0b859a
3ba5a296
bc4b1630
be48d057
38c6d72e
bae8146e
bca89262
bdac099a
bd857e13
bcc66aaa
bda262b7
3e33331a
3df82506
bc53bb77
3dc16fed
bbc3f770
bdc31291
bc8d6e26
bacfeac0
bdbfe4ba
3cdea395
3d3e0e8a
bdf39949
3ce7e570
3c99db3c
3e2027f7
bd265152
3e1f6792
bd266867
3df08f00
bd18c480
3c018d01
3d47b7ce
3d2c58bb
bde560be
bcbc19c1
bdc9382d
3de05e4d
3d359e9e
bd36f380
3db2bf2e
3e061ac4
bd7053f0
bd9aa006
bdd59ddf
bd751c3f
3da3fc8d
3d4a741b
3dc706a5
3e25478f
bd99ae79
3e0b613a
bd0fa863
bda9e351
bd6ac49a
3db05dd6
bc8e675c
3d37f451
3cda2976
3e2abb5e
3d7974f7
bd145acf
bc984593
3d8ab50a
be19aedd
bdc250c5
bd4a442e
bd71dceb
3dd951b5
3cf51e2f
3d210952
bda3f081
bd35dc9d
bcf9d259
bdb35099
3c44b265
3d5eff5c
3ccff33c
3dfa183f
bd036aae
bd7ff986
3d961baa
3be98442
bd4f3cb1
3da3f274
3cabfc66
3d1b84f0
bd3ddd03
bd9ecf86
3e016702
bcc8b1f5
bc24f470
3d10505d
3d8d7621
bd911370
bd16dce3
bd8b0abe
3d3320c0
bbcad450
bdada8d0
3b96a1cc
3dca506d
3e267250
bc43df03
3d305731
bd82c6f0
bd487027
bc7dac68
3db006d6
3d98f75a
3dd7abf9
bd92b6e0
bd377764
3d8efcac
bc9e1eb2
3dd27039
3da134ab
bbdc70ac
3da26ea1
bc7d1233
3cd3786b
bcae3774
3ce464cd
bb9da726
bdbdd916
3cab4be5
bd76ccb7
3b2efce0
3d46d3a1
3c0854bb
3d8bbf9f
bdc263b1
3b501c7f
bc456bb7
bd7713c0
be382499
be164153
3c1aa678
bd2dd9d9
3e1c13a2
bd683c3b
bd9e6552
bc33ebc0
bcafb75a
bdbf5f3a
3a3c8cc0
3d8abcee
bdcff5af
bde638dc
3d018756
bc81a883
3be156be
bd511cf4
3d900dc8
bbabd475
3dbff0b3
3d986ba5
3e101d18
bd9d2c12
bd92c430
3c9d8bf8
bd3f63d6
bc37f52f
bda0b1d7
bda87bd0
bb7fa069
3d8bd16b
3c08867d
3d92661b
3d49e7d0
bd12a086
3d1531d6
bdd3b2e4
3d1c9a0c
bd655f2c
bd8de8ef
3c732902
3e25a913
bd2bc9cc
3e11d356
bd6d0768
bb64494f
bddc98f6
3e277e3c
bcc223d4
bb000e39
bcd1e039
bd364893
3e108cdd
bdfd9c78
3d9cc46e
bdc120a3
be3a53fa
bd8e4827
bd019b44
3d226e7b
3e10796c
3dde531e
bdf0e6b7
3caff7f3
3c55cef8
3cff303a
bde129b6
3cd741ae
3e25304d
bd860762
3e841075
3d1a9dbd
3c9cbe44
3ddcfcd8
3d7f0840
bc9b068e
bcaa7a8c
bddbe5f9
bd1141aa
bd607e6e
3c27b4cf
3e2f029c
3cb124c4
bd836432
bd055292
bd5fdca6
bd72f0e4
3dec50f7
bde5ccdc
3d13c42b
bce9f2ee
bd660326
bd643c9d
3e26d1ec
3e2e1961
bda5edcd
3d3d5fa7
3e04ad81
3cdcca9e
3d50c66a
3e437e20
3c91cd67
3e7d4bec
bd550952
3e061c4e
3cdc62ea
bb5ce94d
bb2a5de6
3dba37e9
3db8c82c
bd73cc03
bd18b32c
3c0d2a62
bd9a3ad6
3ddf5646
3d4515bb
be4c13c4
3e316870
bce4a318
3d6c92bb
3db2a8c0
bd875d28
bd294b08
bdd2d012
3d6978c4
3d88203d
bcb2f1ca
bdf771e5
be62b08e
3c0df320
3cf5d2f6
3e2346b8
bdb25002
bd3506e5
3b148971
3cf87c34
bd39b522
bd4367b9
bc8605c7
be597463
be4226d1
bd32af4c
bc774f66
bdbb4666
bc1a87b7
bd6c199d
3d5910fc
3dc45dbc
3d21b149
3da01168
bd4de79c
3e0906f0
bdaf0bb6
bd259b2d
bd3a7d37
3d29a120
3d1d8b39
bd0e0786
bd20be83
3d1546c5
3e11a080
bd60640d
bdfc41d9
bd030717
bbbc993a
3cb6153a
bd96caf1
bd820735
b8a72d22
3de15ad3
3c9d00df
3e015103
3d5e6be2
bc8e75e7
3bea72bf
3e40b9c9
bc9124da
3d68d321
3cc043bb
3d267e55
3d876ac3
bd536fa0
3d28b493
3d06c3b6
3c75e711
bd8ebc37
bb81760f
3db18f6a
3dbd82c0
bd8e8613
3dbf938a
3dfbfb4c
3d848bcb
bc2b6c49
bb7bca25
3d52c26b
3e02b584
3d8ddf39
3e147da6
bb8f6fd2
bca8bc08
3d96d816
bc9b1d78
bdd77f27
3cd6422c
3d2e182c
3d2e0d47
3e1a4fb1
3cb29568
bd2217db
3dcbcfa9
bd79351a
bdd166f3
3ceb9e44
3d4add0a
3d591946
3d8812a3
3d11e292
3d63f9ce
bd6097f1
3af0f029
3e17f0d9
3e2466cb
3d61ffb5
bb6609ac
bc46d679
bc659aa3
3d8b4989
3d9a6357
3e28066a
3d26487b
bd53e9a4
bcb6673c
3d6be8a1
bda5c5bf
3dc5bb61
bc7691d9
3dae9318
bd8ff89f
bd0d5661
bd814f04
3da32e9d
3dee6c42
bdcad551
bd5d4167
3d6fd438
3d0437eb
3bda1726
3c6f4387
bd4361cb
3cbb6c58
bcc72024
bd92f04e
bc9436f5
3bcd2eff
bd82751b
3c780893
bc150ef2
be05582b
3e000094
bdecc5c8
bd3dd2e3
3ddfcabc
bd8c568c
3d9a8dca
bd100db8
bd7ee83b
bda2f9bc
be17f71a
3c903e80
bc8da399
bdccc9bc
3d6608eb
3df9de8c
3d02a051
3d136b8f
3cca01b0
3d0221c8
bc33ccb4
bd589919
3b88c8c3
bd8b94e7
bcc10a31
bc8b6500
3ddde67a
bd8ff0f1
3d0468d6
3d99d7e0
3df2117b
bdb23eea
bc16a2f5
3c3060f7
be146ffd
bbd64e9d
bc9e2118
3cffdc30
3ceab6b3
3cb315be
3d987de0
3d9cc35d
3bc8654e
bd4739fb
bdfa3dc4
3e5b636b
bc22463f
3d9f0fab
bd968cc3
3d915234
bb336145
be0b406f
be0ab1c5
3d338059
3dbf25a8
bda0b8e0
3dba4d1c
3e225628
3e53ce6a
bc8077ee
bd394ab6
3cdde696
3d0e97c0
3d8abadf
be31bd4d
3c9321a6
3e2278d3
bba16430
3d47475b
bda13f72
bc78e5e8
bd6a2eb8
3d83608b
bdac6520
3e7291bf
be274612
bd29b0c5
3e668e79
3dee753e
bd3dd03a
3da3cdae
3d93fc3d
3c042fb7
ba346400
3d4abb42
3df6347a
3d98d00d
3d1044a3
bc29e9d0
be5065db
bd91fd98
3e131d13
3eb9b6d8
bd8bb61c
3d9a65a7
3d7f6c7b
bdaf4025
3d0f2d14
bcf2879a
3e2220e9
bd9ce2d8
bd88f100
3d80daca
3e4d2bda
bdbb4f5e
3c7be808
be362049
3ea1bfdc
3d512576
3d7c9528
bd04881f
3cbeed10
3d202c1d
bd32436f
3c63b908
3e2f9356
3c8bf917
3e25de99
3dcc2a48
bd93fa1d
bd0489f3
be4ffe3d
be2e1e01
3d58ca89
3d41b380
3c815eee
bc91745f
bcebe102
bd978f08
3e899102
3da73fdf
3d0c51bd
3db3e010
bd31a7c5
3d2f3754
bd9f60cf
3d63899e
be263566
bd8c7f8f
3cd3a454
bc573a3c
bc2ddd69
3d2773e6
3e1ed5bd
bc4f75d8
3d69fbd4
3d7bc92a
3d95e368
bd867636
bdf39fe7
bdadca2b
be30a65f
bd01381d
3b9d45fb
3bbdff90
bd8278d6
bd0a51f8
3dcdd633
3d6194b1
bdbf7661
bd938df2
bd49ef53
bdde8dc0
3d8737e3
bdc53939
bdbf4f27
3c50339c
3dccb031
3e17a0fc
3e70a53a
bd9a4a4d
bd232871
bdbd8dd4
3e169554
3c95f6a4
3cc66eba
bdad9e42
3d93e8a6
bd3e17c3
3c5e76c8
3b917999
bdb749f2
3c77f3ee
be388e1b
bb7dd50f
3db0bcfd
3dc5178d
bd3c4a0e
3cc9b109
3db45283
bcecf0bc
bb7c23a0
be140893
bba0f298
3e359f6f
3ca6a4c0
3e0fe407
3cb5ff5f
bbbe4eb0
baeeedb7
3d698bde
bd926555
3e803a9c
bde20ea2
bd711baa
3e355c0b
3dd980ff
bd86a568
3d89b918
bd825614
3c871a51
3d3b2c56
3d0895b6
3e5ab6c0
bcecf6d8
3bb640c3
3ba6f5c0
bdecfc9a
3d7af394
3e068c70
3e70fd4f
3d6d431b
3d7ec3e9
bde7d2e9
bcd21322
3baa8070
bc73afc3
3e594404
bd019277
3c6a0313
3e13f529
3dcc2cc2
bc6c6d66
3d121d38
bd8a31de
3eb71d96
3d083b1c
3d8f2a53
bdbd7aa2
3d5c8d8e
3b7da028
bdf8c541
3d96e172
3da67bde
be2f3c9c
3c87e457
3e071da9
be2e334e
bcceb59a
be72fdd9
ba0e32fa
3da05db4
bc86ce6b
bdda01c8
be0245d0
3d25c14a
be2af571
3ec9570d
3b093f3c
3d115841
3dd3cb53
bd1a3b2a
bd5ad8e1
3d2479b5
bc400e00
be4f6529
be61a703
bc9ccfec
bd21fdf7
bd7f43ad
3da045d3
3e7ce1a3
3d442d9e
3e344bf6
3d800df7
3d91995d
bd942b66
bdf7f6eb
3cedf8cd
bd2c0145
be34f9a4
3dd43b3b
3d0c090d
3b9acf73
bdb76d09
3da3b7ec
3e4e1640
3ab480b0
3c0dbc26
bc3fe2ce
bc567b2d
3d95885b
be2988c7
3a65db38
be6ca7a7
3eaaf6b3
3c93d30b
3e7df13f
3e3d8a3b
bdfa33cb
bd9840f4
bd1ef4c0
3d1fd786
3e89c81b
3dc7bab4
3d94dee8
3d45f257
be607818
bd53d0bc
bdd28535
bea0b14c
be88147e
3d35d4a4
bd188068
bc5bda63
bcb31e9b
3e00115f
be0f153b
3d88c0c5
3e4026aa
3d2bbff9
3d2b5382
bdfa1758
3d08a18e
3ec7e051
3c9b13b5
3bdd8ae3
bdc74bda
bdf436f0
be21cee2
be3534ab
3b102232
bc60e75b
bddca868
3dafde65
3d40c2d8
be3520be
3d1d210e
be0a29c1
3d4d5e12
3d878d43
3eac477d
bd7dfb48
3d329194
bb6bd6a0
bdab1e28
3e009285
3e700f6c
3eceb634
bd104341
3cde3326
bdcca70f
bd33d950
bd87722e
bd0e36b3
3b7e5af5
3d1c0fa3
3c95d424
bc646114
be22bd9b
be6867c8
bd028136
3d01d642
3e2d6a58
3b5e97e0
3b7f3602
bc038bb5
3af35480
bdc215c6
3e2bd3af
be0f263b
bc98d30f
be411c36
3da84a22
bdd1621c
3e0e7b78
3c209378
be1914cf
3d072bea
bdc9b48b
3e221ec7
bd2b0b4e
be0b667f
bbc33fc8
bd3fbe85
3d9aac91
3e6cf2ce
3e97cb3f
3df72887
bdf46d15
bbdad792
bcd6d500
3cf86998
bd4c81aa
be21ad4c
bd29eae7
be0e9e81
3d1566fc
bd783024
3e3370c2
3e2e73ca
bd45181b
3e6a8a36
bda4a3f0
bd4880a9
bda0ab9c
3da999c2
bd62637c
be56cbbd
3dcd6bf8
bbe76ea2
3ca3801e
3cb7f0bf
bd0a3ca5
bd4bc128
be08095d
3ea2d546
bd87aec6
3deebc80
3da6301d
bda1c33a
bdc118b0
be4cfbe9
3e80b002
bca4faa4
3e2b1f83
3d624b4e
bc94d727
bdbdc67b
bbe07b7b
bcd96f19
3e0954cb
3e0c9184
3e566605
3e12be66
be82abb4
bd89689f
3d8d0962
be65ff54
be33e133
3deaad31
3ddbc91f
bd18682d
be5214b1
3dfaea72
3d246fc9
bd9cb18e
3e38d66a
b927554e
3dfdedbd
be1e7bab
bd1490ca
3e6fd52c
3c983a45
3d153d72
bde09c52
bded3814
bcc2536d
bd9301ca
3d63f0d9
bd6ed5bf
3bea29ea
bbd26d64
bb49a0cf
be18fac6
bd0797db
bdab5fbb
bd472fd4
bd0a57a7
3e8d2d90
bda8d7ce
bd5a972d
bd56b886
bd0268b5
3e4953de
3eb99cd3
3ec55061
bd7385cd
bd94b211
be8d717c
bd1317d0
3bd2bc42
bdf7cbed
3c998e21
bd9208ce
3d5d673d
bd85a786
be696930
be108db9
bcd6cc6b
3e2d44ae
3e9423a7
3c1013d0
bb99cf14
be032057
bd266616
bdcd9a64
3e4135ca
bd820733
bb309460
bdf3484f
3d1929e9
bd8a341f
bdbf836a
3d410c6e
bd566325
bc943058
bc63dbf8
3e492507
3e16576a
bd8baa9d
3d713a46
bcd963dd
3dc3b121
3e9e297c
3e9201fc
3e36633e
be10db70
be0e4045
bd35ba14
3d81e29b
be1411ef
be2ae54e
bd8287a8
be38c714
3df80ec8
3bc1c1b7
3e79f828
3dfed583
be29eb12
3e23ce34
be1a23b9
3c212733
be63e6c3
3d9c9b4d
3bed2734
be20ab81
3d8ef40a
3d264933
bd1c894c
bda82ab7
bd8a9ebc
be02f019
bde0536c
3ea20abc
bd62c618
bc5d6379
bd095db5
bd43a58b
be3af174
3ddf8599
3ed67fd5
3d24e530
bda5f06a
be020d80
3dbe4fad
bd85de69
3e08467d
3e8c0fce
bcb9f5b8
3e0f1fdb
3e5fcbd1
3e6f06e9
be0fdd23
bd2caea1
3e5d8847
bdc4233e
be01b65c
bd1b6893
3dfb0ab5
bdd6128c
be8b082c
3e6b986e
3e510a8f
bd1589c8
3e0637c4
3e2817c3
bd4a69de
3bba1540
bd982cd6
3d7e1ca0
3d00b6a3
be060935
bc786ee3
3db610c3
3d4cde2f
3d8821a8
3d8ddc0e
3d97a951
3e6273b4
3d1593a9
3d8f6cb3
3deedfc3
bd7eb436
3cda39e2
3cff27f4
3cc3bde0
3e24340e
bca16609
bd2eb8d4
bc05a070
bdb62a9e
3e99ec11
3e327696
3eb04079
bb54d149
bd8fc128
bed7155b
3e5a90dd
3d8c04d9
be82a484
3e3182c7
bd7076a0
bd008bbb
bd1bcad2
3c0307ef
3d2fb62b
be57acab
3eac5dbd
3e59448b
bcfb8b94
3e6ae180
bddf3aa5
3c5584e8
bdb0b633
be402e88
bd80d03a
3d105e46
bd56f294
3dbececd
bd54d6b6
be069574
3d84604d
3d422289
ba1f635a
bc715756
3dbe95f0
bb389aaf
bdf1c153
3e602b92
be6e2530
3da7505d
3e3249a4
3e31787f
3e038e49
be396dc8
bdd44ce2
bddae76d
3dc128b2
be13c551
be5a1aea
bce6b13c
3cb241d1
3e70dacf
3e85a335
3deea156
3d334363
bccb522b
3e207b29
3dea9c35
3cfd7d37
be491d35
3dd93966
3accd55f
3d355d0c
bc70eee6
bd3dad9f
3cae2827
bc6ff01d
3c1ef2d2
be62bc0b
3e53a8f5
3e283d91
bd2cc431
bda926c5
be1aba2d
3d5e0918
be1ef762
3de493f1
3e7cbfc4
3cebee2d
be546155
be1153a9
bdfa75f8
bd0e0f4f
3e5fd2f5
3df93c9e
bbed840e
3a6fb693
3e077c09
3e383145
bd8c2a94
3d034528
3e8fc325
be0575ef
be1d8057
3de386b8
3e4b40e2
bd6554c1
be0531a8
3dce1475
3e1880ff
bbcb9000
3c98fa09
3c9835a3
bd4fa15f
3e3ba416
3da5b08b
3da4d2f7
bbfba15c
bdde2393
bd0b14c6
3d113415
3d0b29f2
3e2090a6
bdd41333
3d2a1538
3e0b6609
bc7ea572
3e2cc408
3e889389
bcb35e5a
3c1d4abe
bd192ea8
3d940b51
3e63e27b
bcb8d42a
bd816a65
3d2eb092
3d1764e8
3e8b37ed
3e0e78e0
3df49956
bd4e366f
bbe35f1d
beb41df2
3d223fd8
3d65418b
be1b9d91
3e5f2a08
bd9ef02d
bccd1d54
3dcd2e2f
3e25aec9
3d79ab4a
bdde6a3a
3e995bfe
3e8d9e5b
3d653486
3e326045
bb85549a
3d186eee
bd84ece2
be46e625
bcdd5da1
3d3a5ea3
bd8b2615
3c0fdb94
3e29edb4
bd201a05
bc441e50
3d0b1d34
bbb438e0
3dcedde8
bd4e4dae
3d83748e
be67bc1a
3e27b928
be071954
3e57da38
3ce22a88
bc96a3e9
3e199699
be4e5ec1
bdf6c76a
3d16c485
3d82e811
bd854f50
be4bd15a
3d4eb46e
bd807ef5
3e4ecdfd
3e00db97
3e174676
bd94aac2
3b22d497
3e1b7002
3e152e83
3abaa66a
be5e9d39
3e27366a
3cbb66d1
3e00abbd
3c9849a5
bd000de4
3d3aff78
bd33155c
bd10f9a8
bd6b3660
3e6a902b
bddac79e
3cb65196
3d412d77
3d0a84e3
bdecc83d
bcc4201c
3e3f73bc
3de9ecd8
3db8cdb6
3e9d6f1b
3d9366c2
bdf83d11
bd1a9f0f
3e3d3bbe
bddfc46f
3ce7121f
3c8ccc03
bce2cc9b
3cac5d97
bd5b6d5c
bd21c55a
bdb8e2be
bcf20908
bde9012b
3cf0357b
3da2fa68
3dfa1f55
b81b0b29
bd34c6c6
bdc67e82
bd6eb260
bce6814f
bdbe121c
bd569e32
3d9888b9
3a043d80
3e4e3414
bce40b76
bd97ff3d
bc2b7809
3d172303
3bcffee2
3dd47992
bc511062
3c910578
3d991dbc
3d704b07
3d2c2ecd
3db0a272
3da5fb6f
3ce70b4c
3d86236f
3ce5bf20
3e0167c8
bd099d63
bac96c5e
bd21bf04
bbb785bb
bb4269db
3d3b3c0c
3dd32854
bd184509
bc72dc68
bd7d966c
3ccac5b4
bd97b7c6
3e304ae0
3e4e5078
3d18e674
bda413c2
3d8e4c6c
3dba5841
3dec936c
bd468000
bd0198a0
3e965154
bccf2062
bbeb6a3b
3b5ed018
bb8dcb20
bb064764
bd12642d
3d808a9a
3cd93a27
bd6874c9
3cc6a68f
3c73d629
bd25049c
3cc57170
bdc554ae
3c9f1673
bd1c09ba
bd86fdac
bda0c714
bd8a9960
3d85ad0d
be253455
3d4ca0e3
3c1427db
3d1ff2f5
badfd137
bd3e321a
bc802b81
3c2851c1
bd908664
be2f0fd8
bdea5606
3da05b9f
bc8225c6
bc997be0
3db5ed0d
3de0128b
3ba2dfbc
3dc70b06
3e11e04c
3d373f68
bd978848
bd3c60a2
3d1e4289
bcb68160
bc980170
bd0e4ee6
bbe2c049
bcdaa676
bddcd5bc
3d8d318c
3e137278
bc73997b
3d1b9cc4
bd8347a6
3d5d1230
bd8b3233
3ca01703
be6195f6
3e0ad7de
3e075bd1
3da3578b
3e250624
3e75bbd9
3cc398d9
3d9ce61b
3e0f0d74
bdfe7afc
3e79662a
3cae1526
bd54471d
3bc453e9
bd8323a7
bd2310ff
be896841
be02f660
be42aafa
bd47d9c8
bdc6930a
3e0569fc
be7c6fc5
3e5f2e83
bdc12587
bca4f546
39cf988c
3e2024dd
bdd34bff
3d4de1c9
bd944042
3e43e576
3d9d7849
3b2eec02
3d07b722
3e6ce58f
3d7e0574
3de150db
3d8e798a
3d3473fa
3e3a4da1
bd8264e6
3e3d2c6a
bde5eba6
3d75f066
bd79258b
3d2e7c0e
bd4e0e74
3dc49c11
bdccfe79
bdb61017
3d8ab015
3c3742f7
bc16c3fb
3e61c55c
3da163a0
3d273445
bc88aae8
3d462261
bd01b665
3d4520b2
3deff2a4
3d0a6cba
3e992aec
3d28c44a
3dabd8cb
bddd8b50
3dd9ebfb
b8eaaef7
bdb36724
3e3c02ff
bc80f78c
3e0eef31
bcf034db
3d8952a1
3d8af637
3db7ceff
3bd51257
bd4f2cac
be6c2f7f
3dfec08d
3dbd95b3
bdacf97e
3d554b0a
be8380ff
bd94cdae
bdf4df43
bd5390b4
bd5e49a6
be7a047f
3dcf33db
bc1df1d4
3d0814c1
3b43a702
bd0bac9d
3d611d67
3c08d8c8
bddc0d23
be300d3b
bd44844f
bdd34591
be61435d
3c041680
bd34d074
be42900d
3e341484
3e0455b3
bc97a0af
3e1948f2
3e380d20
3e18065a
bd231c90
be2ba7c7
bd677c79
3d945da9
3cf7f27a
3e0c1ded
be34edf2
3d1a0e99
bdf5a5c1
3e29364c
3e8cf563
bd8343a8
3a2fef38
bcd58396
3cf5ea19
bdc9b4fe
bdfbd652
be681d02
3e33b688
3e40aeb6
3d2fb43e
3e6516c0
3e7548d8
bc941b3a
3d5a02b6
3e3ff9a1
be102897
3e7fbab2
3d554132
bd3eba3a
3d57e343
be08e3f4
b9d8340d
be4d0e1a
be4e8f26
be589fc8
bc8d0706
bdaffed6
3e775896
be0a3e56
3e2d2b30
bda16556
3d57e64a
bda42f2f
3ce162a1
bda131fb
3d9c7895
3da30191
3e90f7aa
bd679ea5
bd344fa0
3ccdb6c2
3dcc8ad4
bdf515d8
3e10d02b
bc88f78f
bb97f050
3e86d697
bced25f9
3e5341a2
3d07f84f
3d81c1c7
bd34e61b
bd12fafe
bc26fc98
3e584ee3
bd9af03e
3d45c03c
3d1299e8
3d37a5c3
bd8ccd90
3e841364
3d75141e
3ca2ed60
bd07dc79
3cad616e
bdfc73a3
3d9f7133
3df8c109
3bc90903
3e8b57bd
3da0fddf
3e126bf5
bddc8dd3
3c979e9b
3cfa0eb8
be0506b0
3e3bb24a
bcb95c86
3d701577
bcf4e722
3d93cf7b
3dc237ae
3db35b3d
3d080b24
bd0615bf
be328540
3d5f9458
3de13ea3
bd48d5b7
3b171480
be7464cc
bc649a80
be33d4fe
3da42319
bdc71435
be5c84d3
3da77f3b
3c98b81b
3d147581
bcc5c6d8
be048574
3df4f266
3dc04006
be03132f
be71e540
bd766a9e
bdd9ae21
be467eda
bd9cedfb
bd4342a1
bde82d51
3e1d5e43
3d97018d
bd8cd1e2
3cf8dc69
3e872ae0
3de23cb2
3c24ce10
bd9b5c7f
3da72eb6
bc9e6156
3d772fe8
3dc82ff6
bdfa1237
bc1692dd
bd386308
3da104bc
3e531895
bdbaa73b
bd19b6f4
3cea50fa
bda69ab6
bb8f8fc0
bdfef41a
3cd73f44
3daed748
3e260599
3d00cb45
3e1fb9f0
3d877361
bd6986e3
3cd16858
3d48e5e7
bdaf05df
3d34cab9
bd87658c
3cd19b39
3d966735
3c2c3eb7
3dae5e3c
bbcf7714
bcfcb11d
bdf8be05
bcdef5cf
bd854944
3e1dee25
3dab86ad
bd6720bf
bd1a0ab6
3c2447e8
bb31c5a0
bd88715b
3cf0b89d
3ba6d1a1
3d92e297
3de68c84
3d850d69
bcaee724
3c36ae56
3d440f76
bd8a47da
bd347315
bdb7fe2e
bd9f7d4e
3dce329c
3bf6d0da
3d0f7f0b
bbe940ab
3ca79868
bdde3c19
3c9bc300
bc0728c8
3d937722
bd4d194b
bd9cbf75
3d7939ce
bd8a04dd
bc3e65ce
3c93f95e
3d011874
bc4612a8
bcfe4c3a
bd87d51f
bd317a6a
bc4038d0
3e3a5032
3d9509a8
3dbb4b20
bd8e954a
bcd6bc0d
3d8735f6
3da94242
bdb45778
be5de31f
3e0ad231
3d46464e
bd8c685d
bd0f9d31
bd9bbf44
bc077f52
bb17e028
bdd4e18a
bc2d99f0
bd81f26d
bc96af77
3d9e9984
bd117361
bc9f69d6
3b2091e7
3d1721ee
bd22ef56
bb525da0
be1c0d14
bd9121b8
bc4b0967
bdd6f12e
3d9e444f
bde763f0
be0d2bfb
3dbe1f69
3d59a49f
bdc3ffbf
3bbbfb17
3d891aa5
3c88059b
bdc74bf2
bd8d0e08
bd77296b
bd212426
3d6849fa
3cb12a49
3d61ff27
b9ba5759
3d3526fc
3d213ee3
bd14b17a
3c9fc126
3d901b95
bcd8c55a
bde5e683
3c83f1e3
3d84d51c
bc9482ec
bdbe57fb
3d734a86
3e363fe4
3d0e803a
3c6b8ce4
3d7639cc
3d95db18
3d2a8671
bdc96110
bdeaceee
3da3d059
3d02c263
3cbfda82
3dd0c506
bc44b818
bcd53116
bcbb1032
3dcd9a83
3d0bbabc
3da49d33
bd933fba
bd9eb62b
3c93f4fa
3cbae5b8
3d256de8
bd353ca8
bd1b7903
be1174b4
3d5e446d
bdb08cb1
3e1654e1
3ca87764
3da69171
be0b828a
3da17b1b
bd308c7d
bd54d7f2
3c2fac2e
3de261a7
bd94918a
3d802e1b
3c8430b8
3d5cbbbe
bda35f05
3cf21296
bd945989
3cdd68a3
3dcd8f40
3d2d04b2
bb623d0e
3d5b9e72
bd999b4c
3d4b92f7
bceda108
badc8a4a
bd0912c3
3d74a49e
3d8898aa
bc409bf6
bd99ac13
bcd824e0
bd227740
3d462e22
3e11c96a
3e0055a5
3d957acf
bd0788c7
bd8eaf55
bd3bc6af
3cc5f4ac
3ccb5c69
bda4912e
bc33633a
3d578c42
3dd0207f
3ccd5b25
3bc0ee12
3d85eea3
bdd06b29
3e28979e
3d1f09f2
3d1792bb
3cb5bdd4
3cc37f38
3c08fc02
bda40d0c
bc03a113
bd66d59c
3c2d4b60
3d883ce5
bc4361ec
bc85b820
3d714016
3b3b037a
3d25e011
3d24cfe9
3cee6cfc
3cd6cbac
bddfaec5
3ca0ce98
bd794a10
bd07e299
bd05d36a
bc41054b
3c9a59e2
3bb61726
bdaca533
bcf24f33
3d3cda52
bd9aaf9d
be26c9b7
3b3f61c0
bc8c3939
bd587817
3d91c86a
3d8caf9c
3d6f9772
3cf8059d
3dd87ce5
3dc03f7c
bbf52e90
3d2b28ed
bd51554c
bd755a3f
3d58e384
3d61a305
3cba2d18
3ca15d85
bc7a4a27
3d8f26f8
bd9727e2
bd93f07a
bd07479b
3d6fe57f
bd3c8f27
3ccde118
3d6168ff
bdbafae8
bbf0b5c8
3d311b88
bdc317b1
3d41a80b
bcf9f536
3d9192df
3b918cea
3d6259de
3bb1ced0
bc36adb1
bd630483
3d8b5609
3d9451a1
3cd5f9f2
bcd0e5fe
3d60287e
baf76540
be16f62b
bca441a4
bd90be19
3df5cd6d
bd3d0540
bd29a6c2
bce9eeeb
bd84fa28
bb88cf40
3d46a689
bb303790
3d1640c0
bca79d78
3d8cd885
3d8d3c55
3ccd47d4
bd3720f0
3dc8d900
bd06dcf5
3b514696
bc68b536
bd9575c4
bd7e8722
3d22fe2b
bdc81c8a
3db7098b
3d7d5b92
bcc79f06
bcd9009a
3d998fd3
3e26ea7e
bca281e2
bd348be7
bcc046d8
be00ebb6
3c2c7808
3d9f5786
3dac1ee4
bd6edd91
3d94b434
3d51424e
3c395bc8
bc912830
bd78cbe9
bdfcd298
3ccbad4a
bcf58538
3d127afc
bdaf1b9c
3c916f8a
bd749c20
bc466a08
bcb57b91
3aab1a80
3c8ad776
3cd82208
3ce0b0b8
3d9c7216
bca7f1bc
bca107d0
bda03820
bd31b8c7
3d9422ef
3d8c7b07
baa97540
3d90ddcd
bd54eaae
bde1d15b
3cca891f
bd97a1b3
3dfded89
bda4ec14
3dfe65a6
be119dcb
3d89e207
3d0b79f0
3c347355
3b2c5ec6
3d280222
be015725
3d3f03cb
bd588729
bd4cc527
bd790dde
3d97114b
3d1c00a9
bd0c7f0b
3ddb6d76
ba0e66c2
bd9127b4
3d9bbfff
3d8e980c
bc81df72
3da2bfa5
3cd0c99d
bd9fa1c6
bd91eb02
3d965f34
bd8f4aed
bc5023b8
3d31bd50
bca5a1ed
3d98311f
bd0e9e77
3d9b728f
3d7ae991
3d9d0f71
3d14ae84
bd26657a
3d2a67a6
3d5c750a
3d83557f
3d216840
bd6efb70
3ce73458
3d5d4f52
3d4da0fe
3d44dbd2
3d2a978c
3d770742
3d1e5e02
bd8de3ad
bd437871
bcbad4b6
bd60e6fa
bd97ac1f
bc90ac7c
3baf35c0
3d096aaa
bcf99612
3d2ff646
3c259eb0
bd65aac2
bd9ba490
3d9bf71f
3d99e1e7
3d52c31a
bc930a38
bd71bc9c
bd965fea
3d8e0007
bd3f2045
bd8920af
3d88b743
bc3412f0
bd4cf16e
bc011740
bd9d1233
3cb3e918
3d53363a
bd705c06
bd7e678f
bca81dde
3da1ba35
bd459811
3d90d665
bda1abb4
3d253c06
3cb52f3c
3cf51270
bc84b168
bca65e8c
bc920ff4
3d20f47c
bd8f7c6f
bd3c441b
bd1c380a
bd57dae6
bd57b7fc
3d223b28
bd5f2b5c
3d93b973
3c20c1c8
3ce7b87c
bab26c40
3d9e973d
bc1be320
3d05bb2a
3b6bce20
bc4d5ea8
3d3895aa
3be5de00
bcc40b2c
3d5bdeca
3d998015
bba32120
3da1a011
3d971299
bc653760
3d91ea07
bd6433c4
bcd342cc
3d45de9e
bc99a838
3d9802dd
bc6403d0
3d74734e
bd42405e
bb8357d0
bd8ea9cf
3d265ce6
3d5d5502
bd8c03ed
bc8a80fc
bd69190c
3d2085da
3bbbea70
3da496ed
3a042f80
bd0201a1
3bfde4a0
bc0ca080
bd8b4ed6
3d639a9a
3d955997
bda3d82a
3cbff6f4
3c653438
3d9c34cb
bca04b72
3d5683a2
bbfafd50
3bee4cb0
bd52d246
bd815bc5
bd9b17fc
bd791a3c
bcd1a45c
3d55d53a
3d3aa60a
3d86dfb1
bd946318
3d8db60f
bd8f5b64
3d828119
3d910815
baeb3a00
bc8a977c
3d2fa586
3d660d8a
bcaee99c
ba899780
3bbe2a30
3b86a190
bc93f290
3a534880
3cfa2c9c
3d670f0a
3b795820
3ca99580
bbf801e0
3cacab08
3b776c00
3d9225fd
bd4c6ce4
3cde2968
3d7f489a
3d261c9a
3d9057a1
3d0d7e2e
3d003aa4
bd63004c
3caccc34
bc761878
3d647ee6
bcd4cfc0
3c55e900
3cfcee30
bd3677fb
bcf32678
bd132f8e
bd269f55
3c6c1c58
bccf7dbe
3d03f132
3d47e8ae
3d8ad6fd
bd6f1480
3bb93c90
3c26e970
bd7edc18
3d2811aa
bd8ba567
bd922aae
3d72ffc6
3abdfa00
3d5a4412
bd037660
3d7ac102
bbfa9df0
3bcc04d0
3d8ff5c1
3d69385a
bc86129c
bc176398
bd808eb3
bd97df14
3bc9c420
bcec7b20
bd85fe94
3d9f0b07
bc742cb0
3b000200
3bf2a500
3d171e5c
bd900316
bd8d5b0e
bd7e6f54
bd4c5e46
bd4533c0
3da1d72d
bcb41364
3d282cf4
3c15e3c8
bd868bce
3d455e92
3b7958e0
bcb023b6
bd8778a1
3d918d17
bd1b16b8
bcd67892
bda090a8
bd283216
3c7de9f8
3d3eaba2
bc90c3b0
bc7fca88
bd9348df
3d60d17a
3d1cf324
3d913fa9
bd9632c4
3d112af6
3d4dcbb6
bce3fb40
bd9b8899
bd8a5f4a
3d9d1d35
3cd692bc
3bec67d0
bd613475
bd99f36b
3d9a6877
3d95160f
bd36ed30
3bd896a0
3b1252e0
bda2e4a8
bd6a881d
bd6b43f7
bc8d9d48
bd004fba
3d76e4c6
3d8e1cd9
3d551662
bd65c4c2
bc1b0760
bccf8db8
3c588040
bc2d0e98
3bab42f0
badaa380
3d057a76
bd54fbb2
3d582772
bd018919
bd537a32
3d83dcdb
3d9a7929
bd0af4c9
3d65f72e
3d9dc13f
bd9de50e
3d234b72
3d0c47ca
bd1c3332
bd3c5a3a
bc4e0aa0
bcf3c922
37913000
bb2fe420
3d90f623
3cef9268
bc7e8d78
3da4741f
3d263aea
bd5a88ea
bd84a3b3
bd68b764
bc01ad28
3ced9418
bd89ec9b
bcd97834
3d4ce1f6
3d5a3ac2
3d90bf59
bd80b9a1
3d2bfbc4
bb4b43c0
3c20c520
3c336468
3d10e2bc
ba277580
bd536af2
bd6689bc
39c59100
bc848fe8
bd6ea9fa
bcc6c396
3c956aec
bd404205
bda475e7
bd9dd425
bd80ff24
3d8e2d25
bd914da2
3d6af78a
bccff1a6
bc72a448
bd9e5e68
bcf75edc
3d552c62
bc131848
3d836f15
bd0a858a
bd525af0
bd7d2d85
3d031e40
bd9d88b6
bd6211cf
bc53d2f8
3d634242
3ca32aec
bd3d447a
bcc79d0c
3d53665e
3beca9a0
bc23d888
bc2851d0
3d130172
3ba3a4b0
3da4b959
3d51572e
bcd0b112
bcf74e8e
3d399262
bd7ba6f4
3b9436a0
3da5a73b
3ca55dc8
bd64d92c
3d1334d4
3cf4bde4
bd546a1e
bd1b05aa
3d4ba9e2
3d272e6e
3d758916
bd35326c
bb3caae0
bd8cc6b2
3d85bea3
bda21cef
bd20333d
bd918ccf
bd271c43
3ca77834
3c04a180
3d4e668a
bd912e12
bd94eb7e
bcdeb0fc
bd871847
bd44e664
bd650e66
bca18066
3cd3bbe4
bce2e0d2
3d5e686a
3ce61fd8
3d151736
3d4b98a6
bd7c49c8
3c8b8244
bd724a50
bd349678
bccad058
3d7ad4ba
3d9f3dbd
3d5b9bf6
bd876969
bd66f1bd
3bcf0200
3ccb12a8
39f8c700
bd141f70
b92f4c00
3d98bf9d
3d94a723
bce0d452
3d83c349
3d07b01c
bd9ddda0
3d443f66
bd9ab832
3d8deaef
bd265e86
bd645f14
bd85cc7e
bc3f0ce0
bc836a68
3d41474a
bd820766
3d5fd31a
3d0219d8
bc555bf0
3ccc650c
3d85889d
3d88a817
bd91da19
bd4eb202
bd413da0
3caad300
3d41726e
bd952c38
bd605e5e
bd86b7af
bd0c78eb
3da42cf7
3d94c34b
bd8ef2c2
bd1a47af
3d0dc352
3da5eb9f
3d2ef39c
bd5da5a0
3cdf9244
3c8e52e4
bd311351
3d8e247b
3cce3b74
bd0ba519
3d9efd91
3d9167af
bd87ac5b
bc9062cc
bccc51d2
3bb985e0
3da07cf5
bd1f9616
3cc6c1b0
3d85c1eb
bcaff8c4
bb7d73c0
3c592560
3d8a6fd5
bcbeb308
3d733072
3c9e8cb0
bd923563
bd9a2b60
bd4eb570
bda3b5c3
3d75b6d2
bda26b03
3c511090
bda07197
bd2b733c
bcb11eea
3c261ad8
bc8bd8d8
bd82c302
bccc8624
bd81e9fa
bd9d2eee
baeb71c0
3cbc72f4
3cb12b74
bd975769
3d41de2a
3c7c3d48
bd18d2fb
bda278bb
bd71db7e
3c519fe8
3d1fc6c6
3d202376
bd214033
3d0646b8
3d4d72a2
3d0c05f8
bd43859a
bd45e9c3
bc92f2a0
bd58b456
bcd4aec8
3d91ead9
3d6688c2
3d3c8c32
3d674fca
3c118c90
3ccecbd4
3d8376a5
3cff5658
3d4fdd5a
bc243280
bd3f87b5
bd7f527a
3d99da53
bbacace0
bd28b3d3
3d753436
3d73ef86
3cc73c3c
3d36a05e
3d9812a7
3d4b87b2
3c97ed08
b9238000
3d269620
bd84fc00
bd8b1e1f
3d9a1ad1
3d762e5e
3d6be99e
bc24b6b0
3d8feb0d
3d931279
3d1636da
bd3ad89b
3d97371d
baf69e00
3c6bc338
3cfc7fa4
3d9aac8d
babfa500
bcee8590
3d0bb93c
3ac66c00
bd561437
3c3f73e0
bd531802
3d9f3045
3d35d4d2
bb92ce30
bd5b7f78
3d881ea9
3cdee448
bcf2ce24
bd7d747e
3bcbed50
bd8a82e2
bc165148
3d8def49
3d6b449a
3d234576
bd8ae9a2
3d83ab7d
3bc9b120
bd942b36
3d234778
3d22cf3e
3cab1a94
3d9bbbc7
bda33a0c
3d748f7e
bd845633
3d9046ef
bd146837
3d4aa16a
3d62e0e2
3c1f6430
bd9629c8
bd15d7ca
3d9b83bd
3ccef7dc
3da46bbf
bda56a3d
bd8ec532
bd526435
3d2750ec
3d4bcd26
bd7c08b0
3d4ea03e
3d24da54
bd3335f1
bd3e9722
badd1840
3d92a955
3bd0cc70
3cb68a10
baa69b40
bd8fe39e
bd8c3ba1
bccb0e3c
bd96c3ab
3ca397bc
bd56fce2
3d7e9b06
3d41a9a6
3da32d2b
3d2364e0
3d2a83a8
3d4a59ba
bd09b8d6
3d54f7f6
bc96fed8
3c97419c
bd489651
bce1c03c
bd9272d2
39ea3a00
3c86ff0c
3d982dfb
bd8409f2
3d187650
bcc3ff0c
3cacdd70
3c5b85f8
bd90318b
bd1d78fa
bd644d60
bd2feba0
3ca2f1c8
3c6120b8
3d1dd4bc
3d4dfeae
3d8a40a3
bd013678
3d3a58b2
bd225fd2
bc99ad54
3c52d498
3c5c01e8
3d844299
bc5462e0
bd10855f
3d7461ae
bd2d23c2
3d1ede2a
bd199d1c
3c8aaca8
baa077c0
bd41bf28
bd093f89
bd587743
3d4dabf6
3d877819
3d6499d6
bd70a9f4
bce4c260
3d9457df
3cf90228
3d53dcba
bd66ac6e
bd91a544
3d9c6bbf
bb9f67f0
3d3ea4d6
bc825630
bd3355fb
bd89d1b3
bd9b0eb8
3d891fa1
3d5b4eb6
3b85bf90
3a4ef080
3ba712a0
bd2a2b39
3d928527
3c0f5848
3ca14368
bcfa07e8
3d4b35a6
3d7b781a
3d454482
3d7c9a52
3d838fe9
bba5a430
3d3db3be
3d8f4709
bc020378
3d451a1a
bd84bda3
3cb0bf54
bb60c1a0
3d609cd2
3d473aa2
bd30c676
bd9dfa97
bd90c758
3c903e04
3d958475
bc6d95d8
bc5f6238
bd85a108
3ca47728
3c54e870
bc2d9fa0
3b032b80
3d337c5e
3d8ce889
bd4253c6
bd893393
3d606126
bd13f60d
3d3206e4
3cf714a4
3d82b185
3d2487c2
3d67c2ce
bd12254a
bd3b2aef
3d450b32
bd36541c
3d874e93
bc236190
bc399cc0
3ae21540
3c91a0cc
3d4e89a2
bd2524e3
bceae5d2
bc0507c8
3d240e26
3d8f07c7
3d5b9bce
bbe20190
3c8f4b9c
3d6fe0b2
3d64a482
bd190dc4
bd6255a3
bd305860
bc395790
bc693410
bd96af28
3d1b16dc
bd9ef71e
3d9e1a4b
3d22fd76
3d063172
3d1f3f2c
bd9b7d39
3d3cc2f2
bcdbcfb0
3c65fb58
3c303740
3d707dfe
bb04ea40
3c9395c8
3d23cf02
3d982b6b
3cee623c
3cb911d0
bce0f982
bd9c80a2
bd74039e
bc2f3ed0
3c9d333c
bd75ab4c
3c6564d0
bcaff266
bd873338
bd71107a
bbe1ec80
3d819cf7
bd881e18
bc20b7f8
3d534566
bd53196e
bd042e50
3d0e4e92
3d80c305
3afc8400
3d92a728
3d67879e
3d8ffa21
3d626666
3c910fe9
3d2527ef
bcb145e3
bd7aea4e
bd38d135
bcaf0a2e
3b866a0c
3d805b5c
bd1fae1f
bbaead00
3d81dca2
bd45e858
bd724064
3b961d70
3d08f6fd
3b8eb136
3cfbcd16
3d4c9a62
bcdff6b0
3c45d456
bd97de8b
bc537e13
3da1d3b2
3b23dce0
3c0bd620
bc342666
bd03ab91
bc196b8b
bd6d3d00
3d860fea
3d71605a
3d28f0b8
bbf9a1ab
3dacef6a
bd314792
3d1696d2
3d3edac6
bd8b0d71
bc2d9b3b
bd9cc89a
bd17c542
3cea1bfc
3d82c2cf
3d3717f7
3c5c6b08
3da38aaf
3da34cf1
3c927006
3cf957a8
bb37ec80
3c5bf540
3d0f34de
bcf45c4f
3d57be0c
bd801348
bd5c40b2
3d4d6602
bd87c4d6
bd48ed2b
bd2246bf
3d7d0f3a
bd58c4a8
bc51b060
bc3d2ea6
bb9ae2cf
bd1bd699
bccd1596
3d2bb3d6
bcc58be3
3d2595d6
bd3246bf
3d870107
3d32a8fe
bc3c2988
3d9269ff
bc4ec8c0
bba161e0
bdb6cee7
3c58627e
3d78a31a
3d6b94dd
bd901fec
bcf03329
3cf5aae4
3d781714
3d9e1755
3d67b0e6
3d898b29
bd0547ce
bc93c118
3c808c1f
baa18980
bcfb0d0f
bc880feb
3ce4e168
bd0a1e91
bc8d0e74
3bcb8960
3d630d22
3d7cf070
bc5ad7e8
bcea1f14
bbb5a2b0
3d61af5b
3cfc894c
3d553b2e
3d4d12f5
3d0c9f6d
bd6fe9a7
bd165b8e
bd3f40a6
bcf3f596
3baf4e10
bb0cf1f4
bd0415c6
3cb35780
bd26350e
3d2b53b4
bd05822b
3d18bb8a
bc7826e0
bd700ed6
3d425c2a
bb1aff1b
bac3210f
bb284430
bd46223b
3dd3af6a
bdf7e313
3d9b03e2
bcd57743
bd3f4ffc
3d70a122
3d4586ee
bd05733a
bd02d601
bc44b230
3da49b2f
bd50d82a
3e2249e4
3c92327a
3d580337
be0f2596
be1e23f9
be32855d
3caea8b1
3e21b0eb
bda1a6d8
be26f81e
bd05c3d8
3c9119b5
3d9ccf3d
3d22b34e
3c7ccca2
3d5fe3fb
3cba80f3
3c224dd8
3ce4e4a4
3d2b6ff8
3d3a3eb2
bcb5ddba
bdc73de3
39b98500
bd59e2ae
3d8880a2
3d3b4fea
3e743a4b
3d7363df
bd1268b1
3db06828
3c7957a0
3de5ef1e
bd9cf61d
bcedd0ce
3d903c23
bd9976b3
bd18e673
b95d3000
bdca7014
bc6c7d58
3e1c0783
3d95e55d
bd77dc1e
bd853c5f
bc525fe0
3cdb2e85
bcfeab34
be11a4bd
3e031ace
be29ee3a
bd89bb12
3d5de3fa
bdbd0eca
bdf60b16
3de0d231
bd270357
bda22de0
3d77c122
bd341b79
3e0a81ae
3cceb8f8
bd99a149
bd87135f
3cd731a8
3ca83cdc
bd88e4c9
bd5c1713
3da04ab0
bd69a67c
3cd2e4b4
bd439851
be01841e
3d64338f
3ce938f0
3d84963a
bdb671b5
3d0378ae
bdf2938b
bc09b988
bd2540a1
3aa49800
bc526ae0
3d8b7e49
be5651b6
bcfee403
bd93481c
be26ed70
be0a60d5
bd88c1e5
bb1c2898
bc7fede8
3e504fcf
3e68c4e8
bc7868cf
bdc7f1e6
bc0e5d86
3d8df4c3
3d12b7cc
bde1392b
3d5d017f
bda2914e
be504278
3d755910
3d34b36b
bd609271
bd7c694d
3e815c9d
bdc69f16
3d839c0f
bd8ff06c
3cedb634
3b9fc687
be0c1d37
3ce6abaf
bda4687c
3e4779b2
bd8ef9fe
3d7d60ce
3e35b050
3e113ca5
3d822676
3a296380
3d71ce41
3baa8f59
bb278a1c
bd18c8b2
3ce89f56
3e3b528d
bd5ba16b
3d8d58d6
be27e255
bdfee483
be6edcd6
bdba986d
3e30acc5
3d8986f9
be5c5166
3c50d89b
3ac5a32f
bc673620
3d7205ba
bd2fa4a1
3c949a0c
3dbef8ee
bd038908
3e0a29b1
bd3e7a13
bceff710
bda00389
3e0204a5
3ccec935
3d1c76d4
3d9fcf1e
3d958f7d
3e5fab2e
3cb3a81c
3d71a96e
3d9565d2
bd8b5fe7
3d690b25
3d125094
bb6fa540
bce4a0aa
be0fdfda
bcc461fd
bd9450ac
bdb7d8ce
bcf9314c
3d2752ba
3e0402cc
bc61cee3
3d1918aa
3da328b2
3d41b963
bc509a05
be1814c0
3e0f9b8a
be34f8ee
bd867a4e
bcf4322e
bdb97a2e
be177484
3ce44824
bc176ae0
3df5657f
3b99dea0
3d47d0be
3e4819cc
bd9f5011
bc18803d
bdbc6e5c
3d835c83
bd8b4092
bd213bc3
bc79f5c6
3d8ad30d
3d6aeabc
3cf53d78
be1a6891
bcecb368
bd9c17a1
bc1c4a88
3d8d196e
bdde7dcb
3c76dee9
be4ccd51
bcc425b2
bd445448
bcd18150
3d9631df
bcf08b74
be5ca8d9
bd442012
bc6ef330
be00e262
bd7da03a
bd88bad7
3d6dd3db
bdd27010
3e6ff66a
3e321d53
3ab18c72
3c3ea44c
bc29122f
3c869c32
3d1401b8
bde2cdee
bc10ba1d
bd53bc14
bd8b5173
3dab5c45
3db6d12a
3cf3e4df
3c9682e6
3dcbca7f
bdde53bd
3ca92a23
bc19c77e
3cf93db4
bd89f4a3
bd871b98
bc82d1db
bd8dc003
3cd8ea62
3d8595bb
bdd17f70
bb2233ce
3c1ab3d9
3d883542
ba9f7101
3d8afa8d
3d8dc5a0
3daac969
bdbca97c
bdaaf2b8
bd3b82ae
3d9bb7fe
bd2903fe
3c5841b5
be179a9a
3958b466
bcafd3a6
3c5aa043
3db119cf
3cff450c
3da4ac56
3d1e89d5
3d96a31b
bc403638
3d44573a
bd4b5619
bd16ce9f
bd02fbe6
3e36cbe1
3d1154a8
bd9a6cc3
3d118b72
3c47bb63
bcc3a998
bbf6d94d
3d16d0b4
bc9d840a
3c201a2b
3d8da45d
3db5d348
bcfb1918
bca5309c
bd2f9896
bce7c4f8
bd2e7ff7
bb848897
bd9be788
bc8f5da7
3d9bcf11
3d505c9e
bd3204fc
3d43d442
3d9cb72a
3cab8959
bd922213
3db7935a
bd8f4ff6
bd00664e
3d8868e3
3dc824ad
3d86bbec
bc49e668
bd9006de
bda6e1fe
bcb2131f
bd82e967
bc0d8c6c
3e00c86a
bc33a958
3d54fe36
3c94e23d
bd858a64
3cfff6ac
bd9813ea
3c94ff3d
3d741fc9
bccd80a3
3d6a01db
3c93b5b2
3cf30e92
bcca7260
bd9ca7f6
3d8a12ee
bddcc97e
3d9548e7
bccf03bd
3caeef69
bcc5d492
bd53e9b9
bbd32bcb
bd4da173
bcd49ceb
bcc20d33
3cb27b34
3d748cc0
bc0032af
bd906673
bda24b75
bda19033
3d175742
bd183933
bcbc8c9d
bc4acf4b
bb1961d8
bb954b5f
3d1122af
3d69e0cf
3dc31b66
bd91a549
bc3ae0d2
3c6bc1d6
bd3afc0a
3d0b6af5
bd63bb9f
3d0b3a38
3d24345e
3cb4325f
bd425ba1
3e023be8
3d13c4d3
bc1c9dee
3d83dc43
3e0a1c11
bce3d2f2
3cd74059
bc29546e
3dfe3bd4
3e4de57d
bd6bfda7
3d65c805
3dccacf1
3d76c4d1
3d49642a
3d335e8f
3d2217fa
3d0f4911
3d8751ca
bcf5b67f
3b8083db
3c24ccd8
3bf953e7
bd8aa11f
be0656ce
bde691d0
bd8cd9db
bd18108b
3dfac211
bd86f598
3e2c74f7
bdb344a8
3cc04440
3d9ef3f7
3d4800ce
bd4f6228
3dd105d0
3d66c7ee
3e5b4106
be0a0b54
3d8af591
3cabe17f
3d91bc83
bcba5236
3d9ccd63
3df899cc
3d9f7eb5
bd5bb5d3
bdb79036
3d2ff140
3dd581f7
3d54cb22
3d1e9ea2
3c51a7b0
3d8e7aff
bca0a967
be1946b5
3d6bca95
bb9ae4c0
bb5c1492
bdbb5d97
3dff1d1c
3df78e1e
3baffc8e
3d41e59a
3d14013e
bdda48c1
3a5b24f1
3d78554e
3ae62e0e
3e2a0643
bcf7d6f6
3e0b8366
3dc29ad5
3e4658f0
3e2d2eab
bcc0418c
3d4d372e
3d94cdff
bd1f7580
be2a2a35
bd881b00
3c8ca07a
be0d5ad6
3dc0b6e8
bb3e2b88
bdea50c0
3c27c01a
3d27c38f
bd20d6cd
3c46e818
bd214682
bd89fd2e
be058e01
bd94f2bb
b90c6a4a
bd98790d
3d8f7ead
be033d9b
3da7061e
3db28bc5
3d9c01b9
3e41cbed
bcf78d56
3bb04e98
3da36f34
bc2b7599
bd0cec72
bdf2ff33
3d52cbda
3d76efc9
3dc52164
3da412b8
3cff7c18
bd89544d
3e1e1971
bb0494a3
3e40cf7b
be3bbddd
bd85cd5c
bb9b3bad
bd927a21
3d91d64a
3d7cf753
be5b5d29
3d3a2e55
3db3ee9e
bc3531fc
bd9f2b5f
3dd5620c
3d31bf75
bccbb758
3da52129
3d337d37
bde5d16d
bd8e767b
3da653fb
3e1c076f
bdc8d79f
3a8facc1
bc6701ad
bdd5527a
3dd7c9ec
3e6a14fc
bd97262e
3d443849
bdb095fb
bc33cdc6
3d8b9497
bd2249f6
bd4c79a0
bced8041
bd98851a
be640025
3c3cbcc7
3db65a8b
3c9b6330
bdcfa70e
3e136289
bdd0ee36
3d6f33d2
bd9abec6
3dfcfb39
bd96630d
3e1b6421
3d561422
3e896b38
bd44a207
bd2647ce
3c18e4eb
3dec59e7
bdfe2d65
3d352924
bc01eab4
3d2a7a49
bdb41570
3d96a3b1
3d29372a
3de04ed6
3d6235aa
bd0b30b2
bbddb730
bd86fd66
3e33f9f1
3a4f5d74
3dd31bc6
3d2e9b42
bd0acc3f
3d5594d8
bb6191b7
3e4c77d8
bcec35b0
3d8e0dbc
3db3f3b6
3c0c9fad
3cf62d28
bd685e0d
3e082f79
bdb31b93
bde43554
3c4e6e6d
bd9bc3dd
3d93a9f7
3d19d6d3
3bbc7d06
3e139f4d
3b9cfeea
3d0c5d2b
be0dd132
bd0c085c
3d5542cb
be281d12
3da34047
bcf64cb7
bd970173
3d9e735e
3c46afc9
3d89e878
bd4a24a2
be2538f8
be6bcbee
3d339b88
3d057f7c
bc591be0
bdf5b771
bc86a388
be2cdeed
3e307111
3df4b3cd
3df77532
3e0a6402
3cc6bb8e
3c5c5ce4
3d7ea17b
bc6b06da
be2a25c8
bdef2d8f
3b743720
3be76c76
3d02e977
3e3f2e48
3e3f7f95
bcf6f1ec
3d3ffaff
3cf23a95
3e3c40c0
be33fc62
bdfa737a
bd923fee
bd1b216e
bca1ce3c
bb74f00f
bdbc4f46
bda2acff
3d7c118e
3d7c9972
be05c314
3d900dae
bd6cb648
3d5aa592
3dbe1432
bdb0ce3c
3e05db8c
3c1b46bb
3e9f0af5
bcb8c444
bdb86d94
3bc3654a
3dd85394
3cc8efa2
3e54afcd
3e79d030
bdb0812a
be37c55d
bd0c0be1
3d7fd9dc
3e597c16
3dc11de8
be0614f1
3ddd3abf
be872771
be2569b5
3cd1247b
3de57a75
3ea80969
bdc5e5f7
3e24569b
be07276e
ba528880
3d50534b
3e292cb4
be482be6
3ebe86eb
bd7e8f8c
3d5034ac
bd844c69
bd9eaf7f
bd42d1f8
3eae981e
bde259ab
3d9ce474
3e4a5fda
bce08f5b
3d12a959
3d609c13
3ddd454e
3e4fea02
3cd3ed68
3e255dc5
3c9219f8
bca9066a
be1dee02
be54e938
3d9546b2
3d46ab26
be44be37
3acb9584
3e333d24
3e0aa650
3df46938
bc64ba12
bc09e3ad
3d58a41f
bd5c9907
3c6e7a82
3d9d667b
bd935152
bcff91f2
3dd68994
bc117367
3bd9713a
bcb66256
3e2d6b2e
be08dcc5
3d68484f
3e5e040a
be1db06b
bd22e9f3
3d2d3fda
be5df061
3e4bc518
3cb5ef75
bdceaa3c
3d07d086
3a4d1225
3e1c8b61
bd45797c
bdf3f125
be2c0f5d
bd8312d2
bd866d88
bb371e90
be648281
3e42c5e4
be3f8523
3b08d17f
3df789fd
3dd8906b
3e1864c6
3cfe9efc
bdb9cc2e
bc961035
bad89f04
be442061
bde3957e
bd71f136
3e5215c8
3e2b9a8b
3e49112c
3da719f1
bdbbbe39
3e77ddaa
3da0854e
3e8ccfa3
3d2f68dd
bd97242d
bc856f20
3cfa4881
3cb5f805
bdd84baf
be2d2485
3e84d8b6
bd81ffe4
3dd6f854
bd82d9f0
3e919552
be30923e
3d3a8f7d
3defd104
be2eaed1
3ca4976d
bde51e9c
3eddd5fc
bd95c9a3
be4290e8
bd7dfbc4
3e185727
bdae9d0f
3e0be32b
3da5c610
3e0bfde1
be32b581
be9348bd
3cf0d25b
3dd19435
3dc46460
bd094613
3e6f6724
be7bcd0e
3d17c197
bd83a4db
be267daa
3eae5933
bcdf7613
3ec7f63b
bea54e1b
3d846cf5
3d92c0c1
3e244416
be289513
3e930986
bd2a8bed
bd9a341e
3cedbfe7
bd44ef9a
bd81f477
3e9ed964
bd7928a8
bd8cdb08
3e126673
be67b8d6
bd535e01
be25fb1e
3e1677ee
3ea2c937
bd8a5efe
3d4e7ba6
3d255c85
bd2ab433
be24f8b6
be35fe52
3e611aff
bd6f5638
bdffca03
3d84c2ea
3ca2bb5d
bd617b87
3e3aa11c
3d59f2dc
3e6fed34
3df6ca77
3b7899e3
3d730ccd
bd7c3304
3cb99fb7
bde3b873
bd05adbf
3e0cebc3
3e3a7230
bcff8af9
3db432ef
bddee766
3d8df7e5
3e10e645
be0355ae
bccfa58d
3e76ef0d
be160c65
3dce4c7c
3e3fad61
bd86f4ed
3cc58d37
3da904e2
3e23bf3e
bbbb4480
be2a9948
bdba4b29
bdb6663e
bd7bab5d
bb962858
be659b05
3ea5c55e
be32f2c8
be037863
baaac989
bc8d0a83
3e8f795c
3ca9d1ca
bd7b1698
bc1d70ae
bd4cf2f8
be488997
bd134a17
bcf19604
3e64fa82
3e20ec12
3ed319ab
be101665
bddb4402
3e6b9857
bdd14fda
3e06c104
be3b4930
3cf56531
bd67b4dc
be11d3ad
3e24372e
be1606ac
bd94103f
3df3962a
3c3067ab
3da11bd9
bdb4cde7
3e9ad81e
bd930ffe
3d0c7b98
3e9cbed9
beb0c340
3db99d28
bddcd993
3f04eae3
3d00a609
be13176d
bd8d5ba2
be8270f7
bd4a73fc
3e4add0e
3e26252c
3e0ccdd4
bdf44c2c
be9a4652
3d8f9bb3
3d1ad355
bd922ef3
bd348f69
3db8c0b7
bea650a3
bdaabb61
be641c62
bddaf49f
3ea10fbd
be3fc8bd
3eeb969d
be7fa0a7
bd093d92
bdcf6101
3dcfdea0
bdef14f1
3f02d20c
3d08c140
3dcd345d
bbea121e
bdfd9c42
bd5d6843
3f0cea05
bc67ab23
bd007647
bd8a5bf2
bddff646
bdc36850
be1e8f99
3e75daa9
3ec4dab5
bce7b988
bd09dccc
bcbd709b
3c08c168
be395168
be7d1571
3dbcded1
3d6951ec
be15db78
3e8a1154
3eaa720b
bbbb4d65
3e24cdf8
bb390eeb
3d5a9fdb
bb7525f3
3cc8fa18
3d6b127d
bdd2019e
3e90a86e
3c41a275
3e406181
3e781fab
3e39b03f
3d82b4eb
3e5fca20
be6bf74e
3d60a943
3eb273a8
be9ec9cf
3d4ae9be
3ecb6c42
bdfc1b05
3e4c2e55
3e05effa
3c13395a
3e708569
3cbf472d
3dd3b531
3d854099
bcfe9c85
bea1ec38
bdb75a07
bc8189e8
3c34bb6c
be51c6d3
3e98e523
be76d206
3d0322c8
3d8f5b30
3cc99e64
3ed4ed76
bd19f511
be4c4e11
3cd791de
3d845128
be861f81
bd726ef0
3d61e659
3e2a0dbf
3e9f1cb2
3e9613c5
bde72b6f
bd9d70e7
3e8d35de
3d707727
3df26057
bdac7ba4
3e77fdac
bd82896f
be88747e
3e22aa97
bc924fd3
be06cf26
3e266b00
be5b568c
3e39b742
bba2f0e3
3eaf07cc
be123d19
bd975c78
3dc94825
be6c581d
3b5ece5b
be28f38d
3f13d965
3e9e6e38
3d0f183a
3db5b405
be7e3928
bc2e9a35
3e36345f
3e98e942
3e19b1b0
3dc3d401
bebea65a
3d2625ae
bccd3884
bc50d4bf
be89fabb
bdbdf461
becb6423
be84d297
bdeed9f5
be60c951
3e263987
beddba58
3e5f6a55
be9ab069
bd3bc8b1
bdf52313
3e2a5b6f
bda947ac
3ef9f00d
bd53f6ec
3e90f21b
bd3880cc
bcda3de1
bdcd3a7f
3f153cab
bd25d595
be2cad81
3d39858e
bb34545b
bbf37de9
3d1691f8
3e5ab890
3e661958
bc519978
be113d43
bd00b092
bd60c81d
3e04338e
bec9d41b
bd2431a8
3bfbccd3
be66d059
3e2e2fd9
3e44ceca
3e814d53
3da215be
bc4750b4
be3040b7
bc8d1003
be622a6e
3ddf7ac2
3cf50647
3ed38ab6
3d161eed
3e60cdb7
3e069167
3e11d527
be13cebf
3eaf9ddc
3e331685
bb919d3d
3eefe03c
be45f8e4
bda6c358
3ee8bbec
bdd5ce8d
3d1b183a
be57962f
be4cb994
3eb8b540
3e3cf9be
3d72441b
bc3ea340
be7c9961
be90d274
be84bd60
bcf155f0
3dd5208d
bd63bfd5
3dc510a1
be60285d
3e4ba940
3e27c842
3e08f8c8
3e85cc68
be0c3c53
be6e3166
3d8f44b0
3d30f885
be763af2
bd9b69bc
bc1a38cd
3d62773d
3e307375
3eb5528c
3d102b69
3c52f786
3e85d9d8
3e5cf901
3e442c41
3d35b2ce
bc79ee5a
3c7ce5bc
be1ab322
3e9ee822
3d7827af
3d9cfc90
bac60727
be3a548a
bd6a382c
3e23b4ee
3e7a2d29
be2208c7
bd17c108
3da86f0e
3dd0166e
3db1c8e5
3e13a29a
3d574880
3e998bd0
bdcf4b82
be0daf74
bec025ee
bdd4f11f
3d90bee3
bc7dab7a
3e0d3689
3ba2c2f1
be68ff62
3de55833
bd065f9e
3e2199d0
be43961b
bcc086eb
bda83347
3c85e3b0
bd90b8af
be0ba2f6
3da9905d
be24674c
3e1895ad
be8ca637
3d94ae29
bd4cd59b
3e105984
bd9dd18c
3ea625ac
bca18122
3e14edb7
3dc2c562
be4fedcd
bdd6da25
3e0a3938
bdcfbe10
be04726d
bea026e5
3e274281
3cd85f31
3cb08b87
bd535b6c
3e406c94
3d68098d
be45414a
3d7d250c
bd7ab2de
bc91d737
beb056a4
bd7691c0
3d839fd9
bebc6ced
3d25dde8
3ded3f06
3e41fbd2
3ca6eef2
bcfa098e
bee1ea93
3e099b56
be8ff537
3e0601cb
bde23e53
3e88f6cd
be221d28
3e92b342
3e3028c0
39ed2a80
3c55672f
3ea280e1
bdfee5b4
bc313b92
3eaefcae
be48c117
bd909967
3ec47266
bec9a5e9
be2a07ac
be0725e6
bbea417e
3ec52c5e
3daaf615
3e5ef5c3
3da43201
3c78cf95
be967bde
bf06ab30
3d2bcad8
bdb06e73
be24e376
3ea04e14
be7ad8a0
3e0320eb
bbfc165a
3e9b2abe
3d3a4d65
bdc7eed0
be0396a0
bd647e2b
bc9799fd
be8bd274
be3eb4f0
bd97b43d
3c3cf213
3e21933f
3d8c7262
3e031cbb
3d65cc43
3d96a906
3e4fb5ac
bc0173dd
be68b672
3d8f73b2
3cdd6bdb
be18dcb3
3d9145e5
bd643972
3c7ad634
3d469b3c
be241bd8
bd588233
3dda8218
3da46791
3d92e039
3d44c47d
3d55f58b
3e1eff0f
3e3e2647
3dd2afcd
bda07775
3edd10f2
3d6b81e2
bd134ce0
bebad508
be722c11
bdd43d2c
3cd58271
3e6e1c96
3dfbae58
be37d0d1
be1b6aba
be497320
3e3e5f92
be4a47a4
bc832ccc
3d53595b
3db27f13
be6834f7
be040dd6
3dd08a88
be69a693
3e7956b8
be80ca8b
3b6e5f78
bd0ea44a
3df1fd30
bca802c2
3dc0f6c5
3c66de60
3e8c6b5c
3e1fb710
be2abdbb
be0b903f
3c429557
be26baa7
bd75a6a2
bea3aa69
3db65aac
be88487b
3e1fa13f
be60a161
3d08e4eb
3b881d50
be8f9131
bdb086fd
3d2bc5b0
bbaaf7f2
be8b8e9b
bd3b5bde
bd9bf205
beb7f157
bd9e66e2
3e0d2917
3ee75c6d
3d0836b2
bc469958
beb6b5a2
3e4d37ea
be9d73b3
bd1cd9c3
be38ba09
3e6820ad
bd853ad0
3d3793e8
3cf945ab
3ca54a6c
3d68a5ff
3f012339
bd3a94be
bd97eec1
3e91db7c
beaf4647
bcd2a3f9
3ed515df
be8fb4bd
be10b25d
bcf3ce4d
3d5997e1
3df4d4a8
3dd40041
3d3c3bb1
bd1856dc
3df5e335
beec63e7
bed53a74
3d284bc2
be55ea44
be217e8b
3e6ebb13
be5fd7df
3e941665
3dcd406b
3ec734d5
3d3ba304
bca7b875
be24de5f
bdabdbd0
bd12219d
beebca7f
be2161ab
3d63bc55
bd891a21
bcf268c5
3cd1fc12
3de7989d
3c82857c
bc8a48b4
3ea5ad6c
3e44e743
be84995c
3caca3ef
bd4c08bd
bd6d195f
be1b64fa
3a3129a8
bbad8696
be3c5392
be0ade4f
be32e3eb
3da40f16
be7d98df
3e8ddee4
bd847c09
bdded746
3dfff209
3e16899c
3cbed5a3
3cf3bc89
3ed90d76
bdd98222
3dcef4b5
be89d715
bbfa5f11
beb2f7b5
3e5954f8
3e7a71d4
bdb47b9c
be2e3c99
bc2833ff
bd90b048
3e59be45
be6118ae
3c24667c
3d508ebd
3da6f013
be9204ae
be046d62
3d3171f7
bed84632
3ecdd1c4
be559274
3d98140c
bd3b9b87
3e179364
bc034b22
3e70efc5
bd2ef428
3e3b8784
bd9a5832
be62b458
be1daebe
3e72bb12
be09a50a
3cab8abc
be6b7bdd
bd03fd9d
be2688f7
bd1e32c3
3e020bde
3e534490
bd801b02
be2e4b6d
bd3593db
3cf7ef28
3d5ea1dc
be8dbab4
bda5f968
bda0f063
be8689eb
3d88e4b7
3ceb043c
3eb8f7e6
3c9d6cd4
3d204a99
be98da37
3dbc76c9
bdfd2c58
3e6ce153
bda9f1d3
3ebe00d9
bb64c373
3d86f427
3e29acd9
3e144a7a
bd95ff6c
3ecb8cf8
bcc5ef72
3c999a01
3e0bdc93
be947bea
3d24d1df
3e5efe7f
3c9ad1f6
be3a7ac9
3d2cd05e
be4ef635
3e81f18a
3ab2d68a
3d3825ce
bc80c754
bcc90da2
be9eb615
beb43a19
3e524fe8
be516884
bea6f874
3e1a680b
be937fb2
3e976807
3bec998e
3eb00b1b
3e202197
be864bba
bd2525c7
3dbede8c
bc9cc7bf
bee742d9
bd6c9f4a
3d6d3c87
bc2f5463
3d769aef
3ddf3319
bb938207
bda9157a
3e882c98
3e0286d6
3e11f7d1
be99a772
3e0c4002
bbade293
3e3a51a0
bc1f3ab4
3dfc1162
be32edb2
be413cb1
be35ed61
bd98305b
3d6c9ac4
be9c5d13
3e8e23ed
3dc63849
be4bd4db
3e55b42a
3ab6f3a6
bdb4317d
3c953baa
3ef777f9
bd96b67b
3ea494b1
bd1ba5c5
3e8d77fa
be7a3bc0
3e276f6a
3ea3960f
3e22c67a
3d55ad92
3e976dd5
bd10ce73
3e11474f
be2ef789
3c2e1d7a
bda5de0f
3b5843a5
be368f97
be2a8166
bcd9451b
beb6adc2
3eb6579f
bdb0e950
bcd24fd5
3e139bae
bc992bcf
3df4d2c1
bc2ef60c
3d250c16
3ec5f71a
be038898
be527c7a
3e12ea79
3e535f90
3d20dd9c
3ea2d980
be45a934
bdb7259d
bdf086ea
bd906c1c
3cbba161
3e02fd35
3d0c9e50
be025e14
bd931ae6
3cd38f14
3e286127
be81934b
bd0cef78
3cb4afb0
bde6053e
3cdafbf7
3e4003d3
3e948b4f
3c892298
3d18136c
bec5c33d
bc591f38
3d32c1c7
3e57c8d1
3dc7c345
3e916b89
bc38996c
bddf63a6
bdba7c0d
3a59ff82
bd5fd908
3e8a1ba3
bb96b503
3d8521df
3df1db10
be6f1a7f
bda3733d
3e96f2b4
3e590150
be7d3d6a
3d0ad4c2
beab80a6
3ef1187b
be1f8b47
bd869673
bd46657f
bb949295
be859c60
be228fa9
3e1373dc
be73d436
be4f6906
bca62a23
be7075ab
3d8e59e1
3e63e2d9
3e9ff421
3d4e3208
be90fa3d
bdf6ad55
3d7c32d5
bc9ef46d
be0f8e37
ba261100
bd6650ac
bd39bdae
3df87f09
bd698b93
bd271ec0
3e03a52f
3d007579
3e88eb66
3e48b745
beb54c24
bd942ac5
3c8c9602
3dd2e604
bd2a98f6
3df78dac
bdde69ea
beab00e5
be6aa296
bcb4f210
bd5204c5
beb21a92
3e9c0737
bd141ee9
bdc18169
3de394b9
be1ec0e1
bdaee330
bcff3528
3eb5af12
3d5a506d
3ea18c82
3db3a1e7
3e848c19
be98da8d
3d33c634
3eb1474f
3e4361df
3eaaf66c
3eb90b82
3d92aa2a
3e0e2b81
beb789f9
3db92c97
be378473
bdf4e90d
be950911
3d0507bc
bd6e28fd
be85ddeb
3e2a6fd5
bdba7483
bd3c225c
3e230a60
bdf00cda
3e39281b
3c9a7c88
bd95faca
3ea80cb7
bdbd81be
be7d4242
3bbba139
3de30d1c
bd9efaf1
3e7d6fb1
be0be3cd
bdc400b7
3e20f62b
3d586ee1
bcc5fa1b
3b885427
3d0b8336
be274c7a
bd2d0f4e
3bcd62b9
3e9d7456
be7ae4cf
bd89d264
bda169c2
bc986997
3e694f32
3e8e56b1
3ebe352e
3db825f7
bd9dc334
be147db1
bda019fc
3d9dd0e4
3defe5c7
bb8538d0
3e2f24f5
bcc35a4c
bdca8fb9
bd8883ca
be1c55b9
bd0ff193
3e99df98
3c896c5b
3d051b7a
3e9a6b6d
bd17d1ab
3d2f4305
3e8592a2
3e8ed76a
bec00798
be3bd014
bd4eb254
3e983d32
be6426f6
bd58d2f0
bd68a85d
3e697630
bd1933ca
3d96656b
3e8020dc
be08b8ce
bdd501b8
be6d3f9f
be7ecd64
3dc31f68
3eb9ffa1
3e71c447
bcfda163
bebab15a
bd84bfda
be24bd8e
bd70844e
bcf07586
3daaa460
bc412d98
bda394a1
3dc2db6c
bbd5b772
3e351421
3e026604
bde7ca7e
3ec43c07
3e06097f
bf0c7943
3ce0a7bc
3e31d6b3
3e3443b6
be4704ec
bd23d407
3d2cd3cb
bed1830e
beab0b0c
bdb3eeb3
bd3be35f
bebc6cab
3e9c2aef
bdf1d9a0
be3f5d0e
bd9169cc
bdc6f880
3d99df4b
3e1e9cb5
3e010419
bcca472b
3e15064a
3e0353f5
3e4c8dc5
be1904ae
3e6d0889
3dbd846c
3e40f4d8
3e4f0c74
3e0ec0bb
3d0b2903
3def64c2
be0cb61b
bd904613
be2f723a
be3c8fe7
be502a85
bca4d913
3c479b48
be63f1aa
3d51964f
bdd28ab5
3bfe2131
3dfe5efc
3d686a89
3e2a20b3
3e83c2d7
3d51253e
3e9397e8
be4af77e
bcc76bc2
3d54a3cb
3e3e1e22
bc662534
3eb48ad0
bdcb9853
bdae029e
3e0e24d7
3d3b8b28
bd93bdc5
3b91385e
bcb07a7a
bdae8dbe
3d307109
3d4aeb74
3eb2b4aa
bea49504
bdab5de2
bd84c713
3e018729
bd5ec1cd
3e32ad5d
3e936561
3db45b42
bd52ff09
be15810a
be70f1ed
3e4cac71
3e8019a9
3dd2bba7
3eacc06d
bda630ce
bcdcbd0a
bd3c025c
3c75685e
be090e15
3de5e352
3e0b72e7
bd16d9eb
3dc5b873
bddac5d5
bcb6853d
3d926007
3dc4bdb1
3dad4724
bd55aab3
3d117005
3da47692
3dae505c
be372726
bd11a068
3de1af66
bdc52aae
3d0af408
394b046a
be82d77f
bd6113b7
be1b123e
be7619d7
3d426b5a
3c1248ad
3e39ab31
3c09192d
bea4e57e
3b9a83ae
3d7e0901
bd3587cb
3b380fa6
3dcc1df0
bb84cfb0
be02b4d5
3e26bdc1
bd48edfd
3d804252
bce4fd38
3c9e5788
3e124150
3e8880e8
bdfa9353
bd534776
3d3dc757
3e93bf05
be05339b
bd88a8dd
3e393945
bebf1039
bd2451be
be16c239
3e469ed5
be0b4754
3e277392
bd3cdc2d
be387fe0
bd58754e
be5fa6e3
3cc71f2c
3d6f653a
3eaa4e9f
bc359a00
3dd67a71
3df5e6e1
3e0bdb16
bd613c98
3e997b25
be634559
bd61fee2
3e72702a
3dd9eab3
3b880e3a
bde8400c
3e1eac46
bdc19030
bdb23f90
beae911f
bdef42e0
bc984e17
3d40a3fe
be73d741
3e17b377
bde35ebc
bdadc29f
3e17d292
3e57fc11
3e950559
3def5e3c
3d168408
3ea36cab
be0c8443
3c5b63e3
3e4faec0
3e66c9a2
bd7b3cb8
3e5db9f9
bd54aaba
bdcf9588
3dbbeecd
3da81951
3cff0d7f
3d785ed8
3d8faf53
3dea689f
3d59fba5
3d4951be
3e4abf17
beb0d617
3c85ad20
3cd99870
3ceb9b5c
be620663
3d815bb8
3e9be873
3dbc4e2b
bc10bb2a
3da1e56a
be6097c9
3e847b52
3d9d9d5a
bcff05a0
3e3eea7a
bd1ea3c5
3e5835e0
bd8954f4
3caea33c
3d7d717c
3d646d59
bdccebdc
bd5c6edc
3e71fbd6
bd12d4d4
3d254a2b
bcebebc2
bd239b56
3e5f78c8
bd9e38ff
3e1f7b7b
3c0b1139
3e2a645e
be2778eb
3d67f806
bc8326a1
3cc24866
bd65451c
3d9159c8
beabc91a
beacc2ee
be3e4098
bd20870d
3d901d60
3dd63da3
3e75cb53
3ce4697e
be27d7c1
be1f4d52
3ec6a047
3b980841
be198e26
be49aec4
3c1e5b48
be52cb13
3e45fd3f
3e449c17
3b1b8fb5
3e1888e4
3d56309c
3e830a9e
3e6400a2
3da4af12
be688eb3
3dbff89f
3e946309
3d5e0d51
3d60d83f
3c18b01b
beb63cc2
3d96cd18
bcc94566
3e796888
be5d4872
3d9b56ab
bcfee852
bd3552d8
bde217a0
bd90b7c7
be6e6bea
3d9cb663
3e930889
3da23b85
3e8158a5
3de462f7
3e6fcc57
bd252329
3e3db770
be25ecaa
3e052ba7
3e40ccd1
bdb51a2a
3d620055
be17f440
3da83eea
bdd492d0
3dc74c62
bec3c3ca
3e31eace
be2515a0
3d87b769
bd5f6c10
3e2ac2b6
be0143de
bd8014f6
bd00f08f
3db5ec6e
3e893829
3d879665
3d95e1eb
3eab6e57
bcb6a010
bc803a2d
3d912169
3e0b77c2
bdacbdb9
3e8e581a
bd9dbfb5
bb3e67b4
3e4167bb
3d3be8ff
3e62d9e8
bdff1ec5
bbd9416a
be0e0945
3d03d374
bd08f198
3eaf5300
bde0230b
bd40069d
3c8849dc
3d3652fe
be011f64
3d0aae00
3e8022fd
3d4b7be3
bd3cdc85
3df61b61
be523ffc
3e4fff8c
3d46efc8
bc424391
3dd5a3ba
3c059d88
3e80d2d6
be101803
bd16533a
be0bce22
bdfcd95f
3da9a9a3
3d0e32e2
3ddac498
3e16bdee
3d4aeb82
3caa61e2
3de0c6ef
be1a8869
bd5c784d
bd834d4c
bdc2ccdb
3e6143f5
beea1172
bd8f4266
bcedb4d2
bd9f272d
3d91f5c0
bd6c65af
be6d469a
beaf5eef
bd986546
bebaaf30
3b0136df
bd869611
3e6c0229
3bf83607
be09452d
be698fd3
3da16674
3dabdc77
bdfc75bd
bea60d7d
bc5edd20
be295c49
bc67ec23
3dcff193
3cc09063
3e4bef7d
3cf6510e
3ecd7419
3e3a5a4c
3dbf6991
bdb5b070
3cf5914e
bcd29cd0
be222784
3e746d94
bdf8c7aa
be58e2dc
3cedadb8
3e51f810
3e2436fd
be81c898
3ddd0a49
bc535ebc
3cdce75f
bde4b46c
bda6c95c
be279349
3e85ab86
3d7f5fcf
3da03aec
3e91f0f9
3b638c28
3e4867dd
bcd0398c
3e83bedf
bcee7724
3e6567bb
3e10cbd3
bd9ca705
3d5dd9e5
bda4f197
3c5f4e12
bda567fc
3e12ddb2
be174f20
bc184eef
be83486e
3ce3ff95
be01b5f6
3e074faa
be44bb28
3d9fd8e2
3d9a57eb
3ccbeb26
3e99cbcc
3d9a128c
bd8c0031
3dc908a2
3b8724c5
bd2f35dc
bd7c6d76
3e9b2245
bc9e6ffe
3e80e46e
bc1fd014
3932c5e1
3def796c
3d377866
3e072fe2
3bd1ede3
3d541b9b
3d5280d4
3d87c853
3d212dfd
3e1ea587
bdc16217
3c80606a
bd416a9f
bc3df9ba
3cc20c8f
3dda04cb
3e0796b0
3db322d8
bd687611
3dc63969
bded3958
3dfb0057
3c70505d
bd9336bc
3d0d9c67
3cbd3f78
3e81a7bf
be1abc10
bd5c0a3d
bda61158
3c7637ff
3e15a1d0
bd8a452c
3e402038
3d8316ec
bdacf0ba
bd59d9dc
3c9cc49b
be81a03c
3cd5ba3d
bdbd3b9f
3cceb7f7
3e1ee3bc
bec91c51
bd81e4d3
3d908e28
bd211f45
3c2848ec
bd9f9f1e
bdd92cd3
be2b6e6d
bde27279
bdeb700a
3c00a665
3dcba0fd
3e56001d
3e28e29a
bdf71277
bdd91a27
3c03b8dc
bb85ca81
bd0ef1c3
beb6d7ef
bd8c061b
be0aa9ee
3de6a231
3e804d5d
bd5da3a5
3e0f77d6
bc490f83
3e9ee933
3df770e0
3dbe25fb
bdcbb628
bcc1867d
bd1ac123
bc87fd19
3e4f4d7b
3d0007fb
be276607
bd0ba256
3e32854c
3e125a67
be3eaaa8
3e92a6bd
bd988434
3e50913b
bd66a7ce
3d239801
bdebc05b
3e6ead57
3c5c358d
bca0748f
3e4d01a0
3e4fac64
3e1dd8fd
3d4e655f
3e9480bf
bcb9a921
3e9ba61b
3c16bf8b
bc888b8f
bdd1a05e
3e02a7bc
bbd2e6f8
bdd4d385
3d1f6c9f
be4b745f
b9e337d0
3d2d7cd2
bd1dcb8a
be223bb0
3d0d6542
3c25298c
bd6b81b0
3c66cbc2
3dd31d7f
3de5a8b2
3e259697
3d840413
3c95fe6d
bb62c7f0
bd9ae509
bdfb4595
3e9056b5
bd5b6354
3e2d8290
bd0e8de2
bc953d53
3e5c2e13
3cf559ce
3d89f5c0
3e2cf8e5
bda1b949
3d1d2c12
3d94ae1b
3d6e63ff
3da8372c
bc9e14b0
bdad1b46
bd739b05
3e2901bc
bccc4b05
3c45ae83
bdab9034
3d9d658b
3d1b1247
bd90fec8
bcf8afed
3c79ccfd
3c0ef2f7
3dc740e6
3dba09be
3cad3600
3e61ff48
bd90c658
3cd1644a
be136bf2
3d085f87
3e2b333c
3d706875
3e2e1cc5
3d49e788
3c9dd53b
bd994040
bc063d76
bc187f4e
bd7864e3
3d843eb4
3b18cfa7
3dc9e5d0
be03a0f9
3d74d5f1
be03f0ac
bd1938fc
3e210422
3d769991
bdf019d3
be69e9d1
3dc82bc1
be3648d2
bb93a856
3db1233a
3d58daa6
3dcb4a12
3c0325a5
be84fd85
be4cb977
bb1b285c
be03e225
be530359
bc35f908
be3198c1
bd841f3e
3e349f53
bd881d91
bdfebc15
bce01d6b
3cf420a0
3d70c0ca
bc1e59e9
bdb271ce
bc818d61
bd28c2cd
3d1f31a2
3c9f1d3d
bd376469
3d8bb6e2
3c95cfc2
3e59fb02
3e3bcf17
3d82d758
3def7b6d
bc92938b
3ce455f9
bc407873
bd97e9e5
be15b0b5
3d25b719
bd3ded93
3c7f160f
3e863ae2
3ec0992d
3e3a588f
bcb4b4a8
3eb0afbb
3bb99cc0
3ee8a127
bd44b32f
bd49c397
bb8c86bf
be05020d
bc976c08
bec582c0
3d36e8ce
be26ddd6
bd991257
be11b176
3d507c62
bda8d05c
bde0fc05
3dd1a0e0
3c8c6a5a
bbc28c90
bcf215c9
3e0e47de
3d07692c
3c5c0de8
3dcbe228
3d9a0d66
bd8bd34d
3c8ed5d4
3e293c70
bc58c3ec
3dd055f9
3d36ad02
3cb5ae1f
3d41b8fd
3cd73bae
3da2b52e
3e420ba6
3caf5038
3d391114
bd14788f
3d07364e
3d9edb24
3c18d8de
3c864515
3d301c4f
ba7c50c7
be0b6639
3c2b0c0a
bda54859
bd17e2c6
bd5ad263
3e233fea
be142632
3b9090d7
3df8bb8b
3e019389
3e1ef1e8
bcf396ba
3e9d56c0
bd9fad58
3dbbae27
be1c8269
bc92ef91
3eb781b9
3d317732
3da0a3ab
3dfb4d96
3d239acd
bd13a22a
bdb93e09
3afe6d3a
3d9b35e5
3e3d7866
3d15d439
3e1a9efc
bd44f62e
bc1a101b
be0116df
bce44da4
3e4e0852
3d59f05e
bd95c1cb
bd15bc1e
3dc4b437
bda90eb7
3e051b85
bde1a0bd
bcb73912
3d129dc9
3e372841
be8be7ff
bdf5922c
3c30ab01
be4c3006
be921624
bd85a431
bdee32c9
bd39f7c6
3dece7dc
bcead672
3d3e1324
bd983ad0
3e5619e8
bd9cfa3d
bd73de69
bbee6d03
bda04886
3d9f57a3
be515fc0
3d4ffca8
bd24e6f8
bdb82a9a
bd7c376f
3e2571e5
3e44fc13
bd42dd40
3e3c871f
3d2ab7c2
bd003ab2
be0c7e59
bd5165c9
bdfa641a
3e440977
bdd38330
3d0ac020
3e1ed26d
3e9b9a3f
3e51273b
3dcad641
3e946b76
bde781d9
3e52c1e6
3ccd7d40
3c711056
3e58362c
bcb0f78b
bd124db7
be4564e2
be41f797
bea9c7ad
be1494cb
be07cbeb
3e0df54a
bd4c6bb3
bd3f3f30
be1d7501
3d8d39b9
3d817773
3c7eec8e
3d710a6b
3dc88218
3cd3e670
3e5d4a94
3cf5bbb8
3d2eba99
3c74e30c
3e3b0ed3
ba679288
3e30c6d8
bcdf2e17
bc407010
3e211cf1
3d9d7080
3ab72f00
bc472136
bc58f6a8
3d086fc9
3d60b302
bd71c9ea
3e086409
bd1b59d3
3d848777
bb6dc87f
bd9b31d2
3d08c26e
3d268541
3d8573df
bc2276d7
3cbee895
bd962213
3c9a3813
3b85bec3
bb1131c2
3aae5401
3d295e6e
3a45c200
3e6ef423
be1f75dd
3e68e5a7
bdc1b272
bd42e693
3e3a0f88
bbf456f4
3d4103d4
3d76ad76
bd293221
bd184db4
be0bdd3c
3d70d47d
bbffe345
bdf43129
3c91385b
3e7a20a6
bd67f847
bd884660
be051f0c
bd519295
bdedf707
3c71eefb
3d383bcc
be02904d
3dd803e8
bd257c99
3d9545d1
3c7109f6
3cd8a82e
bcec82d9
3d1f0862
3b0c9060
3b9f6c81
3ca9987e
be1c1e4c
bd983ab7
bd065ae0
bdb83b07
3cf7c246
3e5b6ae9
bd7e1ff5
3d84694b
3dd084d7
3e5e1797
3d4ec4cf
3c687a00
be011a4f
bbc27cef
3d89713a
3d077666
3d415b64
3ce875e6
bcb9ebda
3d0a60c8
3de3ec88
3e3b577b
3e2e7e46
3e0d9133
3c228302
3d9be434
be47b363
3db32be7
bda0037f
3e13d132
bd41510f
bd9da165
3e441bf0
3e791fc9
3dcfa25d
bc273fa8
3dfc8138
bda4a410
3cc393db
3d1e15d5
3d8193d4
be0f7c78
3d54ff44
bc404161
bda633a3
be30ecc8
be437268
bd0754d3
bd8e8488
3d45f000
bdb85c80
3e23881e
be1639a2
3d227d1e
3c526038
3c3fc016
bd732a69
3dafe4e2
bd888a58
bcc2c128
bc8c77f4
bb8793a1
3ca7178f
3e82e870
3d5bd563
bc32aae4
3c599c80
3d03b829
3e076579
ba6fcd06
3d495b0b
3dd1e56d
bb8a62e0
bcbd61c0
bd10d12c
bd9e6900
3d95ebfa
3d0e14c8
bae4db5e
bc699f78
bc059f35
bbd9f1c7
3dd2a784
3aafdfc8
bd4eba55
3cc34e4b
bcda3fca
bd417385
bd413c84
be12aebb
bda6a1c5
3d8d184b
bc4cdf68
3d85e27f
bda05f22
3dabb9ef
3d741216
3bff9b7b
3d9cf097
bd872832
3d9b8e7c
bb07b196
3b32c160
bda16546
bdae4c8c
bd25e5aa
bd8ac806
bcf80fa3
3dacab7e
3dd5471c
3e0b61a8
3ca14668
bd0731c2
3d1d2576
bd892794
bbf3f468
3db41849
be2f8a89
3d5ba3a5
bd94c0ae
3d9644c0
3d08f388
3e2e3a9a
3ceafe4c
3d22d013
bd061c77
3aa20969
bc756c98
bdeda7fd
bd951e9c
bda11a6f
baec7cc2
3da73c27
3dbeeb3d
3c8ba691
bda3d52d
3e09237d
3d1cbffe
3d2aa067
3d7bf7ce
bda1bc9e
3d827b27
3c8d888c
3d81203d
3d0ee6af
3b8f0fc0
3da85e30
bdea75f9
3d675fd1
3c8334ed
3e343cda
3d14fc2a
bd40027c
bd689d0e
be3a8d51
3aaa42db
bc9b94e6
3dd6cb74
bdf709ca
3d79c0b6
bcfc4304
3dc11d2f
bd2089b0
bc98ba86
bde2fe40
bd804a01
bc57c7d9
3d837025
bd41a455
bdc4bfa3
3d345db1
3c990884
38ba278e
bd82334f
be04af09
bdeb34bb
3d824253
3d387703
bdd7d930
3daed95d
3bd81d6d
bd0582f5
bba5a720
bd4269d7
3d3528ca
bcea004d
bc8441ec
bd41294a
bd0556fa
bd703654
bc6a9f8d
3dfc3325
bd37fd7a
bc4b1e31
3d975363
3d639076
3de05d09
3ca4ada3
3d6efd64
3dbddc40
3bfbbe30
3db92855
bd64cd3a
bd5d70be
bc2d7076
3db4e74e
bd065b95
3d1c4280
bb09cfcf
3c269062
bdd1a8b0
bbb33adc
bc722076
3d493f22
bd707302
3d84f6f0
bd438e7b
bd1d5b9e
bdb75752
bd572108
3d64deae
bd908e7a
bcf37939
bbe9e82e
bb8f98bb
3c80371c
bd41e0e8
bd2ddd61
3c01b3d3
bd132bcd
bbe99c40
3d6be1a6
bdaae90d
bcd759fa
3bb96d10
bc16c1dd
3db920f7
3d52d765
3d92c156
3b5ac640
3de1b0be
bd9f5a32
3d356659
bd145f6a
3d5023bc
bcf59259
bcd6a4e5
bd6963d2
3d1b736e
3d923e4d
3e05873a
bd90bb81
bd82499d
3d02cdb4
bd8f9441
bd062f18
bd9395f1
3d5618b1
bd2fedd6
bd2de853
3d3b15d1
3bb5c64a
bcbb1f5e
bcd3faa2
3c2d9412
bc11ec88
3d46311f
bd089db9
ba6c398d
bd480827
3d5c2c54
3d689412
3d3f4fa3
3d96723b
3da39813
bd507704
bd6f30b7
3c450d0d
3db51031
bd5a4e1f
bd90bd33
3cd9de84
3cc68708
bd488e16
bd268c83
3d38163a
bd513bcf
3d21bd9e
bb34d620
3b9d2fd0
bd1cbdb6
bc123a88
3d987813
bc64bcc0
3beafed0
bd878160
3ced20f4
bd0b7a99
3d7b8382
3d17a820
3d1663b4
3d564cb6
3d5645d2
bbde2740
bbb97a10
bd52cfd8
3d65f40a
bd9b8f04
bd96e890
3d971897
bd8c3abd
bcd3b976
3d83fea9
bbcfbb70
bd12f9c7
bd8cacb0
3d6f3e2a
3d29dd8a
3add5dc0
3d6fd29e
3d92a089
3a998640
3d36a942
3bdc12e0
bccb6140
bd064c4b
3bc7f570
3d98dd95
ba843740
bd84369e
bd778727
3c6a2c88
3c5dd060
3c1e1d00
bd2bfe23
bc5ef068
3cd18728
3d968289
3c577d40
bd150023
bd99ff4b
bc9bfcde
bbc67810
3cd1a384
3d98ec45
3c8f23cc
bd359d78
3cfa4160
3d38844e
bd98c663
bd23e9a7
bda50cb2
bd2c7cef
3d48f9f2
3d7ee436
3d813b03
3d3b3cc6
bcff6b52
bd90e1d4
3d7db7c6
3d49f08a
bd92dc8a
3d825135
bd1593d7
bcf2ad74
bcce0ce4
bd751cf2
3d3ad8ce
3d07d0f4
3cec789c
3d2eeefc
bc25d610
bd0f54a9
bd9e6552
3badf630
bd8a1e6b
bd2544e3
bcf8c408
bd930e04
3d6a9776
bd0cd9ce
3d8b7a57
3d7eff9a
3d21f514
3d4fc82a
bd914137
bbe9bb30
bd8ec7d0
3c79a2f8
3d30c676
bd434656
3c24c008
bd64b153
bd562456
3ca4ad68
bd708540
3befa940
bc4bc030
bd410704
bd4cf3ae
bbbab1d0
3c496490
3d029ad4
3d968091
3caeafb4
3d64f58e
3ceb9970
3d5b17ca
bd91788d
3cadbb5c
bca92e5c
bd404bff
bd9b985a
bd0c3ee2
3cc29248
bd84e390
3d84b91d
bd8d15cf
3d8d1589
3d9ab25b
bc9d174c
bd2c0645
bd71dc24
bc36c318
bc9f2c70
bd3dd607
bd84e8fd
3c026c90
bc9559e4
bd91fd6c
bc7d6ba8
3d191e02
3c86f2c0
bced3546
bd617c7c
bcb38470
bc99f07e
3d4eb66e
3a578c00
3d8a64e3
bcb74c5e
bd53c784
bd2333e2
bba00cf0
bd32cd10
3cfb27c4
bc8b154c
3da230cb
3a183300
3ccbeea0
3d9c2fed
bb0b7b40
3d4eacbe
3d2030c8
3d5be5ba
3d4ee636
3d2c0692
bd79b098
3d92c2d5
3c0ce600
3cfb61b0
3bfb7fc0
3d50d7c2
bd48c764
bd6f83ce
3bea5120
bc450b68
bda2c56e
bce434c2
bd17588f
3d6ede0a
bd384f85
bd6fc1a6
3c3379a8
3d865717
bc5a1320
3d255f06
bd80a3f4
3d7f9da2
3cc8016c
bd7c4209
3aa1f340
3a90d600
bd82e5aa
3d2a0a22
3d9a88ed
3c264b08
bd795b53
bc4c1b70
bb135860
bd744664
3bdd0b10
3b02aa00
3cd1cb38
bd5f255c
3b85d890
bca81688
bd7b37fe
3d8dc887
3c810ec8
bce95a66
3c4c7930
3d79b0ae
bd7def26
3d77df46
3c8d5ff8
bd7cfe02
bc228ba8
bd2b3342
bc4baba8
bd806591
3bacf240
bd7780d8
3ceec7c0
bd008223
bbac46d0
bc2922b0
3d54f6c2
3d515d2a
3cf830d0
3d493d3a
bd5de5fc
bd640cd5
3d033dcc
bd1f9f6f
3d956ea3
3d51d4c2
3d883c7b
3d6d4d36
bcaa38ba
bd74b086
bc701a70
bd433fbe
3975b400
bd046f00
3d6f27ba
bd2e07b3
bcfa267c
3cfa78e4
3d1f5902
bcda687e
bc6259f8
3d0ce4d2
3d8a0565
bda59898
bd1b9de9
bd3b3796
3d90d179
bd51f7dd
3d954f43
bcddbad0
3c5ed978
bd679e24
bd32b089
bc50a310
3d7a4ea6
bda49b1d
3d33505c
bda0cd7b
bd0f63bf
bd967d5b
bd3a959c
bcabff7a
bd2f987d
bd64b720
3d56de3e
3d4371f2
bca15b4a
3d77755a
3d9a2477
bd8632a7
bd81233e
3d1a64dc
3d7a2392
bd497c82
3cd54208
3d68e88a
bd4f9e7d
bd8cb566
3cf5eb04
bd3aded0
3d14a2e6
3d83b7d7
3d0bda5e
3d9d91db
bd97aecf
3da4b0d1
bd351fba
3d1bc4dc
3cd9a4b0
bd2e6a40
3d811099
bd5bd309
3cd5a974
3cdbfd14
3da35643
bbbf6c80
bc38a9d8
3d6ef592
3d3de3ce
bd6ae170
3c0f3398
3c2a9298
3d4fd9be
3d1f197a
3d82eadf
bd5afa6e
bc84e8f8
bc7136f8
bd3a25fb
3da0b091
3c3b7938
3d57e0c6
bd266f31
3d8ab1bd
3d03dff0
3c85a3ec
bd7b4e85
bd8df39b
3da1cac5
bd790494
3c9c4114
3d0055d0
3d1e6ef2
3d476e32
3da5ea15
3d9fff7f
bda09997
3d54f542
bbcc5260
3ca92590
bd74dc62
bd8ae98a
bb656c40
bc218218
3d2e1fe4
3d84443b
3d2857ce
3ce4fb00
3d62969a
bcf5559a
bd466167
bd38b790
3c106020
3d808ec1
3d08a878
3d94d5d3
3d9f9f8d
3d647d9e
bd763888
bd1fae3c
3da2425b
3c0e12f0
3d1e6428
3d89c07f
3d90ba57
bd1b0a54
bd518c8e
3d18587c
bd38c87f
bd851b5e
3c837430
bd85e72e
3d9d4d87
bd4362e8
bd212d96
3d6b933a
3cb13f90
bd83ce16
bcbab642
3ced89c0
bd6f8d7e
bcf4485c
3ca12ac0
bcbce884
3d9b005f
bd08e7fa
3c3f8eb8
bd2009b0
bd76d12e
3cc6d58c
3d912b01
3d9f7c33
3d19a828
bd976eb9
3c763b58
bd5f3191
bda4c917
bd305521
3d9cef8b
3be0ce00
bd978f59
3d4e09d2
bd60ed14
3cbaa5d4
3d50f7fa
bd5e9456
3d065286
3d92d8fb
bc0c2778
3d574436
3d75fb46
3d3d60b2
3d93354b
3d96c25d
3d911e3d
bd73ad2c
bcc570f2
3d09380e
3d893edb
3d7ed6f2
3c986cbc
3b9d83e0
bc9b69dc
3cb5c100
3d277bc4
bd74670a
bd4bc9b8
bbc1bb70
3d1df90c
3d300b9a
bd941602
3d83a5b9
3d6ca6da
3d402c1e
bd5d9956
3cbdd284
3d454d8a
3c437ab8
3c33f978
bd0f7938
bd2aa0d0
3d1d9d60
bd35b1aa
3d481692
3d46ed96
3d0b0e3c
bcb966de
3d828f09
3c37c4b0
bda4ac23
3d249b00
bd71c826
3d2b6918
3c7ef1d0
3d93e6d1
3c5554d0
3d67dc3a
bd2ec729
3da5a1d7
3b146b80
bd8a4fb9
3d3062bc
3d282112
bcd9e26a
bc92d7f0
bda3d723
bc430cb8
bd9ba1ea
3d8dd973
bc94017c
3c3a72d0
bd50bcb6
3d4946c2
3beca090
bd780bab
3d034576
3d3be346
3d4d8a56
3d6f1806
bce3ca0e
3b4a7d80
bc467cf0
bd12f0d1
3d8111ff
bc535cc8
3d64cb5e
3d7ec70e
3cd70624
bc267700
bbe1c560
3d8e6af5
3c935150
bda1ed5f
bc2d13a0
bda2ef24
3d98cff1
bc413d58
bc789cb8
3d051168
bd82c999
bcbcc438
bd2e147f
bd5707da
bca01ffb
3c70773a
bd4f84dc
bd53335e
3d8043e2
bd5f9a81
3d98e034
bcaea8d8
bb54c888
bd7a7c67
bcb9e6d1
bd77a3c8
3d0baf52
bd82f1b0
3da7fb8f
3d930eb9
3d85b67d
bd031ed1
3d0e747e
3cf79e60
bd4fd0de
3d5d2c9c
bc9dc185
3d982baf
3d4a01ba
3c835c99
3d880fd8
3cc50674
bceff496
3ce8cb02
bd0d136c
bc555bb8
3d43b626
3dd342d8
3b2b4140
3d841023
3d89334e
3cca355d
3cccfaba
bcfd39f1
3cfd5350
bd911856
3d0613ae
bd8c2812
bd943e7f
bd869113
3d9c3e09
39bc2ae3
bc7067f8
bca0cd4e
bc49ad9e
3d976f95
3da1dd8e
3d6dadda
ba45ed29
3d4f6d15
bcdb947a
3dbd6718
3d3dca40
bcbda77b
bd8df379
3d6d7bcf
bd64d3b5
3d803c28
3c63e4d2
3a683e6f
3cfda720
3d24bc6d
bcaef3e4
3c36a1bf
3d31ad3c
3d86d711
3d39e388
3d36386e
3d3410c5
bd623b0e
3d0b4816
bd6850e8
bc01bb71
3d038772
bc81788c
3cd8c3a2
bd56b11b
3d48c247
3d240f22
3d5637fa
bd932010
3d39483a
3d55b19d
3ce10510
3cbd8fa4
bbef5c60
bc884442
bd531e6b
3d18de77
3d230775
3d7a7ce3
bd6b7cd6
3da2a0a1
bcf4cb47
3d939d91
3d52ebae
