be8e72e7
bdfe4ec5
3d4ed6af
bac39bb8
3ace30e4
bcbd8eaa
3e492e1b
bf1c5489
3e749cda
3e0e8994
3e4512ba
be8e8375
3e177687
be9e1244
3f1c9586
bcbaad57
bd43823c
bd92a758
bea9cf2e
3eea55a4
3c2d8640
bebbabc9
3dc0c8e8
3d70bae6
bd3178df
3e50f533
3e290836
bdb14df0
3e4c4b48
be145d9b
3de6b110
beafbf08
be7d265e
be1a71fe
be76bdcc
3ed0abaf
3e11b78e
bc0e0531
bdf019be
3c699efe
3e33e25f
3e98dc70
3d8a0684
bdd23363
3d98e590
bc01a5c5
bdbe0105
bc8231ab
be89363f
beb5a64c
3d8d6afa
3d87eddb
bd189bae
bc26e3e8
3f14120f
bce6d743
be69823c
be217d3c
be4ec6b1
3eec9781
bdf3581c
be79fc28
3ea1831d
3ccc4699
3d6c264d
3db72fa0
3dacd62f
3e299920
3e551d3e
3dc44651
bc298035
3ec94614
be6f7975
3e6e4285
3cf31b86
3e8fec9a
bd977a5b
3d4d82cb
bed4339a
3e8f1fa3
3e9aaae5
3de90cf5
3dc4b1d0
bdfa7bad
3e107321
3e89b416
3e7f33fb
3eae6d4b
3e38d076
3e16d08b
be983fda
3e6b32ec
3dd49126
bcb573d8
3d1bdd2c
3c722e39
3e8f460a
bd4a9d2d
bc97d5c9
be97eeb3
3c9dafed
be287849
3e151ef8
3df96804
3e013863
baad828c
3d70bac9
3e99ed2f
be771e6a
bcd6e202
bd656ac6
bdd090a2
3d8f20c8
3c565a04
3e850aa6
bc391aa4
be4cffdd
3e7817ca
3d340870
3de21b06
be5334f3
3df67d09
3bb444f7
be627ced
bd4cf58c
3b9ceca1
beb16760
3e89161d
bea0dd5b
bd882471
beb39fa1
3e19a3ff
bda967d7
bcc57afa
3bc46b06
3e752abf
3c90b1b9
bddc3fcc
bdc7fbbb
3d4b300e
3e85e0e5
be699a3f
3d8ba2fb
bc97c3ff
bc14224b
3ca4d4dc
be32d2b4
bdaa8a46
3ddc1e25
bdf29c08
3da37023
3e05725c
bc665e55
3cab5137
3e1a12f5
bd2c3502
3e005224
3c9a49fd
3c2cb8fb
be82377d
be9420f8
be3500a6
bd9c4454
3e57295e
be480e24
3dd379a0
3e6ae471
3d25d4d6
bc5b9b6b
bd9b3eeb
bd5f583f
bd90073a
3d090ceb
bdbc8f55
be55c279
be693aca
bdfc109c
bd5e1822
bdd72045
bdf8032c
3de4b13f
3e12e48f
3e0d08db
be3f5e0c
3e31c6e3
bb7e4efd
3d6601eb
3e06434b
bc060d69
3e439a54
3d5170c5
3e46e120
3b9f7fd8
bd78142b
3c416c49
be0786f5
bc696835
bf03ace4
bbe0efd9
be515053
bdd12202
3dee70bc
3cae42d9
bda20eef
bd5e012d
bf1b23f5
3d77f54f
3e0affaf
be84583f
3da4250c
3da2d3e6
3c83a3a6
3ec9d74f
bd767925
be12b27f
be803c4f
3e887652
3ee4f1aa
bf23aca5
3ec2b805
be91c75a
3ea7ffd2
be03796e
3e263641
bdeba275
bdf4c42b
3e591f56
beaf0c28
3da4cb64
be290efc
3d83414f
3ebe9921
3da619c2
be1f70e5
bdf58796
3da5989c
3e1fe821
be6e71c2
3ef49609
3ea6f3ed
3d855c5f
bdae3ce1
bc7fe027
be90b6a5
beb2b646
3e918aaa
3eaee458
bd729644
3d2ee62f
bbebf0e4
beb12919
bee120b8
bd978459
bca5a604
be6892bb
3e581a76
3eb40114
3e853826
be4d892f
be2787a9
be86d3f6
3e1334cf
3e235983
3e18d130
3ef330be
be518b49
bd0738ab
bdc59740
bebe4b99
3d4a8203
3d642ee0
be341723
3e13fdfb
3db42030
bf0046b8
be161f0b
be54324c
3e5372a0
be5f6508
be35d9de
bdd734b8
be5c8c7b
3e357ba3
be213ad3
bb81dba2
bf00336e
be779a28
3e0c3db1
3da5c31c
3e226fda
be221433
3eb6d0ce
be1aaeae
bd150fdb
bdcbc4b2
3de70d48
3e3aedce
be610b8b
3e908fd1
3d887213
3e54dc86
3da46431
bda529c6
3e2df8d7
bdaa79ae
bbfab468
befa9832
3e0a5aef
3ec1aeaf
bdfdda24
bf60f875
3da1aac0
3d76504b
bca18932
3df75667
3e0cc9fe
3e9e62eb
bdfb4993
3e92d69b
3d031c0e
3e83fb2a
3f1988d2
3e8f85d5
be1ca93d
beda357b
be1b6766
bdc07eba
3e67bea1
3c8b0f34
3d272dbe
3f18edd5
be824fe9
3dc92b25
3e2a1194
bef238bf
3e3466ff
3e656526
bef0baa6
3f1954ee
bd4bd837
3e5b88c5
3e8f23b5
3e1fd777
3edb7385
3d0e6839
3db5f3a0
bee06d77
3e4bb5fc
bb829b3b
be95df74
be98ff9d
be56f9a2
bc9c6b57
bdc91ca7
3e64967d
3eae84af
3e859b5d
beca171c
bf1e3e60
bdaa9802
3d89fe04
be85039f
3e80d910
beb66a31
3e7286c0
3e8549b6
3ea86224
3f10aac8
3e08d162
3e510a8c
bf2dd233
3e84f51f
be3b6630
3cda28ba
3cbdead4
3ea4c2a8
be56eded
bf16db57
beb2dce7
3e51642c
3dc36b8c
bd4973d7
3e2f14c1
bd18b723
bda42f18
3d9e7294
3df86bc2
be88627c
be56d6f8
3d8d22a1
3e222818
3d51034e
be2c225a
bc0eade7
3db6ecb3
3dfa74a6
3e407b57
be0fa6fe
bc8eaa60
be10f06a
3d688737
be372073
bebe9141
3e0f199d
bc51bf82
be688af6
3e8232be
3e6e375c
be29e9a8
be30e1d7
bda5d30e
bd948839
baa0ba05
3e925319
3e991b48
bd6b30c5
3e037abd
3dc56fcf
3d095c68
be30d430
3e0318d2
be4ad827
3e2b2ce2
3e747eda
3d7a26c1
3c951928
be5b4cfd
be0dfa7f
be45f38a
3e9ee98c
3d2359f4
3e03b226
bd134815
be1cf15d
3e05476b
bc50a5b0
bea5e1f0
bdc6d9c6
3e4b2eda
bd26d450
bdbceff2
bd6fb0d7
be9c2f06
3e261783
3de452b4
3e8d702a
bd50e0f9
3dceb7fe
3ecf4c5b
be84e8c3
be754fdb
3e500d80
3dffcfd8
bea5c33c
bdef4d49
3eb05857
3e26f270
3d153fe2
3b9ffc53
bea17a59
bec0f006
3ec1aa83
bdf64b53
3d9504ce
be2397b5
be3f6bea
3e8c08f4
3e8fb65a
3e48d46c
3e13760e
be9e9b2a
bef03c8a
3e4f1c48
3e8b225c
bbda0ad2
3d56da75
be938f4d
3ea07697
be8cea8e
3e469c55
bd8fc72a
3e5abbc6
3e6920c6
3ec5ad30
bcbcd91c
be4040df
becadf48
bc90cf78
3d8664f2
3df24687
bce2e0de
3f06fa7e
3e3593f5
be616e12
3e5ece7a
3ec103ee
3d1a5971
3eaf4aba
3dd1d38d
beac7cdc
be67ae5d
be742597
3c883875
bdd26387
bd05125f
3d48952a
3e39818d
be66c0e4
3ea0b958
beac12c6
3f028377
bec97801
3f019f71
bd5029f3
bdb6560d
3d65adda
3e87bf27
3e075087
bde2c9ce
3f0cac55
bcfa9ffa
3e1d5b74
3cb0b2bd
3f00b975
be461f6b
3e8392ee
bf161f48
3e7a2040
3da02daf
bea429dd
3e98a49c
bec3e27a
bd95450b
3e76f666
bde363f2
3dd54c9b
bc59daf3
3e5c3b4b
be01cd62
3e57041b
be3e0b5c
3ec35aa0
be35aaf9
3e8d01bc
3cb4280e
3ef7485b
3e2763e3
3e9703f2
bd35e132
3c06268d
be84ddaa
3ddd89f8
be2a8763
3bb96364
3e7475ca
3f2ca01f
3e11543f
3cf1c7b2
3e4197d8
3ea49a93
3e044d2c
3f13cca6
3d312b71
3db5ec76
be0c88fe
3aaee6ca
beb0d044
bdc398a2
bea713f0
bdf0f36b
bdcc27d5
be93964d
3da1cf50
3dec5f12
be216eaf
bdcd1c81
bdfd7d5b
bcd2988c
3bb0200f
bdcfcda3
beb2a65c
3eaaf295
3e834eab
be896c67
3eac26f3
bf2197ec
3e336f00
3e112e75
3d9f1bd9
bd110006
3df6d95e
bd5b5d15
bdaafb36
3e110a4f
3d930d1c
3d2d2dad
be9c5893
bcecbcec
bdbbd538
3dbb8142
beda29da
be9cf822
3ec1b1fb
beda823c
bd9095ce
3dcae89c
3e18a6ba
bdb3114c
3d0b3f12
3d2e90db
3e051ef8
bde91f24
3e5e0579
3e788b64
3ecec54a
bd1e30db
bdec7140
bd83d3fa
bd8b226a
3ddcd64f
3d180959
be533890
be7b48a6
bc665956
be530e4b
3e1676b5
bad119ee
be7bfb30
3e7ea490
be001e34
be222b12
bd79f901
3edf2b41
3e6adaf5
3d0a4c80
3e8a939d
be844bb7
3ea503b0
3e269500
3e309a38
bdc947a3
3e962259
3ed3166e
be93ea52
3e24f40a
be5b8510
3eb85cca
bed32735
bcf9b8ba
bed5295b
3e2304ec
bd7b7170
3e671ff1
be93b66f
3e1833ec
3ebc7990
beaa78e3
3eb0a508
3bcc0e85
3dbd7014
3e17124b
3e85fb85
bee8fd01
bf0bcdf1
beedce91
3e7567de
bdb5e839
3f3a0a24
bd4893a0
3ea8ccd5
bdf44e07
3f007cae
3f047ab3
bef9fb6a
3e8ce4ad
3e673372
3e486222
be2f17ad
3e2fca15
3cc9133f
bf2255df
be1bfb82
3e6fc224
be286fad
3ecc9e90
becbb4c0
3f1a5ce4
3e851001
bdf2ecb6
bf0e5ce9
bf2b7907
be0ff3d1
3e4ea4cc
3e9d48e3
bdcbf3bc
bd56645d
3eb7544c
bf1ee1ef
be1b57e2
bcfb5493
beef5618
3efca4e7
3f27ea58
3ea1d8a4
bc420d03
3dc0635a
3cc09bd9
bd9489d3
3e2bd06b
3e9b85e4
3e9b6df9
3d32ee84
3d4bf7bb
be694486
3e0c8e4d
be17afa1
bc84a6ed
3dc2ece9
bdac26b2
bdc89444
3d4c4ef4
3dfaa55e
bebbf387
3e52dc85
bde70c1f
bebd9252
be377968
3da74fe8
be1dd0e8
bdddeaf4
3e8d1b11
be580929
bdbc6c02
bd7d35fb
3e23c0ea
bdc5f38d
be8d1f4e
3dea33a4
3dee7a32
bd230cbf
bd5d32bc
3dbc9b96
bc1541a1
3c46bb57
3db9ca63
3e8ce338
beef2010
3d3a6fd0
3e3ba829
bb9365b8
be8abf63
3a651aa1
be9349c8
3e67ef90
3e2801c4
bea03a5b
3e09f336
3d5d681c
3e465259
beb3aa69
3dfc1884
bd973930
3dd852b1
3e504af7
3e4c4009
3dba8bbc
3e3011da
bdd91a42
bea4ec62
be78e4c1
3e855c24
3d694980
bcb27d07
3e365e0f
3eb67825
be959610
be79a11c
be0f61db
be740b61
3d0caf80
3e3cf385
3e21a043
3eff5db0
3eaf2fe2
bea994e5
3f0a5c5f
be9d5596
3e0296b4
be70c76f
3e7f35a6
be7a1eaf
bea831c7
be584df5
bece58d3
3ecc9704
3ebf2cfb
3c95e1ea
bd6b112b
bde0bc2a
3e346d56
3ed0314a
bea3b48e
3d999188
be3b6469
3f06a061
be61dd6c
bd5811fe
3db8ff6e
3e0455b9
3ddd525a
3d60ee4e
bea0ec50
3f155816
3e0b3a85
3edba675
bdd1d457
bda585fb
bed0fcb2
beca34f6
be91e414
3d097bc9
3e40e1ed
bef7a058
be36dd75
3eba2e17
bc2ba3a8
beaeb1b6
be542cde
3d94d699
3f0bddd8
3e2700bd
bd0f52cf
3dbaa79f
be8621af
bee1668d
bce04501
be4542d6
3ca22bc8
be9dfbfb
3d85c08b
3e0f67bd
3e365b33
bd067bfd
3e8002ea
be5c7fe7
bc5e9db5
beaee785
bd9bb679
3d346f99
3e25bf17
3e494833
be97c55b
bd9b932b
3d0f2f17
be686955
3de4313f
3e682209
3ebaffbe
bcfe05bc
bd0569d5
bd6db14b
3e18eb3c
be05c592
3d680762
bec49550
3dbec7b1
3d8c1ee0
bdfbb819
be4e221f
3e26d3d4
3e11025b
bec1e4f9
bd49ce10
3d6801ca
3e16243f
3e7ebe0a
bd4912da
beaa1dbe
be0cc7fd
bde6aa79
3c676ba8
3ea344e3
3e445223
bdaa0125
3de640f8
3a55292a
3e86ce2a
bdaf4697
3d29468c
3e1acab4
3e2c50bb
be7b2b35
3d9ac7ab
be824df5
bedef684
bd73c7e4
bf32fa4a
3e238b55
beaa4ee4
bdcb13b0
bd9aa704
bddc48c7
3dc2a5ef
be476475
3e3a5b0a
3e542c3f
bcddbb6c
be38e756
bb463e20
be2a6820
3d51a364
be11e65a
3d83dd67
3e8cbc83
bdca972a
3c22da98
bd76f7d8
3d0c858d
3e8213ee
bc6e0a13
3e54c407
3dd23d4c
bc149e7b
bdd096cb
3eee2521
bdfd0cd7
3e3fd8af
be35be9b
bf2b9564
be8a1a4c
be42feff
3be49903
be08b93f
3dc4d8ad
bbbe356a
be583739
3eafd408
be683c48
3e0bbded
3d964615
beb76202
3ddbdaf1
bd9aa94f
be2ff5be
3dcce6cc
3e6d6910
3d3c351f
be37e7cf
3d3287a2
3dd5774d
3eaacef8
be064c0d
3d2ea02c
3e92db20
bd6dba3c
3d05b58a
3e62c16e
be53818d
bdfe6799
3d6e6a2f
bdf7d0be
3d46cb8e
bd359183
bd642f3f
3da24d41
3dc377ec
3ed21b69
3d1d6fd8
3dfd4539
3e85ed42
3c80a20a
3d81740a
3e1bad26
be673a7a
3e3c9d7d
bccb2fc4
beff126e
be9a0673
be37cad9
3ec1bc92
bcb2d1f1
be32fb38
3ebb7fe6
3e45db51
3e9d4fe3
becb295c
3e0e96c8
be062785
3a26c74e
3e18141c
3f06c9e5
3d7e1d3b
3e8da8c7
bdd9fd6a
be5367ba
3da31d6b
3ca049cb
3e02ad36
be85891c
3e42d715
be285dc7
3ec5d316
be753d46
bc00fb6b
bdd2a56a
3e33aaa3
beb66c38
bcdeb4c2
be0e4f49
bea6f6a8
3e5a7d17
3d084be0
bceaadd3
bdccd76d
3e1802fc
bdc91a26
be381ba4
39749db4
bef40544
3eb42c97
3dabb9fa
3e7f4ee6
3dd87178
be4a4bbd
bdb7a34d
bf040b77
3de867c0
3d131635
3d1c60cd
3ea4f4d7
3e9b47d0
3e9384a3
be321bcf
bea3bdd4
be58ffa5
3df81fa8
3e473707
3eafa8ce
beb16320
3ec8bc06
3d3979f7
3e48978b
bee78a4c
3e184461
bf10ffcd
be279bba
3cc14bbb
3e5ce3b2
be807e05
bd9ae737
3ebd7ac8
bf17e224
be8cf4f6
3b6f7ca4
3dcc354e
3ed28b96
3df501ba
3f1cfcf6
bdb4cd7d
3e00f08b
bd3647c8
beb87b8b
bea226a5
bdf5d2a7
be05225d
be789077
bea389d9
3dd1a572
3e980b12
3d51d860
bec5a868
3e9f4f4f
bf2faede
3ea10337
3ef48bb5
3e43ab4a
bd259afd
bdcc5f49
beb3c8be
bbe11f64
3f0ec330
be6fd92b
bd5e501f
bb0ddc8d
3de53a79
3f29f72b
3e1278e4
be84426f
3dec1a63
be878415
be5f649b
3d57f263
bbb54769
3d71cf30
be4db727
bc945a86
be2ec0b3
3d511974
3df47c3b
bcf90727
3dd408c1
bdbca2b1
3e748810
bbfc22be
3e226fdb
3e01192b
3e6b73b0
3d457dc5
3e285526
bc717b5d
bc2361a0
3d6441d2
ba40b28b
3dd10e1a
3e5f3dfc
be463864
3da6c677
bdf67108
bd259385
be874c49
bdd9d029
be9aa188
bc042af1
be304958
3cf07999
3e590e28
be8c4b02
be2efddc
bedc5a83
3ecc008f
3e2caba7
3e55c80a
bdc7f435
bee35b7e
be4a0fad
becca029
3c98fdda
bbe9e94f
3e784ea7
3e18115a
3e3cca4b
ba41c146
3e1c269a
bc0ea0e7
3e055f5a
3d9d4496
3eb4f6d6
3e21b3d1
be6833ca
be44e26a
be26c26b
3c923742
bdf2d18e
3eda6cbf
3e80d9ec
bc8ccaa0
bc18cbfb
bceeb0cd
3e9a3254
3ea93f04
bed6d97f
3e95c320
3d85964c
3de788a3
3cca0136
bdacbf10
3e4cf4b2
be1beb88
be157f92
be34c03e
bee1df1c
bc4df2de
bdf7e2d5
3e5ed302
3f1f27c6
3d87d5f4
3d6755be
be0acaab
be63240d
3eac1fd9
be37d507
3f107bf2
3ebc823b
3dc3847d
3e79e0aa
3ea5d5cf
3e7e2472
3d484d92
bce60862
3d546698
bdadb787
bd408951
3f00d470
bcdc39e0
be728098
3ebcc760
be740bec
3ee84e93
3e9c7e23
bdead2e1
3eb7c629
befa7dce
bd0b131e
3d9f2175
bebb492e
bee0500c
bd7d35e9
3da4a8ef
bdea1cc1
3e0d9655
bee98102
ba5eaaf6
bdb73ee8
3ecf2d64
3d88bf21
3e876775
bd2140b4
3d6d9d19
be1fb7d0
bd94a139
bee8cd27
3d78222a
bdef5adc
bd5f858f
3e26a1ce
bc4eeb77
be1f93f9
3e4110a0
3e288088
bbd76206
bb5240b3
3dcdcc54
3e8f4fd0
3e37d992
3d5e14f3
be678940
be80b6b9
3d8dc1a7
bc92cbb4
3e14763c
be464b48
3c0bad8f
3dec4878
be5f859b
3e5db186
beb5d1fa
be45984b
3c941610
3d80d9e3
bc9ef810
3cd2cf38
3e10a164
bc65dcd5
3e4c5830
bd447c8c
3e1d2ff8
be91c6c6
be8104a1
3e09be9d
be818d2e
bd340035
bd9d255c
be474ff6
be1aea00
bc3b0005
bda0e1ed
be4b364c
3b9e0807
3e361f78
3e86952b
3e03c5ae
3db8651b
3da58cf9
3e16d7cf
3d078a1d
3e8320b8
be13aa46
3a37b1db
bd81e3ec
3e699ad0
3e9ab9ee
3e0bbc3b
3cb599a6
3c28a2ed
3d92368d
be49046a
bd1a787b
bc5b2e0b
3d2810e3
3d3f6cac
3d4e9ab6
be490e1f
3d9b9212
bd86dcea
3ea2154e
bce844ca
bd93ec52
be5f0d09
bdd0c40b
3ec4dd80
3ea8d4bc
bc665ef9
bd0d11ca
bf03772b
3d4e4eac
3dfb8483
be230522
3ea8bf56
bde89bff
be3b68c4
bea240e2
be7e2751
3ecda6dd
be1c6f35
3cca12a9
bd8c448c
3cd96e63
3dde0978
3dbbc2e5
3eb797fa
be504463
bcdd2fe0
3e80e87f
bed1a1b0
3d5c60c5
bec3260b
3ea0f3ea
3d6ff698
3e73a61e
bebb94c0
be70cabc
bdfba906
3e83eb2a
be7d113d
3dd06a89
3e379ca0
3d685634
3e89a3ff
3e69e74c
3db0207c
be6861f3
be4be227
bd32fbd9
be194dfe
be0333aa
3d05d41c
bdcc479e
bba64b67
3db03d08
becf57d9
bdc2d8be
3dd3255e
3e5cc68b
3ef34845
be90cf3f
be05ac4e
be58b3f3
bdd6c14d
3da899d7
bed8f1a4
bdadde3f
3e093f8b
bd05ae76
3d54d6e1
3e8bd782
3df9af54
3e71bc68
be2fa0f3
3e3dd1e8
bc0d0e36
bdd63339
3cade24a
3e82b7a2
bdd4f93a
3c9429c6
3e326773
bc85b5ad
3c107095
be161376
3d52596d
3d27a9cd
3e332dc7
be81ec95
bc8d187d
bea0e75d
3e6b66f6
3d3fd2d9
3ea6e2a5
be7e6485
be678175
be13833f
be34f857
3ea843fd
beb9dfef
3db2e5d8
bd9b2589
3c07cc4b
bea667d5
bd1ae167
3e639b0f
bcb7d4fd
3ed66e60
befb3701
be3344ee
be13c386
3c98a3f5
3d19698e
3e0a973e
be415575
bdb7b232
3d3c6ed6
3d66ddd7
bd82df0b
bd00ea53
3c668945
3e68b5e5
bdc7d8f9
3d19c861
3e630af4
3e01d437
3dae2d23
bdc9d545
be082762
bd9c6bd8
3e6efe03
3dc85e5b
3d860bd1
bd3f03ee
3e36cc59
bdba85d4
3e7a017d
3e13ccd0
3d7f0cf8
3e2b64e1
be56cac2
3c1b73e2
3e073046
3e169269
3d8c5880
be85f697
be947825
be873ffb
3b5f9b6d
be953b5c
bdc54509
ba9b7824
3d82dc32
3de6c134
bd790cd2
bcd10271
beaaac0b
be946ed5
3d66dfd6
bd36d131
3dc2c54f
3e196e72
3cd5f7fe
bd975085
3d0e7257
be1c0825
3d04e91a
3d39902a
3e87bcd3
be80622d
bdb77841
bd5bebeb
bd18a6a6
be098dad
be997b4c
be1696cf
3d021219
3e4b3619
3dfac5a0
be7172d6
3c899667
3b024455
3e02f8c9
3e41f1d0
3e782870
bd83a3a9
3e806f76
be528f9e
3d13125b
3eaf3d75
3e31be8e
3e481baa
3e3750d0
3e46df0d
bd491f88
bda9e631
bd4221b5
3e45f68d
be681605
be2c50a9
3d7e56bb
3d9bd967
3d77a3e6
bdc368ed
3e55a1d6
be83dec1
bdf30ef0
bec8a2a2
3e7c8d88
bd8a19f4
3dfc464a
3e0aef80
be98a393
bea386f5
be21367e
bd94cb05
bd9d16c9
3e03ca42
bcc8dbc2
bd2a5c16
beb92cae
be04be7a
be5a72c4
be24d43c
bf0faeda
bd951d8b
befeed50
be698b94
3e41d900
3da42bd4
bd8e14d5
bc956b9b
3d649aa1
be906a75
be3eb895
3d86c485
3e485fcf
3e4668db
be23cc35
ba449b3c
be47f7ef
be7c471f
3d85e538
3ebc94a4
3e37247f
bbaabbcc
3daeaa5d
bdca1918
be835a45
3cff7933
bccd5568
beacd784
3e9e2428
3e73dad6
3e73e6fe
be224e91
3d942b24
3e3ac48e
3e9ba560
3d92b217
be24f79a
be35de6d
bd2f1efa
bdd2a079
3ca09105
3e437fc6
be1566ef
3e1295c1
3d10559b
3ccc4363
bc3216db
3dd6d270
bcf52591
be927342
bf22b939
be7ada4b
3e31e4e1
3e950a80
3e1dd8a4
bd90cb52
3e1b69a6
be9e2571
be118c1c
bda22e6b
be065047
beafd9d2
3d9839d4
3d4cb782
3ce9eb0a
bc17364b
bca9c55f
3e82c958
be824cab
3d876ab3
3d3663dd
3e4cf68a
3e3ce974
be1a38d6
3e9b7e28
beaa03db
3e91c097
3d7de416
beec2ef4
be4d9f95
3e70aba9
3c9811bd
bd380e44
3d76ce00
3d36a3a5
3cf076ac
3e6eed42
be18f1fb
3cb7625a
3e8d5da9
beb8a16c
3ea08f5a
bbcb43c1
3d520730
3e1b9ed7
3d4cc211
be82c434
3e323d3c
bcc4ecd5
3e0be8a8
be0c306a
3df88d3d
3e19a693
3e0f35b0
3e68bfad
3e98dd45
bd0e1aba
3e45973f
bda339e4
3ea1b94f
3b81109e
3e94d54d
3e88d0b6
3b801e09
bdaaf064
3e4d09ae
3dcc7bdd
be47100a
bd50f2b5
bdfd38a5
3e4ad61a
bdfcb85e
bd6c4391
3d6fbbb9
3ccad416
3e0df3da
bd877bcd
ba15511c
3dbd5f32
bba2dde2
bc375f2b
3e87cfa3
bc8db1a1
bea85d75
bee1f11d
3e1d089a
3e7fb1a1
3d1cc38f
baafd54a
3e8053b7
be0f1079
be3f6d22
3e020f01
bc873425
be888ed3
3d5d10cf
3e386764
bb1812a3
3cd39902
bdd4740e
bdb067c0
be96a122
3c833132
bd591d3c
3e1d862b
3d85d167
bd8064fa
be8e47e3
bf34b1a5
be3bcd3c
3e2061ce
beb7b0de
be656686
3e9851ad
bd85184e
be12ce37
3d4e4f35
3ed4c0a1
beff680b
be7eeffd
3e984c2e
3e25b922
3d7f9f6c
3b8850a8
3decf0dc
3d9d8768
beec8018
3e6747a7
bea4d7ab
3d06055c
bd44887f
3e831379
bedcd3c5
3df648b8
be0f73bc
bd7b710b
bdb3405f
bdc20697
3ecd098e
3d18f47e
bd88d900
bc1b5017
bc83b4af
3e60a09e
3d9064f6
3e2eefb5
3d1bae3b
be6ce69c
3e9711cd
3e162cb1
3d95f3f3
3defafe3
3e8b47e9
bcd8fcc9
be7f75c4
be7a3b9e
3e4be950
bec1543d
3c004541
3deda5af
3e26898d
be87bd4f
3db57df4
bd984ccf
3d523cb0
3e5f59a5
3e78120c
be3a9d60
bd990dd2
bdfe467d
be35e499
bcfab0b2
be63fe32
3da24d78
bdc84373
3b5a8ffa
3e21b8a4
3d537456
3e41d790
be9f4200
3cd68e2c
bcfe8da8
3cc7b1ac
be0c2a73
bd3d56e0
bccea91b
be1bc9ca
3e3c25fa
bdbeece0
3dc46140
3d944220
be2a5df7
3ca91f04
3cd70519
be28d81a
beec3bb8
3dff375d
be04680a
3c2eb730
3ea01f67
3d3a5d52
beb9ad5d
3dbcfc16
be6a5723
3e39dd7d
be262904
3ddca376
bcfdbf68
bda98249
3c52696c
3e3da308
3de1cdb9
3dc377c0
3ddf17a7
3c26f256
3e1059a9
bd1bfb30
3e7e9c0a
3e20a4cd
3d216095
3db5072e
be483edb
bea5c545
3dcc2098
3d2b2594
3d4786f3
3d8c1b0d
3da4c65c
3d0c588e
3dd738b6
bcf7ac57
3d7fc9b4
be049702
3e077f57
bb33dadb
3e290a0a
bd081cd7
bdeba233
bde1a396
3dd0cdfc
be1e11fa
3e417229
3b7be115
bd0e6db2
be21fe79
be0c7522
3e2be1de
be0b3cad
bd166e91
3dad1d10
3c3314c7
bd1f0be5
be1bc3c6
bd1f1d93
bdc885f2
bd3a311d
bc8a8406
3cf8ee05
bdd1f5d0
bddcf8ed
3daf2234
3d880ce4
bd8ac7f8
bd8343f9
bcbf4eed
be37257a
3e04c038
3d08635e
bd2f1a31
be028a8d
3cafbec3
3dad61ac
bd812021
3d3e5315
bb2e41fb
bdfdae1c
3dabb391
bcc2f3a3
ba8e2709
bd285daa
bdda5f97
bd1e81b8
3db8df4b
bde3211a
be2e48da
be0d2138
3e157cfd
3e381c49
3d1ff3e0
3da8abc9
3d550c9d
bd32f58b
bd9d5063
bdd39221
bd730620
3e8493ca
bc270088
3ed93835
bb5aa502
3da87082
beba810b
3e7f3f15
bd8ce67b
bd0d1772
3e2d724b
be837c1e
3ef06f05
bdeaa9ff
3e02eb49
3e21bfd9
be1f864f
3e158734
3eaaaede
3cd419f0
beabcf47
3ec84835
be49144b
3e588905
beef49b7
bc1798bb
3e35b1da
3e4199d6
bd383621
3da07e57
3d1cc969
bea35381
bc31d434
3e930cb8
3e16a020
bea22d8a
3e827f93
3d4bb2fd
3dc06dc3
3e1542da
3c272612
3e92b6c1
3e50f07b
3e97b346
ba0f7e06
bda309a7
bcf6d043
3e36d0f5
3e39907b
3dc8a40c
3cf74954
3e006023
bda82177
bf1d0afe
3eda222b
be9b621b
bd527ba1
bd6a2506
be0db0e3
3e424b78
3e5a73ff
3c0c86cb
bdb4d79e
bacacff6
be4aabe4
be53d5bd
3d942747
3d0a39e1
3e1e7149
beac5689
3da28829
bf0f1e11
3e686bce
be22e720
3e2c0930
bc1ee1ba
bd309be3
3e9bb269
3e49c461
be848ecc
3e116a59
3d8377f3
3e63b9ef
3ead31bd
3d800614
bdee2c97
3dabed6c
bdc87aa9
3e0f0209
be2ee6ab
bea2a79d
be05654e
bda75831
3e6d31bc
be11c4fc
3e1d81ae
bd9a88fd
be191c96
3d1adcb8
bdd42954
bdf27bf0
be5b4913
3d42163f
bde5ccba
3e15cb99
3e4cfaef
be139f22
be258281
be147801
be1659bb
3dc33807
3e788823
3e9a6cbf
bda185ff
3e13b544
be44c2a4
3e8bbf0c
3ded7c48
be8e309f
bed8df6e
3ebeee1c
bcbbf6ba
3e811c5e
3dae802a
3cd9ec5d
bbcb6e8c
bd5df47a
beddf863
bc85420c
3d76cab8
3d54e251
3de9b7e7
bcace738
3c47bcbb
be15f783
3cde669a
bd7dc0b2
3e8e283c
3d264653
bded6a2f
3edfe767
bbd0003f
3eea5a04
3e1b13d4
be90b21d
3d6e30a8
bd89ba05
3c16c7f1
beda67d1
be555de9
3de2a412
3d6e58db
be5631ce
3e986bbf
3dafcc96
3cf075f1
3d87245d
be37f217
bdfaf077
bc3bfb3e
bd6461d6
3e724461
3ea957de
bebeca34
3e473672
bdf9b7c4
3bbd7958
3e989e50
bdd8166e
3e8610f4
3e10f888
3df69ab2
bcf84335
bcdb3bd7
3c6102af
bd9a427f
3d752eaa
3d90bc43
bd81752e
bdd87164
3eb75e64
bea55816
3ebcf67d
ba19ffcd
bee70210
be4b7cd0
bdb72b53
3d221a17
be2bb239
bd551cfa
be117b2a
3d0f31d4
3e13c60a
be344a61
bdaf5caf
be402582
be341b95
be0c126e
3e3ce1ba
3e89c1b0
3e2b3329
be0c5420
3b333fbe
be2eb878
be605816
3dd1818d
3d5a5230
3d7bf3b3
3eb06d7c
3b7cb236
beaec617
3d2f2875
3b0a583e
be7cd042
be6cd230
3e88f5fd
3ca9e192
3e0f5e3c
be59440f
3d447c3b
3db37ee3
3d86bfc6
be520b1e
bddb1404
3e7160af
3de8f19a
be66094e
3e619d50
bcebfa6e
bdb9fe7f
3dfe0a78
bda91200
be644a2c
3d992af5
3d69e750
3d8c34fb
3e962214
be7002a2
bdc45f3d
be22e332
be109aab
beb3a139
3e7224d5
bc1a8153
be105309
3d967e94
bdb36237
bd2463f7
3e93f3ba
bdafe056
3df41f3b
3cdee87a
bcea7580
3e2dcd75
3e27742c
bd333d6d
3de77593
be1ee5f3
be22f123
3e15ce71
3cfa972e
bda5ed6a
bc56b13b
bdba75e2
3dde7ad7
be02fa7a
bd6c0c11
bd924c39
3cd122f8
be1e82bd
3ca1600f
3ddfb7cd
bd855ccb
3e16b84b
be216c34
be072116
3d7acd39
bdae244a
3dce1e37
bd7239fb
bd6d04a1
3e1297a5
3e04624e
3d136eba
bdf87544
3dbbec25
3dd64bb1
bb41db7d
3dd66e12
3d3b444d
be03a997
3db364db
3e1c51c8
3d4cc4d5
bdcf1eeb
3e206c37
bd35ebaa
bd36c684
3de94a77
3d1a8552
bdda0c9d
3cb2f3cb
3dadc6ad
3e0e0297
bdbd3486
bac4457f
3e2ba06e
bd9beef4
be1087b7
3cb83e0a
bd89c6e8
bd0a607b
be1366fa
bd759e97
bc056afb
bedd36fc
3ec6db54
3d0e94c4
bdc7b873
be414011
3de5ce41
3ebd2fa9
be8a8d24
bf418afc
bd895924
3e213738
3d4b9236
3e81bc9f
befa9836
3e6b526d
3d179edc
3ec92e13
3e8e958e
3c29c85e
bd111a2a
3e8138c6
be457cd7
3f02ac54
bdd3ef68
3eb4baa3
3df85ad1
be41c591
be85ed82
3e8dc285
3d97e717
3ce3e712
beba1ffd
3e417cc8
3d4f6bd7
3e4a57dd
3e5fab09
bf12b85d
bd327b69
bedd5f91
3d1efde6
bc8dcd6c
becc40e7
3ec83242
3e5cdd44
3e83d154
3d8a98e3
3ea2d594
bedecf72
3f392867
3f01d9ca
bdcb1268
be9bcf9d
3e3089d2
3dac1ecb
be92d349
3ef150f1
be93bcbb
bc651c90
bed6919e
3e76dee7
3e8882e1
bd3ba65c
befda7bd
3dff94b5
bcdf40b6
3eb62a52
be3e3a0d
bdf8eb33
bdb13417
3eaf1fd2
3ddc0afb
3dc068c4
be8f66e2
be601b6f
3e278d58
3dab9f34
3e9bc96e
bd398f8f
3eea7818
bf103803
be18599c
3ef16c7a
bdd7b611
be6aa9ef
3d8b849e
bf0a8723
be63a2fe
be1a910c
be7813f9
bdd8cafd
3e689ae3
bdd68ffc
3e161ab9
bef59e0e
3e2c2fd4
3e61da79
3d30193d
3e3b9500
3e86f502
3ed404f0
bdadb96a
be9fc0c1
be0233b2
3d6b3643
bee6abcf
3d9eae9d
bd6ab01a
3eaef05e
3ea058e2
3ec14bd9
3ef123af
3c17b7bb
3cc661ed
beb459c3
3e079d16
bdeb7b08
be9a58aa
be4b9489
3d7c90f1
be4cd873
bc86242f
bccca4ef
be8ed21a
3e8e2c2e
3e7bd942
3e078dc5
3d9b8c0a
bd8814d2
3e023c54
bd8ce931
3b1f6f35
be16d7a4
bec9d62d
bda2fe1c
3f19e87b
3e21774a
3dc4f812
be2301a3
bd2923ed
bd7952eb
3ed8744c
bd945db2
3e530d32
be216bf1
bea1242d
3f057407
3dec8ee2
3e8296ac
3ca9669a
3da6d6ef
3e979947
3ebfd41d
3dc47189
bf00139e
3e2eb370
bd66c2b2
3eb85458
3e094d89
bc0345c0
3e69d966
be2a9b22
be6ee455
3e52c728
bce149e8
bea2a33c
be8a16e1
3dce9e0c
bd433ff0
be5b1d86
3ee14cef
3eafd010
bdf3a337
3e03be62
bdf41da9
3ed1a6b3
3e856158
3ea6efd9
be6c5595
bd331dcd
be409a20
3ca76609
3eef93ac
3c09cf7a
be42ba06
be0ac90f
3e16a5ab
bf2d15db
3b1e80d5
3e85979e
beb83feb
be8439b4
bdef5c96
be594529
bd887457
be75d143
be2a08cc
3df0386c
3da457cc
bd6d8d7c
bd20084f
bd690b77
3d926d83
3e15ea28
bbdb9359
3e1fab85
bb9d565b
be041be6
3e75a8c9
3df2a3d2
bf0696ef
bde19b7e
bd1818e4
3d89a99a
3eceecbd
3e9f71c9
3df6b791
3e086fb1
3d2e5689
bcd0c7f9
3e819ea7
3cb6a9b3
3ebfc1e1
be9ae127
bdd03423
3e8fc0d9
3e4b5d7b
3c85c1c2
3e4a1fa9
bd4f990d
3e5d2176
bcaf594b
3e24ede7
3da6dad2
3d789f80
3de7f877
bee68480
3e6502b6
be97c199
bee667a2
3e63cfd1
bd5f38b4
3e09dfb5
bddb7e7c
bd57faad
bb89aea9
bd36d31c
3a9d669a
3e18da79
3eabf2d3
bdeb720e
3e0e948e
be86e029
3d2b7838
be6998c7
3c7478ee
3e93eb13
be6934fa
beb138c2
bd2a8c04
3d549054
be7a5cd3
be758a0c
bd3a549d
3d55aa54
bdb8f53c
bd8176cd
3defda34
bebee1cf
3e227b19
3ea892f8
3d025fdc
3cd4a720
3e9bb018
bbd45338
beb7c5c1
3d65c1c1
3ec14ed5
beb6b64b
bec5e501
be111618
be1d1d20
3e5d15d6
bbc7c60b
bb7fa3da
bd99e2ad
be5c9e65
3ea5a906
3e0e9214
3e402fe3
3e374a4b
3eb66f4f
3e7a1c5d
3d88c321
3cfc9270
3e443166
3e7ea239
be09667a
3deb6364
bd0f0870
3f111525
be99b27f
3ee8c7e3
3e76849e
bc0d5d1b
3dc1b51e
be820dec
bc8c164c
3ea249c5
3dba39f3
bf13fda4
3c89a535
3e38885b
3cefcf16
be5a1bf7
be575a4f
bdd1d932
3ec59f9f
3ed780a8
3b4af44a
bd2f73a3
bd4b5996
3e2ce128
3e395fe9
3d62f7d2
bf0af3ac
3e5850ea
3c8bc912
be12d8f3
3e7058f6
bd8b9ef1
3d9da926
be36bc7e
be81946d
3e01800d
3e3c821a
bf0b68c9
3e2fcd56
3eafd143
3d7f94fc
3ea72c08
3eb8bf9f
bea9b667
bf42b6c0
3e3031f3
be5ea807
bf09b7f7
3f4ba06e
be924943
3edcb73a
beb2c776
3eb24818
3cde5cfb
be195946
3e5b2925
be16b47e
3a86095a
3d1da853
bd9520f6
3e3e94e6
3e322d5a
be368b69
3e897200
3e4ec895
3e3540c1
3d061d88
3e47cd15
3eefda4c
3e623024
bd26b936
be237da8
be4b3112
be7705e9
3d709fba
bd74cfa5
be2ddcfe
bd07b85d
3dc285f6
be9663d1
bf1e134f
bea472f7
3d68e693
be1fbc1c
3b8ead31
3dbbbfc8
be1fcd74
3e0411ba
be85fb25
3e0863c4
3dbe46bd
3d631490
3e4beb57
be192095
bded6967
be9dda25
3dde3528
3dfc81d9
3eff4d29
bdc7608c
be02a3b0
bd111db3
3e3a5a12
beca7416
3e2e0f98
befa6ffc
3d690581
3e47f413
3ebf115c
be632ffd
bdff3443
3e87354d
be25479d
bdfd1532
3d8e83c0
3e94a521
3f0032bd
bca12deb
3e66403c
3e02eb17
3e0f0eb9
3d802237
be787b33
3e6a0598
bea910ca
bd385d7d
be89b6c9
bf0f8614
3d2d6003
3e9b746a
3d7cb0fb
bda68409
3cdbdf03
3d158732
3ebca961
3eca8f45
be10948e
be9c4ee2
be1ddd06
bebf2258
bdbc5bd5
3e110631
be3ce626
3e9d93aa
3e77b8b5
bdd14beb
3efd8523
3e81fcdb
bccbfa4f
bee31d8e
be428bcc
bd337d73
3cd3f977
bde0b949
bd8be90c
3aa57b90
beed253f
3e82aaf8
bf161cab
be583e11
be5f6583
3d94044d
bec4d9f8
3e0253bf
3e2e2605
3c8e2daf
3eae7f09
3d9073a2
bca02d3b
be02403e
3de2ef74
bed37955
be4ba664
bda4dd5e
3d7a089b
3e4f2db0
3e7002d5
3e4c123c
bd48cf05
3e0a47ea
3ee2870b
3d2e7d72
bf12ea21
3e05eeda
3e546f89
bda1e086
bc529121
be66a91f
bdf38186
beaa8822
3e4c41b2
3e0c10b5
bed9deeb
3e205037
bed52400
3c786133
3de55d92
beabbf5c
3df7dcb8
be32efb0
ba876ba0
3e95b1dd
3da24cbe
3e2397c3
bdb71c1d
bcb08985
be88518c
be855801
3dc49afc
be7625af
be39452e
3dc43aee
be58a689
be17ffc5
be5aa8ce
bd84cda9
3a859e98
becd8804
3e4d38aa
3da609af
3e228d96
3e2e7279
3e661e8f
bea2cc50
3d8b1c6e
bdd5f29f
3e8ba439
3da5e42c
3d32bb32
be14c630
bd509336
be4a9837
3e067585
be062047
3dd40017
bde8c72e
be7f3081
bde7d153
3cb0d589
bd236bde
be78cb28
3e3b14f3
bdc85429
3c88f5f0
bc8c88ae
3ba9de16
3e84541b
be34c9db
be00a970
3e4093ef
3e5a85c9
bdb4a935
bd0447ab
bd87a527
3ce3ab9d
3e848497
3e853018
bdcbd9d9
bed0f8b7
bca033ee
be933c5b
3df04d14
3e0bcef0
3e5a0c6b
bdaf01fb
3db62533
3e2e4398
be1ebeeb
bdd1d5d1
3eb067bc
3e96597a
3e48ecaf
bd54685e
be64f0a5
3d808985
3db22b95
be6e7af6
be365ae6
bca709d5
be2d0653
3d9f7379
3d6c0186
3e7f72b6
3e75c57d
3e8059db
3e6b296f
bf06ee9a
bd0a24c5
3e05f21d
bcc68474
3ced3cb3
bdc0d50c
bdf89677
3cd0c95d
bde94dab
be074b8a
3e9b89a8
be7150e4
bec71ead
3e010a42
3e44a40e
bddda49d
bea3b9d9
3e18793f
bef79f99
bdcd474e
bace774a
3e9103a7
3c84f6c0
3e28c6ed
3e74cabe
3decd1bc
3e1ff353
3d1d187f
bda96482
be1d8c4d
3e266e6f
be01f141
3cc2f688
befb7d52
3d7af93d
be0735f5
3e192cbf
bd66f171
bd5db026
bde9febb
3e054e74
bd27106f
bdec26e5
be2df38d
be82c0b8
3d62e0a1
bd4ab190
bed190f9
be0270b2
3db04037
3e63bcc5
bde78135
3e4f3be9
3e179598
3e0b3aba
be9140ff
3d6720bc
3d560d21
bc4c4881
3ddfc6f7
3e6f6ea6
3e60b7d4
be61d4ea
3d09b0ba
bdaa60a5
3c08b81d
3e354e37
3e4ab867
3d9c4796
3bcd12d8
3dc50354
be3f84f7
3c93cb5d
be35a59e
3e65ead8
bddc1120
bdd5092a
3da88688
3e192fa9
be512329
3dd0ea2b
3c49d415
bdc5e41f
bd591ec5
3d565669
3e4fab79
3e21ed3d
be370312
bd190d4f
be382670
bdfe7f3f
bc9f7cf2
3dc4a00f
3da55a43
3b94c086
3e132c95
3daade72
bf048c8c
be48a193
3d03d4c1
bc163445
3e2c131d
3d8cac9c
be9784b4
be365db2
3e5b3813
3c69d0cf
bdfa29ed
3e27bf64
3e553bff
3ca4f4a8
3e51abef
3cfca340
3c39c7dd
bdd5fade
3eaeecef
3b389c48
bd393114
3e13ff5d
3e1605c4
bd27185b
bda382d8
bde9678c
3bd6f923
3e33e6b2
3b205c9c
3e0a8d15
3da96df1
bdd2ed97
3e2e089c
be3fe1b0
3e28f736
be224b86
3d89a1c2
be13fb19
3e801ae2
be38e695
bcb22186
3e2fc46b
3e0480b8
be1b2ad0
3e6329f2
3d1e8a9b
3e65a6d0
3e3416cd
bdd1b381
3d8e258c
be08478a
3ce36254
bca5c64f
bebc05cb
3df00c16
be3dccd6
3dc2cc85
bdb4febd
3cb3704b
bc783a3c
bcf563c7
3db6c1f8
3e0e1d2d
bbf00fb8
3d8c9220
be2ae89c
3cc64d47
bddb178f
3e253be9
3d746654
3d426dde
be592c7b
be1eef70
be20e3f3
3d96478d
3e0926f1
3e7d7eaf
bd946990
3d9f5b2e
bca50597
bdaf1728
3e2bf2b8
be71d453
be805cbc
3d7fd83a
be5fedf5
bd345877
bdfd4a3c
3d022086
bda0164c
bcab300d
3e28c82f
bd4bba29
3d619c0e
3d8c2bb3
3dff314b
3c8f8531
3d0545d2
3d2e7e13
be2c15e0
3e1b38f9
3e2fa60c
3dfb5e8b
3dad722f
be8f4191
be12c1a6
3cfc614a
bdb65c3f
3e3001ae
be4e9216
bd56aa82
3e408bff
baabf17b
bdcb4b0f
bcb6c5ee
be7fc890
3d8f2d6f
3de205dc
3e032b32
3d6e5d00
bbe0617c
bdd12027
be559d1a
3e259a44
3e2a2728
be066174
bdf4e05a
bdde5ef8
3e62b0e4
3e0de4b7
3d243895
be5535f7
bd90a82a
bd4ccabe
bd4a17a3
be20025f
bc446d68
be0943bb
3e4dcac3
3e6c93cc
be7427d8
3e6256e0
3e01740f
3d124865
3e1dc188
3e138ad9
bea6344f
3d15278d
3db6c500
3e228a39
3e1622ec
be024458
3db914a3
3d0e21a5
bd325d08
3df87374
3e223bc7
3e36b292
bd7e003d
be010e76
bdfabf3e
be1b60dd
be2e97b0
3da36a36
be149060
bd3da175
be2a8cc3
bd3f01c4
bcf45763
be17fb7e
be01a551
be07aa57
bcff4bf4
bda56e16
3df01238
bdfc044c
bc3e7ff4
3e3467c6
bcf556f9
3de8260d
bdae7379
3da109ee
bcc9b2e0
bc98d223
3defbf61
be2fdeeb
3dd0a6f4
bd68bc12
be179f84
bd5b0fee
3e308104
bd73d68c
be0bb2c4
bd64cb74
3d95033c
be361e82
3d3c197a
bded72f9
be30e671
3d8d6ab9
bdf2795a
3d41381c
bdcef77e
bd0da6a6
be1023de
bbd69b60
bd025006
3ce43459
be1fc941
3d449be1
bd4cd855
3d86bcc7
bd809bfb
3dfcdca9
be320bbe
3d889233
bedcf1b0
3e56671e
bd40b91c
3e128aa8
3e17f4a5
bdbb10fc
bd47dcb5
3e225c86
3e259082
bd55570e
3e098587
3e01eb21
3d0e770c
3deb2a3d
3ce5b73a
3dd2eb6d
3cd73ea6
bdf6ed64
3d5eade6
bdad1624
39a99494
3d662b87
be6ede44
3e2f4c03
3d08b716
be154688
3d6136f4
be090c3e
bdbfad20
3b4f846c
be1f6cdc
3df5d590
3e02ce11
bca5289b
bb916701
3d5f9e70
3e08e997
bea0be60
bb4d49be
be875d74
be39a71a
3d822e8b
3dd89834
3c8e351d
be207bff
bda0b11f
bdc4fa23
3e107fb4
3e09bd8c
be1337fe
3d6a306d
3e0b2c87
3d0698ff
be434571
bd9e7511
3d868647
bb4d4b6e
bcd1d6a1
be082389
3e0d675e
be58b479
3dcd0b01
bdb961d1
3daa83b3
3c749d67
bd93cdce
3cb0919b
3d96210e
bd039c08
bd4c6c02
bd1fea6e
be1f4346
3d4a8879
bd369b14
3ced1c29
be24b6fc
bd41acb4
bdbf6afe
bd35163a
bde34d9f
3e2a76e6
3d245b30
bda5ddeb
bb8581a1
3cc63f33
bdbbb2e2
bc9fabce
bdd4fd45
bd335e04
3d8e36c5
3d232545
bd9cc318
3e1f922c
bd57bab6
bd164ddd
bc3bdf5a
bdf64867
be01c4d6
be2b5077
bc3fe8d4
bb570033
bc241b45
bdac56cd
bce459ad
be2ed41c
bde0f09f
3ca1362e
3e3961fd
3e2716d9
bd1bd422
3c995312
3c615f64
bd6368ff
be107166
3df2f332
3d474789
bbb4c0aa
be2fb591
3deff303
3e1ca26b
bde4f076
bdef7f35
bc49ea50
ba9d442f
bd753e7c
bddf09a3
3e45324e
bd9083e4
3e20b65b
bdaa2175
bd0a4bc4
3dbd7602
bd6e7c9f
3e4456ae
3d4f564c
be36c96a
be0f6b9d
3e1368b5
be18766d
3c4e205a
ba6937d0
bcc9168c
be1ace5f
be1c8552
3e0452f7
3e243405
bd92eea2
3dde6fea
bdaa3f83
bdb9cbe2
3c887163
bbf81c77
3e0aea58
3e081525
be37b54a
be1d9dc6
bdff91cc
3d3c1a93
bd02086b
3b333bd4
bc9a1349
bda8663f
3e00c784
bdd2be71
3e046c40
3e1fd59c
bde7314f
bdd95acb
3e1adf67
3d8f6f45
3de3e6e9
3e18bcab
3e3102a3
bc135208
bdfa23cf
be1cdd08
3d0407aa
be112517
bd2a5d56
bdfe201d
3e04249d
3db82999
bd9e7f5f
3e334582
3cbd4e31
bd14af03
bdebb7d3
3dd8d90a
be002e1e
3d302a4e
3e8fb3e1
bd2c8519
3b49e174
be2e9fbf
3e59820e
3e62621f
3d7c4437
3f06b1cc
bcc76517
bcdd3afa
bd424d3b
3e6f37ce
bdef063b
3edb2416
bf04c728
3e557c42
bd385c97
3d06399c
bf0533f1
3e3f8779
beb014b3
bc860aa8
3dadafb4
3e239e94
bec36356
bd6d011c
3ec9f02e
be9b5ab0
beb1e490
3e8c1717
3d8312c1
bc826064
be194899
3ed1765d
3f098df9
3edb9fca
bd3af27d
be99871f
bcdcb6a4
be63dab1
bcf0662c
ba27a786
bf17b9f9
3f0dbca3
3e64df98
3ed8e640
be78a597
3e807efa
be7c0918
3f00fd67
3e3de8de
bea114fa
be4f3f26
bea6bd93
bedc3de6
bec03b04
be04a39f
be2e3f22
3e5e7679
3de12a3f
bdfc30ba
3ed18b29
be56a687
be72c4d2
3e2a25e9
be914f23
3d531c94
3dc66166
bd35b824
bebc3151
3e1be3fa
be4f4322
3ddb35fb
3a96d495
be523cf0
3cb7b319
be1480d3
3d9c8311
3ca5206a
3e1d0c7a
3e2b7d0e
bdb0e5d9
bdefa19c
bd1c76f1
3e967a94
be62cd36
bcb04612
be9cbd13
3e977f40
3e583d42
be4c49b3
3e0820ed
bb1fba66
3e694b76
be1894d9
bd9cdaf4
3deb3b97
3e28050f
bc9b5804
be6de8db
be2b2fef
3e822cd6
bd2beacf
3e12a0cb
bd76107d
bc205e08
3cfadc5a
beb42678
be47b946
bedd482e
be37f7cd
bdcfd243
3e02b76f
be39d811
3d1bf5e9
3d505149
3bfe7f0d
3dbcc6d5
3dd4315e
3e2a6e84
3e24a563
3e8dfe2a
3e237796
be17fef7
3bbec509
bea73f15
be499f55
be5ba01b
be9890d3
bebb3889
3da42e4e
be1ea6ed
bcd6437a
3e5ecf7e
3e4a995f
be8fb69b
bddf69ae
be333244
bc192b77
3e84c4af
3e44f28c
3e22f170
3e212b33
3e5d9997
be6f0b82
3e8d5ed5
be8d97c7
3d6e788e
bb51980a
be12eb56
3bac02a3
3e19243f
3d9093c0
bda5ae74
3e71e293
be667d8a
3dda04f8
3e3e2838
3e55027c
3ec0428c
be50fdeb
3d76b37f
bc0d6dcc
bdef7360
3d58547a
bdc7e704
3de4f2bb
bd88ab85
bdbefa5c
bdaf78d7
be29804b
3e4babd2
3e0e914f
3d338008
be291fbb
be0b394c
bef06242
3e4c0c07
3ea9cc85
bdf80e67
bb906a41
bdbc4976
3d5d91f3
be82132b
3e291a64
3ea3e624
bd39388d
bcda2142
bc843e1e
3e151391
3e0685f0
3e113187
3b6daceb
be20d263
3d728894
3dcbfabf
3c145989
bdf0af8a
be0d8791
be0f9334
3d12c033
bc924a14
3e0c9ec7
bd9ab7dd
3de7c826
bc9f13b1
3d86bd24
be21caf3
bdb51b80
bdfc2cd1
3e0e804e
be1439a7
bab8834b
3e020668
bdc0067c
3da6c2fd
3e11e27b
3e2fa8bc
bdaae42d
3e3db6e9
397a541f
3e42c698
bda8b4ee
3d23a8d8
3d7d4511
3e43ce95
be049f68
3d40dd0c
3e180c28
bd581a06
3e1ad07d
bd8a7c4f
3e424af9
3dc47cf0
bd8d23e8
bda27bce
be0a3139
bd9116bf
3df51d6b
3dfea352
3d003b80
be1daef0
3d608021
bb73c88d
3d7b68db
3dee0faa
bcc177de
bd2ef8f2
bd92ca8f
bdb94305
3ba402d5
bde238d5
3d0295a8
bd2f2b56
3e1d1adc
3dcdcb98
3e096b8b
3eb1f516
3e3922bf
3d4f8963
bd630ec4
be86e2fa
3dec0248
bd28397c
be0178d0
3d9c04c5
bc0f0ba3
3e5db2fa
3e79d478
bdd88daf
beb6d07e
3ea0d45a
3d620eeb
be0b4c83
3e3b9346
be75a7d0
3dfdf936
3ebcf68e
3c070a09
be821d6a
be2691ac
beb02662
be1db6ab
3ef27c8b
3e79a831
3ecbd057
bec749ee
3e19caa3
3e41c4c8
3e235b06
3e994353
be27015d
bdc18c8f
3ddc84e5
be3e2785
3dcbf8e6
3cf54bb7
be8c39af
3f1668d9
3e069006
3df43ba0
3e84179b
3e438652
3e8eacc9
3eadbbef
bdf12ccb
befc25e5
bd407a7f
bba56726
3d06bebd
bea0dc4b
3dfe5aea
bdedcbdd
3d825e37
be77df50
bbe16e9a
bc5b4dec
3e46ff23
be0f3ab9
3e909369
bea9b379
3ef393f5
3ce29087
bd7f90c1
3d246367
3dab2046
3dbbca0a
3d86b816
3d21134f
bf1cdb17
3ec86669
be99542b
3dabe7f0
be9d96e5
3ecbb1c2
3e62802d
be4452cb
3e467860
3e67ffff
3da333ac
3d900369
3d4d61fd
be4447d5
3e570b14
bf3335df
bebe0526
3e8ae469
3e8b9273
3e6531ec
3d8ed78d
bc132af7
3e8d8d56
3cd57ccf
be4c6322
3ec76783
3eeb7081
be40af2e
bd52d6bb
be8f6fe4
bdde73cf
3e79d83b
bec0a17e
3e5c50b4
be80b1ad
3f05c8fd
3e517971
3de6052d
3ebc3bbc
bf0514df
be32a327
bf52d3a5
3df201b3
bdf8c1dd
3e56aade
3d3cc965
be6e7590
bca3c113
bf4378fd
be803f18
3e746573
3e910d77
3ef3fd9d
3ee4057e
3eb4341d
3d576c09
3e4a3907
bf02e4ff
3c1a003b
be6d15ea
3e8a61ff
bd701675
bcce2157
bc7609b1
be80c933
3e533c1e
bed3fecb
bd83fe2a
bea8ae53
3ca02c91
3ddfcda1
3d5fb092
bd40b035
3e43d015
bd41e0cc
3cb5c803
3c945966
bd6c9d10
3d6f1f21
be1a82ff
bddeee4b
3e903285
be7102a0
3e732a74
bebe73e7
be64eaa0
3d9cdb60
bc8f8638
be1da8dd
3e562fbd
3dfcae67
3bf0db6c
be36856e
be80c76e
3d3a200c
3e1f4b01
be883362
be1e33fb
bdfbdf9a
3d361f1c
bd11d548
3c17e635
3e68c2dc
3de35bbd
3e09a335
be821dc7
3d1370c8
3e3248be
3df3bc4e
be9e8bc6
3d150334
be067c1f
be90e8f1
bd859446
3e4bc796
3e188461
bd3610f9
3e0d0a99
3e8fa276
3e628e1a
bf15dee6
3e1a1027
be60ee46
3d5997b5
beac6e51
3ea6e0f8
3ea39d3b
be223f58
be1a6ac1
be5c1a9d
3ef3004f
be16554b
3ea8fab3
be067469
3e0d19ab
be3ee997
3db504c8
3ebe619c
3e669ea6
3e926cdb
bd493352
be07ea40
bd6f1961
3de84a01
3de3ed92
be3bfd7c
bd36de1c
befa16eb
3ece993d
3d241b4a
be1b4476
bda7539d
3ec9a7ab
be81bd13
be1e3b7b
3e0d361d
be3c863c
3d064ff4
3e559460
3d44112c
3d496de0
be9feac0
3e891037
3e841302
bce46b17
bdf40257
3e704c07
bee27ad0
3e8b220e
3eb81d2a
3e34b971
be5cda53
bdc32bbe
3cbd89d8
be623d61
3e602bcd
be2b731b
bd6ed351
beb2a736
3ecbde84
3ed623c2
bec7416d
bf1bc26c
be483e6f
be1d6ad5
be21e58d
bdf42bcd
beb44d77
bdf4c364
3e4bbf84
3d0fb70e
3d534958
bdc360b7
be32915e
3da8e1b8
bea2d512
3e2157d0
3dfd276a
3e81c41f
bec65a98
3e546b19
be1c20fd
bdd3bf56
be28612f
3e7418a4
bdd5bf7c
bbd594c9
bedc5a00
bec3d542
bc71caea
be3be7d3
3e3c7fff
3e51af54
3e1b469b
be4090b9
bd15a07b
3ecb63ea
becd72a9
bcf82ca0
3e09d688
3e5927f8
be0ce4ae
bdd09c67
3e078f9e
3dd32726
3e81a8a8
3eab186b
3e1cee8e
3de96473
bd074e50
3e6224bc
3e1f6c57
3e2c91ad
bd9d0c85
be47e8ea
bdb8fda6
be4fd2cc
bd5f5a1e
bd48bb10
bd328632
3d2ed343
beb2e524
3dcb24a9
3ea929cd
3d79878e
bddc2f81
bdb10c96
bde3dcdd
3e0297d3
3d4b7e5a
3e1af9b4
bd9de401
be692859
3d6700c8
3cb924fa
bca1e2a3
3dcc482c
3de484c6
3d5543ad
be36c410
bd7cc7e9
3dc849f8
3dbbc7ae
3d281dfb
3da4165c
bdc93ad1
3e80fa49
3eb6bbbb
3d86c235
3da12969
bede6ffc
3ead10cf
3ea28a03
be9f7450
3e648590
be2e92f0
3e7ee111
be05b67c
3e4a4464
3e8198e3
3e3e8371
3dfba8c2
be7db300
bd995da1
3dff4389
3e26d6ca
3de39c9e
3e639ad7
3de92843
3c1bd084
3df9213b
3d8042b6
bd9a38bb
3db8c3ed
bd91b2c6
3e6fde86
3c9b474d
3c657a3a
3e12fe7f
be3fcd49
bdbe4965
bd0a7184
bd384432
3db4fb75
bdcb3509
be016a05
bd73719d
3df7e4e6
3e26179e
3d521d4b
bd474b74
3ea012ee
3e81c0c9
3e023825
bb91f5d6
3d3598e8
be93c431
bec132cc
3d53b503
be1f72b3
3eb36c80
3eae293d
3eb1ee06
bec48c5f
3dc1e5dc
bf1e55d0
3ec2a106
3f158142
3e5b2b85
3ea539f8
beccf4bc
3d288437
3f12f13d
bcfacac8
3e77063b
bdbb6c2f
be39547e
be31b9d7
3ee732f7
bdcda33b
3e2863f9
bed85c52
3ded243b
bda07cc4
3eaeb3e8
3f121da0
3b68b533
3e1515a8
be6c035d
bd99fc42
beb23ada
bdbfbda2
be76da9b
3ed0a592
3e05dc94
3d86248e
3e1a2a63
3e5fe676
3e807d2e
3f0ce644
3f221a42
beea0698
bd84e232
bd2b7150
3e9df2e3
be8f082f
be9015ed
bdac7181
3e0415f6
bde6048c
bf0a63ea
3eb3215c
bdf4cbe3
be81dfe8
bd8fafa6
bd347589
bd8e9fc4
bdb9d71d
3e4e0541
3d15e8a8
3ea50c9b
3ec42efa
beae101d
be2ac2f1
be7d6001
be27578e
3e8853d6
3e6f7be4
3e0783a5
3e350f77
3e076609
bd1c55c6
3e29bf98
be0f21c1
bdc8c017
3dc67b85
3c811740
3d223674
bddab51e
be996885
bdc484db
bd94e4fa
bca21af4
3de52bd3
bde193a3
3c14a70f
bd0f33aa
3e4800d4
be5ccec2
bea4ea38
be01aa7b
3e5df142
bd2e0076
3e9b833b
3e6705db
bdde00b1
3d68f07a
3e2a04de
be650518
bcbe802a
bdbf3491
3ba2ab8a
3e59fe4d
be0e31dc
beb621e6
be55f202
be799963
3dfa0b68
3eae0079
3e1b1f5f
bce9ff86
3e0025e4
bcdf7a53
3e0ebdd9
3e246de8
39983347
3d52ea38
3ca44292
bbdc9fe3
bf36f9fc
3e6c70d1
be9d43e9
3d78788b
be920855
3e14a82d
3ecb6553
3e824c6c
3edf0f40
3e32496c
be2d0f04
bcdd9e39
bd8072ee
3e37d853
bd13a8fe
3db57d4b
bf560e57
bea1fe62
3f0e4197
3dac4dc1
3bdbf717
bd9f9368
3dac1e7e
3efa022f
3ea6384b
bf1d4cf3
bd4e27c9
bf085272
3e890a7a
3ed08dd0
3ee57bcf
3e211986
be908d28
3e86c986
3d4d8fa5
3e6445a7
bc71d2d4
3e09c47f
bea1685f
3dc40bd9
3f2bc413
bea21d26
bdf3aede
3e859c3a
bec22127
3f258b1f
bee3cfc5
3ed48fe1
3e341e1b
3de32bbc
3e6ab807
b91564c3
bf0bb0d5
bf03e726
3db26337
3e1d7a31
bea86fb0
3dd89971
bf37a6b5
bd553d07
3e806a57
3f0a571c
3e089488
be16c7ea
bdaa7de0
3dfc8bf5
be0607cb
be2ec209
be94440c
3e295d8f
be4cc480
be1b9ea9
be603166
3e317dac
3e126d00
be4d485d
bd4658cf
3e20a29a
be38c963
bec367c0
3eaba376
be6b07ca
bd649bbf
3d430f09
bd84f664
3c67a031
3dd3cc9a
3d890113
3e339aa8
3e89ea7c
3b51019c
3b198a80
bc1ff53d
be9b56e8
3cf61433
beaca837
3d2b09b1
3e81ff66
3da42df3
be1a1afa
bd731ec1
3e1a8511
3defa7c7
bdfc47e7
be659419
3e0d640f
3d84257e
3e806013
3c326dc9
be2c2e40
bd9b9122
be8b1a39
3ce0c7e7
3e87dad6
3c9c36f3
be287068
3e92819d
3dd22587
bdbee575
3e848be8
3b34cbef
3e905edd
bdadf82c
3e6ec5c1
bec75963
be9cdb3c
be33f694
bd60ce33
bae82ed9
bee6effb
3d165f86
3daf1e76
3cdaaaf4
3e0b6a51
bd509c9a
3e4024fa
be6ff449
be856676
3dd7c78c
bcb66e8b
be349596
3e28f9cb
be899c50
3e5e7781
3e9402e9
3e650d25
bf0cc25c
be11ff8c
bc2b2398
bdce1ebd
bd264b10
3adbe24a
be803b1b
3e6f9e30
bcbaba4c
3db80d16
bb77fb85
3b78ba26
be2db937
3ce8ec6e
3de1d9f8
3e60b504
3da0d522
bebb559a
3ddd84ef
bdeed947
3dd9bbd8
bca0cec2
3d97d0e2
be8a6b7e
be823c47
3cff55e3
bdd4ea42
3d87bc13
bca96528
bdbaf225
bd206d27
3e09f84a
3dd9cf70
be1f9c37
3eabf571
3dab717e
3e2cbe79
3e17784e
3e9648ff
3e7fb27a
3e0c00ab
3da8cce3
be741de5
3db729a5
be3a9c2e
be4c3566
3ea51067
3eb32949
bc2a2cf6
bded74a3
be14e896
3decbb16
be54141b
3e544da8
bbba9cb2
3e33d7e5
3e9da1bc
be11c0f3
beddc76b
3e4056f7
be54ac9f
bed8f3bd
3ecc1e5e
bc778a4f
be9cc4e9
bde7e136
beade362
bc920993
bde1754d
3dfb2cc5
bd371c02
3e712cf8
3e6a6f2d
3e22e6ca
3e9a6e38
bd16be44
bd7cfdce
be0485b2
bd1e7685
3e24a7de
3ee459dc
3e7b973f
3e02cbd3
3e296648
3e6acf63
bc784ed4
bedb6033
be519de3
3e2ca47c
bdaed7de
bd91a114
3d9f7e50
3dea5ef7
3dd61033
3ec1a6f2
3e153c81
bebb5db2
3e61bf73
3ec90a8c
bd4ad05c
bf2d285c
be1c9aa2
3c7aa152
bda7eb1e
3ae5a9e2
3eee56c5
beabfac5
3c8c5c55
3e609db8
3ef0559c
bdc08690
be5c0568
3ba0f12c
bdad38d1
3de8bded
bdb29166
3b72072a
bd82c1c1
3dfa092c
be388fcf
be91387b
bbb341a2
be516a16
3d454289
3eb97613
be0f60d5
be6b9878
bd9c12db
3cebf303
be2047b8
bd99b564
3d3d58c0
be93d0bf
be804f4f
bdc9361b
3c8684bc
3e001e35
3d09d9c5
3dd35ca5
be2847b1
bdac4ca7
bd68f5f4
3c84131c
bdfebfc4
be6de2c8
3d087855
3e44734f
3ebf6a79
bdc19369
3da87b8c
3d12d594
bdd20047
3ee6d925
becc462e
3e7b29d4
be5e51d4
be051fdf
3d0a3620
bda9f51c
bd94f7ba
be704cae
be385211
3d827e07
bd19cf6c
bdcb56a0
bd75b199
3e98ac02
3e9983e2
3da9756a
be2fab3b
be74748e
bdcd018f
3df4fb88
be81f24f
3c0741a1
3d8dbfe8
bec48443
3d77be12
be1d7161
3ea05a9d
3e8f6bf1
3e18b760
3e91492d
bd45650f
3dd79006
3df359a8
bda32a12
3db5156b
3d25a2ef
bc1b7a36
3dfd86b9
3b959a81
be541893
3e0bebe3
be6d31da
bd1beb6e
3d0b9458
3d631203
be83d7d2
bbe4bceb
3e9a2f16
bf008ede
3e3961a0
bde24bd7
3ddddfd7
3e3a4235
3d96a20e
3d9ee3b6
bdb844c7
3d7612f6
be40b260
3e56d4f5
3ea3bbe7
bde91d42
3e1f3318
be1564b6
be2d2af7
3d5c648e
bc893351
3d941864
bf37497f
3e00786e
bea3578e
bda7b08e
3d95c7a8
bde57434
bc3f27e1
bd8047ca
3d720e60
be3a4ba7
bd2041d0
3e630384
3e95e1fb
3e7c07ed
3d5ee306
3d3f54ba
3e3a5748
3c7b4d44
3eab71b9
3c8bc4f5
becbc90a
be16ae0c
3cfb7904
3dbe792c
bd907ab8
3d826c6d
bb361a34
3e2db761
bdb619a5
beb899cf
bb70d8bf
3e6a05bd
bd1f859f
bf159feb
3d70d3f6
bc810412
bea25bf7
3c9ba436
be1bfa93
be85daf5
3cfd2f42
3e2f40d6
bed0f91b
3db0ac85
3cb1352c
bea874c5
3dc06111
be8352bc
3dd374b4
bdb2f8fc
3d9bf076
bd42e49f
bcd74b8a
bdbcd88d
bd032281
3ddd22c4
bdba2a80
3dd0068c
bd92758b
bea3e521
bd7ca2c0
3ccd366d
be1d355f
bdc7ce04
3d8a8e68
3cd6c7cd
3d6c3435
be089e88
3c48574f
bd2964ac
3e0e7ad5
3e0bd95a
be112f19
bd93aa61
3ed403cd
bdbd3c9e
3e077a68
bcb151d2
bdd0debf
be22d477
bde7502c
3e7d7998
3e6d7e02
be2aa4cf
bec06ce3
be060703
bea0822f
3de514e4
3d902f5f
3d5b6083
3e305377
3e1c3376
3e2b92af
bded1faf
be80aa10
3da74a66
be18758a
beab3917
bd8e06d4
be7b76d4
be1bbbfd
be64cc87
bdf3a9d6
bc8c0a5b
bd3a1c01
3e0356f4
3d711731
bd8dfcd0
3e1d8c69
beb8aa2a
3dc74c40
be0108a9
3e333535
be1370f4
bdd6f68d
3e1578a6
3dcb81d3
3e4ff23c
3e0ea10c
3d204a8e
bd7bb1fa
3e2fe2c2
bdaa8536
be5cd8fd
3db65a62
3e5a810f
be6a0cda
be630e0d
bdb66ee8
be72075d
3da0956f
bd23b577
bd7ed5c7
3e1bb38e
3e03085b
bdf280b6
be53f2e4
3d610f69
3e11a87f
3dbe23ba
3e115afa
3d9f19c5
be07095b
be32b53f
be1ff9d9
be0d8e56
be577a0c
bec6942b
3dbab274
be125636
3e4251bc
3db3b948
3eb9993d
3e55fee2
bd13fc8e
bd80014e
be8ea71c
3e53d778
bdeb3882
3e88c34a
bea8a367
3d92a84f
bdff3300
3e2b5e99
bbf1e99d
be04c418
be9222ef
3e04191a
3ca61a7b
3e212f25
3e2020e5
bd8c6e7b
3db5b836
befe9a9c
bdf4c8f6
3e87272b
3e520121
3ece3f4b
bdadee52
3e82fda3
beae0603
3e259256
be8dd3d6
be2d9a99
3e99e6dd
be401020
3e43994e
3e3731b6
3d42147e
3ea7943f
bd584f4c
bd0d49f5
be45d0c6
bd827c31
bd3dd2c0
3e8c6cfd
3ec13535
be0e8cc1
b94cc087
bd147f77
3e4be82f
3e5339a5
bd279566
3e80db6f
3e1e4d6e
3db0cfdf
bccff013
3ebb84d5
be4f7d4f
bcc0b72b
bf251472
3c8717fa
bdb31979
3bcd0783
be5637ca
3e00795c
3ec10e83
bded1287
3e1fa91e
bf3d3805
3e1d6b59
beb0c40e
3eb6b706
bf30a5f9
3ed79d84
3e1ccb0e
bf3fc11a
3ece561c
3d2a41b0
3ea968b0
3bf2b99c
baca0bd5
be2e68fb
bd74bd33
bd8cc539
bf15de9b
3e842420
bd567870
3e1a91ce
3d48b70b
3def59c1
3ed6b4cf
bd92977c
bed4dae7
befe1ca2
3e9c996b
3ee54960
be5542c7
bede1569
3e147055
3e4e56e8
bea8169b
bc2e8cf5
bef1f64d
3e8440a2
3ebe8156
3e30caf7
3e66f6fb
bf03d8ae
be1c96b5
bf0634fb
3e9fb752
bdf4c56e
3e463a0f
3e03b52f
bd8b1b15
bdee8673
bee80ff4
be1b98fa
3e00ba4e
be2d0535
3f18d75a
3f00c526
bbca8aaf
3eaa7ba9
3d9c223e
3e872471
3e623c6e
3eccba57
3e73495b
be1ba8ba
3e2c9481
be9709b2
ba1b18e0
3da70bc3
3e97a2e6
be1c0cdd
3ed317cb
befc46f3
3ea7d054
3e96e2c4
bdace07b
3e788745
bf0fb056
3d759a1c
3e3c48af
3e771048
bc417078
bef0e2df
bd1312ae
3d3f75e0
bd25bfa8
3d20f735
3df3cb6c
be63886a
3ca5d7b0
3ea66af5
3d30136f
3e141936
bd4c3407
bdece54c
be2bfceb
bd3db0ca
3de63356
bea59cf9
be0161fb
3c1f0024
3dc13627
3e52623c
3c731221
3e5691e4
3e891c1a
3dd6ad59
3e8776fa
bddc7978
be20817c
3d2a0796
3df31bff
beeca161
3e1a69e6
be3d5999
be2373ce
3e4ec93f
bd6bb837
bec4acff
3d49f37e
bdcc09cb
bd8de17b
3d9dec19
3decfcae
3da4f2f4
3bb17087
3d63ff83
bd41e490
bdce7d3f
3e35e5ca
3d85e749
bd1ff944
bd8b83a8
3dca7890
bdcc278d
b9afed52
3c85c198
3d9978ef
be33ff58
bdc831cb
bd1e7493
3dd97e7d
3ddeddf8
3da91e48
bb6e9083
be062176
3dcdfdfb
3e10ea83
be5befc9
bd9aa1da
3d43a220
3e4811e4
3b4ec215
bdfbf326
3b6192f2
3cde3a08
3d14fd06
bde58ca3
be12df50
bdd0619c
3e011f12
3dbb3d88
bd0de52b
bdd84f24
3b7b74a8
3e9a35c3
3e07409a
bde099c1
bded990d
bdc80f4e
3e08ccf3
be269f9c
bc96ee44
bdcab9b3
bdcacea6
be096aec
3e1ead46
3e4db3f5
3d7e3f86
3dd19779
3da6c83f
be2b0bb4
3e2e5394
3e1fda56
be4f11c8
bc955df4
be933be4
becbb6b0
be815d6b
3dce78f8
bedfa37c
3eaa8e02
3db92a88
beafbc44
3d0490c8
beff56b2
be04e445
3cc35a68
3ad357b7
3dc5118e
3e764cef
bd97bdf4
be23c51d
3eccb041
bd9dd62c
3e69c18e
be74e3cf
bdc377a1
bde8885c
3d8916f4
be389e30
3d2f4fff
3e72967e
beb6d746
bda3256d
bddb7ece
3d0b117d
3e041629
3e38d321
3e33fa12
be9d903b
390141ec
bd5aeac8
be01f1fe
3e378cd5
3d4650b5
3df1565e
3cc03ab9
be3f44e6
bddaf6db
3e358ad3
3e2b427e
be7b139d
3dc969e2
beed1501
3e11bb90
3e289702
3d9d94ee
3e32fd51
3d30beb3
3e31a2a4
be395bcb
3e66afe5
3e02f666
3ea112cc
3d969870
3e8af338
bd75142b
3d9967b3
3bcafac1
3eab095e
bd973cc4
3e3ff3ef
bcee606b
bd283d80
3dd9e9ac
3dac4f05
3ea8b4a0
3cdd7d38
3d41b29d
be877ef0
be9dc830
3d0f88bc
3e939070
bcfc6d9b
3e9c9b3f
be0eba0d
bebecae7
be0b8707
3e0217f5
3e9c8cff
be6e7da2
3e663aee
bedd9143
bec37eea
be8fbce9
be916bbe
3e7732ed
be9e4b41
bd6f3dba
be5bb325
bdb9e510
3f2bb171
3cb0e0b1
be91c713
be50b170
398e7234
3d496eea
be3f8881
3eadf74b
bdbb20f6
bc6542fb
be99642b
be15af3c
bb71bdb7
be5de7e7
3e752655
3ea0ca37
3c86f976
bf0ca9ab
3d8d2b88
3df0d14c
3d50bb12
bef17978
be82f706
be271c4b
be3544e6
3e455d24
3e786e72
3e30ded4
3e3fb341
3ec5739b
3e0e513f
bdaf437d
bd9bc297
3ba09fb3
be78c227
3b100585
bda68f9c
3d40bce9
3c28c206
be215a89
3e0e4e1f
3d29ffe3
3c700a6d
3e100c50
3cd6822d
3d2143b7
be9f2a9f
be6d0c7d
bd95ad67
bcaaf5c6
3d690ffb
bc5f9080
3d853ae9
3dad8029
3e92a513
bb929fb5
be0a4864
bd81aeb7
3ce7ecd3
be8c2890
3d2661c2
3d35b1af
bd846fa1
3c18d15c
be54bb91
3d169af5
bcc68b83
3d7dbb94
3da27b3e
be6c0bb0
bd26d2ac
bd06dc94
3d12b77c
be6dd659
3d9dcaad
bdb5f176
bdc88da8
be1068b2
3d133e51
be953737
3d3a3c0e
3e06cfaf
3c97046a
3e672a9d
bdc7f0c8
bd870283
3db92e02
bdbb8acc
3e2b8438
3e8a3f17
bd6d936e
be119a47
3e3dc02c
bdb50499
be906686
be6332bf
3ecf3826
3e2af09a
3dde6baa
3dc7d7f6
bb6c4c85
3b8659de
bea8e39f
3f01e614
3e8e5e31
3ddf975f
be5a2f75
3e57f509
bf03b1e8
bd598b4d
be84150b
bdd84db4
bc9a75f4
bdae147a
3f1a9337
be523a45
bdb2f222
3f052ec2
bea1c879
3e8d4fb5
3d2f6694
3ea5d4dc
be0920fa
3d53f21c
3deab721
3de84ff6
be20a26c
bde32339
be929875
3e869370
bb2e75ce
3e9a6a9f
be201d72
bdd1ec3a
3c900fa8
be52c867
bd17d780
be3496b2
3ed769f7
bd31ecd8
bbcf1e98
3e3cfa12
3d82656b
3eb92a17
3e6ab4b6
3f0c88d8
bdb036ba
3ddd43c1
be0e0f5f
3e583f54
be5763da
be5a753f
be7a1a6c
bd38174f
bca73d2c
be1fff50
bd02e8c9
be2abc39
be003dbd
be16f535
3ea88a33
3e7487b5
3d585bcb
3cd78393
be8e7e15
bd188c78
be7c0ce0
3d8d0845
be0c709e
3e700201
3e3dd28e
be2bb8ef
bd4d348a
bebeb1c2
3e679d0a
3e156593
3dedf6d7
be7543d2
3e90fc3a
bd9e26da
3e506cb2
3e30c601
3e0fe662
be162c56
be3bb818
be54f400
be493626
3efba54f
3da65a54
bd800a57
bee1fb85
be0673cd
be8dcfd1
be2a845b
3e97d65e
3e3b9677
bec5c2a7
bd51606c
be9f40df
3e073ec5
bda70f59
be445118
3e5aa9e4
be95d794
3de6f3c5
3dfff879
3e8903b9
3e468427
3ec6b358
be00583b
bf0ac105
3da18c1e
3dcec308
3d54d23a
3d1f6235
be27c890
bec0979e
be9d95d6
3e466b9b
3c174240
3c35830c
be5b16ec
bb86d8d8
3e9b0a52
bca4672d
bd34f281
bd104faf
bd2829d8
3d2953a6
3e273b95
be9ef346
be3981d7
3e854288
befd3044
3dbaf4af
be837375
3e2b1958
3e65d936
bdc54951
3e8fe681
3e69f36d
3e93e8dd
3dfd7d61
bf154c02
bd64a9a9
bbeb327f
bee763fc
3e6d8d25
bee2baa8
bd66f874
3f1a4c74
bdf3ca5a
3d4affb4
be1a06d1
3be965c3
bdeecf14
be39a859
beb34efb
3e543bed
be5e900a
3e55b647
3ca25d6e
3ebe7827
bebad229
bef43962
3e06792e
3d872382
bed93153
3ed76247
be858ab7
bd27062c
3d982cca
bcfd3329
3ebda531
bedf0d03
be048c32
3e79d00a
3f13fadb
3e00e5cb
3db73252
3ea3eb56
be9d5e36
3d518825
3e0ccdb2
bd4cd0db
bdbee1c3
bdfdee1c
3e649a85
bea7b50e
3ee0d4ab
bc754ee0
bdcc2803
be106433
3e1fd075
3ecb24bc
3f2c8057
be54f334
3eca0e32
3eb8dd44
3cac30bd
3e716ec9
bd97944f
3d45e566
be924e25
bf06d737
be90cc00
be1ddd7d
3ee020c4
3da0e6fa
bead1c6b
3f11faaa
3f0f4716
bdbbd8dd
be811f0b
3dd128f0
3d1f73fa
bd6ff16f
3edc1a39
3eb45d7b
bd962d52
3dcc558f
3d8281f7
3d9bcdb5
3e94cb21
be2c5a5e
bec80fda
be5fe400
be383210
3eb8b514
3e620a32
befeee02
3c4414d5
be7763f1
3ec7dddf
be6cebb4
bceb653e
be7def2f
be88acdd
3ea92e13
3d4ca44b
bf0fcba0
bea94f01
3e095ff4
3e22ebb7
be274ec9
3de831a4
beec56a1
3da5e899
3e2af15c
3e9e5538
3e885682
3e28443f
3e598507
bddf203a
39c5551a
be8ac02d
bb5c316f
be51ffb4
bca7280c
3e2c909b
bdf7b795
3dc97374
bf25efde
3e938dfa
bdf7e34c
babe9266
3e82e936
3d2f8287
bdd4d2b3
bd410d9c
3c3865c6
bd61799a
bbe83eb5
3e2faeac
bd7a95c3
bec40ab4
3e429d31
3de1445a
be481d80
3e744cf0
3c57bac0
3e725a6c
be2fe77e
be267115
3ee4f44a
bb931ca0
3df7113e
be909b27
3e2d1ef0
3e266eaf
3e9b0ced
3eaa3567
bda4b940
3dce62a6
3e3d70e7
3e011af5
bdab8140
bc941ac2
3e522db7
3d37a98f
3e15cf81
bd7446a4
3e28f8c8
bc612bce
3d94d6fd
be928e06
3aed34d9
3bc3d63d
3e5c122d
389a9118
be1911e5
bda97cce
beb516b8
bd1d2eca
beac22ae
bc84d68a
3e16c3d5
3d400c0d
3e4111e9
bc2e8396
be98e4bd
be0d1197
3dc58254
3e1c39fc
be0841f2
bcbeb486
bde7b54a
bed1efda
3e4216cb
beafd97f
3e87acf0
bdbd90eb
bedcae24
bd04fdad
be631eb2
3e5c344c
3e3ad5c0
3d7abec8
3e4fbb45
be13ff24
3e5ccf1e
3e44e748
bd2d742c
3e6c80d8
bde2eb84
3e18ebb9
bdcb04c4
3bd40d97
3e0b3bba
3de13375
3e1098aa
3e1ade18
3d860d44
be0453bd
bf0b7b28
3ee97faa
bd357565
3a5743bc
bdb812b3
3d1e2dc2
3d2b92a2
bd2a983d
3e5fd309
3e8b9030
bd78e683
bed5bc4a
bdeb4e08
bd2cabbe
be1520d3
beab526a
3e5f1c84
bd7b6f8d
bdbda2eb
bd7fd9f8
bf0f253d
3d995504
bdd9e335
bc88489c
3eb543d8
3de78cfc
3def20cd
bdcca173
be6c2393
3e66c41e
bdd3e260
3eadd94f
3d31aae4
3d968522
3e457862
be189520
be46970c
3e52f7fb
3e86fb19
3c2acf7e
be036b71
bdc8266b
3dde4ef6
bcbc516e
be724c8f
3d4939cf
be1d813f
3dc4e8df
3e55510a
3e6cbac3
be91d8a0
bcd97f09
3edc0269
bf136ad5
3d9e71fc
3c43a987
3e686938
be45a931
3ccc9d6d
3e0cc5f2
3dfa821e
bbe82990
bdb63455
bd803d52
3e5b38d2
be57f955
be09af30
be2ca360
be836d73
3d98e6c2
3c4bca65
3d8754d0
be6fb5b4
bd505dce
be8d97b3
3e87b10e
3e5e2d40
3b7cc19e
3e75e11f
3de73788
3d5c461b
be382257
bdab9f74
be0c12be
3e6dde2b
3e9daaa5
3b1de225
3e47335e
3e74fb54
bd8cf4cb
bdcbe68a
be045791
bdb0a3de
bc0165c4
3c0d6e1a
bf14736a
3d9aa8b1
be8fbba9
3d7e45ec
3eab04bc
bdcf3e00
be349940
bde4e483
bf2f717b
3f1b7073
bc1db570
bea3a271
3e7632a7
3e6c1d53
3dce5fb3
3ee29220
3df54774
be66d5be
bec5ac8e
3e56814c
bcaa73da
be8781da
3e1ea06f
3dd6d376
3dcd00c4
be117b9c
be0287e8
be1aa2c0
bed35572
bec6cc18
bcbf2eac
3e3aa7df
3ed4938b
3e11659e
3eeac4bd
3b9f038c
3e8d9c6a
3ed7131b
be516919
3e323541
be3f418d
bdb7ae16
be269e3f
bdfd7410
bdfd001c
3d13fae7
be9656dd
3e067cc2
be491e87
3edc354c
3e8a9035
3e5b83d9
3e313b6f
3d0f059d
be935d51
be18a561
bf17af39
3e0631aa
bd3d7740
bd94a505
3c382bd0
bd9878b3
3e01c049
3cc79cdf
bca7d3f0
be105b4d
bd64988c
bdf5eedf
3e07c432
bbf0f9b6
3e1bc0bd
3e03d5af
3e1aff57
3e4989b6
bd3068b7
3d9364ad
be02cf22
bde7b285
bdf66c87
3c511caa
be0c7d57
3e06c827
be085dc3
3d90d9f3
3e0044a5
3da3ad6f
3d447a07
3dccb518
bc36a89f
be078fb7
3d14ea1b
3d26e18f
be10b396
3c69e42f
be17820d
3e28cf0a
3d50fdd0
3d4ba99e
bd3e72cf
bdd1d875
bdae959e
3dd5cfad
bc839df3
be296848
bdcfa2cb
3e33a3af
bcade372
3d776b47
be1b9556
3e264898
3d102d8a
bd95fff8
bc676984
bdfdf38d
bdf4b414
3d7b918e
bc654492
be070e99
bd8eb6b4
3d4ff60c
3de5d9a3
be245f77
be1b225d
be47d674
3dec8cf7
bee67b9c
bd9a9669
bdc1eefe
be88f55a
bde66916
bdaa4911
3e54c1db
3df37d4a
be15c10e
3dc5eac0
bc93392d
be2581aa
3e8f93ab
be8db2f0
3c052b4b
3e9523f8
3d2b74e2
bec782db
bca1aefb
3ef390fd
bd4a1c91
3e889ba5
be93eedc
be991a8a
3e9efa77
3d94e157
3e689013
be2de761
bcf932cc
3d080e72
be91777b
be956d52
3cb1fe7a
3e28142f
3db2d2ae
3e0ad6e9
be7b8614
3d59c6c8
be301c55
bd80dc3f
3ee8e418
bda839a6
bdb73c2e
3e750ee1
3e1c0637
bea1edbe
3ead32a2
bddcfee5
be8de080
bd952cd8
bd4dba3b
bbe8d107
be2ff5cd
bd6e74f5
3d08c1bf
3d823c8e
be5ffaa9
bdfbd95c
be0e080c
3d07f5be
3e7a3c45
3e87d773
39a850cb
3b45d1d6
3e2ed3a2
be055594
3d8088d4
bdb22b54
3e90b409
bd602107
bea1c313
3e70c45b
bcc27063
3e549adb
3e9b0cc7
3c9a4887
be529cee
3e8ec3b8
be2f733f
3e4d30a4
bd76a5dc
be303252
bd0c8cf7
3eb8d4c6
bdb69297
3e4ef21e
bdb03412
becd4dd7
be7db3d6
3eb0ca20
3ebe0366
3f1bb6be
3c8f1ba7
3e38e3bd
bc6644bf
be949bd1
3ea44a3a
be611a43
3d42fbba
bd07ce1a
be0d57a8
bd716f03
3e7063fc
beca1370
3e2f9e5d
3dc15588
3e3d06be
3e2b946a
3e9aa6a7
bdce2811
3d55873b
3c6faf11
bdcbc704
3da65171
be9b666e
3e50b800
be988a81
3e208656
bca86568
3d2b5c6f
be5eb3e1
bdd97357
3ec889be
3efe6997
bea24cb3
3d260ce3
3d5ffe54
be4fe86c
3e1b158b
bccc3c40
3d7f6605
bde53e4d
3ca0f77a
3e14f470
bd9a7fba
bd4647cd
be8369b4
3d7c674f
bdfe4898
bdd75ade
be19bcfa
3d5c264e
3e79a4fc
be64b791
bedd7f74
3e53f69d
3e0e6329
3c95f9f8
be18bbc7
be6886ab
3e974c4b
bd6ac34f
be678448
3e80f8a7
bdf2c149
3e30ce1d
be0297bc
be2e893d
3e300f95
3e53c858
3d61ebb9
bdea77e7
3e24f6ad
b9a46510
bb8521ec
3e56c47f
bd20027a
be194b8e
bd5c5fe9
be0b0ef8
3e360c22
be8e9198
3dc5ac78
bdafed58
3dc22a30
be57519f
3e25f214
bc589a53
3cf5585e
be3d05fe
3dbf9ecb
be06d1af
bce44d61
3e91edf4
3bc49c49
bd18d065
bb0257e2
be40d52f
be7be99f
bd477425
bf17be85
3edbbb3c
be479997
be4b538d
3e9fe09c
bdc97c93
3e116d5f
3e35d938
3eb30130
bdd72eaa
3ea0fb01
be8ca71e
3e384c25
be6b824a
3ee491b1
3d1b2ba5
be16d1f3
be250ffc
3dcb194e
3ed5ce30
3e24205f
bd61dd09
3e4a7602
3e7312dd
3e8edf7b
beabb307
be61cc62
bc14aad4
3e1f024a
3e08f0eb
3d9cb388
3cbaf8ee
bd5b36ea
bebcf201
3dcfa5cf
3efd1d3c
bdefca2c
bc8a77c4
bede8181
3e95077f
3ef3d16c
bd91d2b6
3bd7e548
be4eea0f
3de110ec
3ec37b6b
bbf8ec78
3ec3e66b
3cb160ca
bec1d5c6
bdc78000
bdbc1a82
be852fcc
bea1336e
3ecc040b
3d2a456f
be7cf00b
be858f08
beac9668
3d2a2bf8
be02071e
3e8aa464
3ed17bc3
3e97805b
be88fc04
be8b5c5c
bda0f9d0
be907bf7
bdfe06ec
3ea61cdf
3eb43ccd
bee20226
3ea6e4e0
bee19c0d
bc78f41a
be02490a
be0abaae
3d888943
3eca818b
be88838f
bed09e20
bd9af52e
bdcf719e
3e4a332d
becafbea
be1fd32b
bd8c0a63
bdb3da9d
3e9f1fba
bda9ce2e
3ea05fd5
bf0bf72e
3de02c10
beab3efd
3e86641e
3e22f3e9
bca404c9
be9b5c2b
bec8798d
3eb664fb
bc110796
3dec9b8f
be590ba9
3e781263
3e4c0bff
3ed8222d
3e23f653
bd8bd653
3e872eda
bdbc31bc
bed0e54e
3e3bd298
bf201989
bdbc3035
3d5ec492
bd1a0dc0
3e37f49f
beb38ff1
3e312990
bcdde3dc
bd48d655
be15e6f5
bd2ea083
3ef6853d
3ddc8734
3e8916fe
3eb53de2
bdeba2d3
3eae65ca
bbb567d9
bd429e3f
3da11fe9
bd10c39b
bf16c6c0
3db9c821
3d89ffb5
3e4800df
bc372186
be454804
bd59d825
3b326479
bf0b9ecb
3e87eb83
bd908b4e
bdde5823
bce691af
be11560d
3e6c1f89
3e96aa38
3e3b7940
bcba9594
bf2f5868
3ec6627a
3dc79acb
bea6fda5
3ea68835
be556f20
3ee1e5fc
be95abdb
bca2db2b
3e5cfe0d
3d845767
3e58a7bc
bed20d33
bdc5a920
3ea8f128
be81fc6c
3f07080a
bd01390e
3a74bb50
3dfd2c73
3e5ad152
3debae3a
bde14198
3ea9df25
bceef41c
3da59077
bf30d29c
3e3579b3
3e4fd20a
3cd8010c
bd048990
3d89c808
bcedccc8
bdf0af19
3d97c360
bf1b049f
bd44ab1e
be48a13f
bd455d46
bdaf3d4d
bd96c33a
3e3bfc8c
3bb3317e
bdb5cab3
3e209527
bdd6274e
3e8d8280
3eef13ae
3e20ad85
3e716c64
bc8df622
beca06cf
be2661f7
bf01fa58
3eb65b28
3e99a4fa
bd50a715
be487310
be3874b6
3dd9dfb2
be24a7fa
3e840a2e
3ea72865
bd72a68c
bf098d54
bd7100bd
beb6acaa
bdf627af
3d9d77a6
be08efc2
be8bdbbf
bef26f75
3e9ac409
3eb52dcc
3e6370ad
bd54dc97
3ea577a1
bf00a2df
3e8b70b3
bdce58cc
3ea42725
be22f16a
be0d5fa8
3ea6e480
bd5340d6
3f0e8411
bd206cc5
be2713e3
3e8dac83
3db51155
be2aeff6
be805b63
3dcca791
3e678225
bf004255
be03218f
bda0c9b3
3dbc97be
be0943a7
3dd174be
3d8788a1
3d706dc0
ba1e91f3
3e91792a
bdb82a89
bda54484
3e3b3407
be40ff2e
bd2be3ce
be2c1b3e
bda7219e
3cfbc8f4
beab1991
bd231875
3d38357e
3e1f90af
be005ac1
3e3f5703
bf0203e5
3d7eec88
be4bf9c5
be08a723
3da43d1a
3e82d1b1
3d98e3fb
3e6506bd
be6a65e7
3d47be4b
bd871154
bdec93cf
3e75f724
bdffa09b
3e64a03e
3e06ae78
3d6a98cd
3d7db993
be2d2d79
be01b5b4
bdd7cc86
3d05634c
be8ec726
bcf51fe5
be17cd6e
3d38cfa4
bd842209
3e8231dc
3e4f98ad
bd6daa22
be398ab5
bdd00cf1
3c859e6f
3db38850
bdc1b875
3e483775
bd1b7fb4
bb8e96aa
be1fc58a
bd125b5a
3e238ff2
3eaa18a9
bc5959b4
be2ecd3e
3ddaa64f
bd32bb21
be0958ab
be3261c5
bee757a1
be14c02c
3e3cc60b
3e3f2d0a
3d534b6a
3e71d91f
3baf4ec3
bcc36682
3d312506
bd9f0d72
3ed0680a
be792145
bc05de00
be63bd38
3e84da76
3dc21efd
3eda8438
bef8474d
3e8e524f
3ed38f71
bebb6f4b
bf162b90
bd5f5a41
bd914a57
bca78198
3f024196
3e93f8f2
3d6bd8db
3dcf43c7
bea294fe
3cc03438
be114d1a
3e2eeebd
3e1dc337
be99dabc
3ec1a8f2
3ed2ff03
3e74edfe
be118e3e
3e986522
be87b401
3ed1a129
bd9f0822
be0ea8fa
3e27f37a
bec04974
3e736914
bd9f8664
bce4e941
be20bd47
bda1dcdc
3e8d5884
3e7f242a
3c635894
be24cf0f
3d4b38aa
bddafe6b
be9f06f2
be44e795
3e6d8b94
3e5cfded
bde9e7be
bd0b4303
3dc70ce5
3e2ca46f
be3091f5
be29cf3c
bcd9f550
bc611d16
be855a74
be187078
bddf7536
3e202c89
3d5cc70d
bdf34388
3e8a5155
bed42189
3dd87196
bdf63d02
3e6e27c0
3e0f8f31
bdf71b28
be24f670
be02fe2b
3dc533f4
3e6ee558
bdbd9e23
bc8aafe7
3e8197ef
bd528a6d
3e8d1775
be227fac
bd92b6c7
3eb3f5cf
bef4d83c
3d551aea
be2b8ddc
3dd6efbc
bc2cc527
bea4371a
3d064c88
3d166255
3e4e6b66
be4203a1
bd138d8f
3e0fd4ec
be3f3c99
bdfd66f5
bd3978ee
bd19e68b
bcab988e
3d308932
bbc20e97
beb0916c
3e7051d4
3c88e44a
3ea38b46
bdfe11e8
be4d29b5
3df7950d
3da25c08
3db0e118
3d900135
3c4b8b33
bbdffa36
bdd5d775
3d67f000
3d5f53bb
3e8e67d3
3d8a4358
3b0fd994
be983126
3d67bca2
3e220591
bcf2b423
be45d739
bd5266df
bdd35cd7
3db0e7ba
bb882860
be471f00
3e73a998
bd8939aa
3e95d9c7
beaa3acb
bd881c64
be3bc8bb
bd955b3d
3e152694
3b13f846
3df15855
3e0d3734
3d24bbf7
3d8218c7
3e5c1c56
3d475ac7
3dd29003
3dfb89e7
bdf9393e
3e6892f8
be7a0c1f
3dbd0447
3e5c12d0
bf23f082
be2b17da
bd8c70e1
3c544e8d
bdfe771d
3e5d5aac
3e13e02f
bdd4a0e2
3db73e4e
bd02f78b
3e475449
3cbc9810
be6b0edd
3e7cbc14
be3bc46d
bdb96c82
be1ece0b
3e08588d
3e39faec
3d2bf25a
be0b9736
3e370b99
3ebbccbf
bf003423
3dcf6bf3
3c9d6726
be6a3759
bd90df5b
3e946901
3d914fc5
3d15fb3a
be16976b
3e2482af
be5bc88d
3b5c6d20
be11698d
bd10d566
bdff0673
3be55a13
3df5130c
3e714638
be2f634a
3d6ea0f4
3e148050
be180264
bc2a1ef8
3bb7d165
be16132d
3d354223
3ce7bf70
3e0c7dac
be1ee7fe
3d8b89ca
3c7d0a4e
3e5474bc
3dee1954
bc11834f
3dd44810
bc599ea5
3d19b593
bd93e82e
bda05a6d
3bca8d85
be615bcf
bcdbdfb5
3e0b006d
3cb203f8
3e08bccc
bca88582
bd5bae61
be9ff9ea
3e1d6ee0
be02f21a
be29e7e9
3c5873df
be966a3c
bdaee7bb
bddbb1a5
be14a467
bda01ace
be273451
be029d98
bdfac5e5
be55a08c
3e01d79f
bd5d3830
3e5241be
bdac5f9f
3d8141fb
3dc6b049
bdcc1bb9
be318606
bd986f78
be846499
3e1d8d35
bdb4a6ee
3e6462c3
be3cccae
be7168c4
be390ad1
bce7a0d1
3cf675b7
3d8fe4ba
3f1c6ad4
3e7de896
3dd6cce7
be939595
3e347bc5
bf0fb91c
3e29a9de
bf24f282
3ce5b4fd
be7652ea
bf1139d9
3f47b3e9
be9fd7ed
3dfb80cd
3e5b0791
bc4e3170
3eb81456
3dff1260
bef2b376
bf2096fa
3e747001
be21cce9
3ef790bd
3dd511f9
3e8bff0e
bec59b58
3eb0ee9d
becd2afa
3dd24fdd
3ec72946
be9417ca
beb32f48
3ee51c02
3d509610
3cb3c98f
3eceff69
3f46b844
be825ac5
3f0b44d5
bf13f082
3eab4d97
3e6740f8
3edfc8fc
3e94f71b
3e3b342b
bf0dd41d
3c198a02
3e97fecd
be0dc239
be5d84b2
3ddda42c
be87608f
bf34b4ea
be8a297e
3dd7c601
bf0d9427
bf191278
be0a34f9
3d3cb13e
bda788bd
3e1ff714
3e3b5f94
3e0d8024
3cf81b1b
3d9f9a81
3dbebeb2
3dda9663
3dfe6d92
3e8a40d8
3d85dad3
bcb4b911
3e11b930
3d2440d1
bbe0446d
3dd1feda
beb7c9bd
bd2aeac9
bdc47f24
bbb6f244
3e204bfb
bdd307fd
be376def
bccbaccb
bd89fa63
3e5236ef
bd3d2a85
3e8673c6
3e0e9907
be1aaf03
bd802d74
be6216e7
3c11e656
be84ea89
be71c558
bdc090a5
3db14ab9
bd00111f
bd0f9320
3e1596a1
be0aa349
be3bec3c
be95d43a
bdbca326
bded7316
be6f8014
bdd10379
be0e86bd
3e618d60
bd8d7298
bd848f72
3e24cfcf
3daf7adf
3e963a38
3d151fc6
3e8539c2
3e31b302
3d541cb3
be0b1e17
3e152560
be294fe5
3d73f616
be72d093
be4cb8c3
3cf18f86
3dec247e
3e1e4d06
bd956428
bd7620b6
bdcb2d67
3c7edc5d
3e139cdb
bd96632a
3e31c5ed
3db6c4db
be4a3682
bc4bd6ff
be0d37a5
3d6e3bfd
3ea87f8c
bee645ee
3cde9bf0
3c0d666e
bd05cf92
3e1eba7b
bd2b36b5
3e8a130f
3eb88eaa
bdba9e27
3d1c0722
bde8f84a
3dafdd17
3e2782fd
bd2745f9
3e325a8a
3e20efd1
be652d96
bede0273
be3271a9
3e01222e
3ecd3d54
3e329335
3de149d4
3db7b766
3c9a9836
3ea0c0fe
be36dedb
bd174f60
3cbf668f
bd654137
3d6cfecd
3cc3cd29
3ebe2ee8
be2700bf
3e59b587
be07c8b6
bd2899a7
bd46df10
3e9d1403
3ebf435d
3e17ad07
bd84a9b0
3d1afdf3
3d8eed41
3c972f98
be353154
be1b0f0e
bddd7056
be0dc3e6
3e18d0ff
bda79586
3de94c05
3dfcdd22
3eb32bd9
be2d703f
3c8d5ae9
bdf1d420
bd91764c
bda3be94
3e5471c0
bd3027e3
3dbf5f60
bd80e205
3bf5e7eb
be1bf07b
3dd8250b
be90c7da
3e6a39f4
3de460a8
bc115997
3d3cff3d
3cbf9b66
3e26f8b2
bde52d42
bde5c636
3e92d2af
3da0fcf0
3eae0ebe
bd48cf47
3ea35aaf
3e3c2856
3c6d4437
3c4aa62d
be835a46
be2acfed
3d96b3eb
3e22e5a8
3d9dede1
be4600c0
3ecb68eb
3e310453
3cef1b3d
3bf1298f
bebf020b
bba4727a
bd72efc9
be517e3b
3c5e81e0
bdd8bc18
be3f8a2e
bd91994e
3d5675d4
be1cbe8c
3de1defa
bd8a4633
be391917
bda96e02
3e8ff020
3da944c7
3de677ac
be8d851f
3e718d0c
beb1afb6
3c7baeaa
3d5a3acc
be2bde12
3e14975a
be661a61
be419b30
3e7c70df
be718ed1
bdf9eb4e
bd70488d
bef6ce92
3e321925
bdd10d87
be8c0526
3e1965ac
bee9b286
3d010a9c
3e822069
3dce0c1f
3d9f4afe
be2c38a5
3dd63751
bee0ff61
be0cdeca
3e35d769
3e1b0056
3ec04043
3ca8ecca
3e18abbd
3df2c993
3badb3ef
3e4e006c
be39768e
3e484992
3e4ede62
bef90745
3e9b084e
3eb40be0
3d7ca16f
3e25bb43
bd98ae6f
bc1e0997
3ee7c94c
3e75b137
be817ae4
3e246f03
bf221cf3
be30370a
3c20055c
be9a5ec9
bbc2f468
be5ee5de
3d9e060c
bc853445
3e594e52
becc2f0a
be0f3289
be160af3
bd5020af
be0b6fca
3e88c0f7
bed0763c
3e389ee4
3e064f6b
be2a84a6
bc83abba
be8616ee
3ddaa5cc
bd241459
bcde7d12
3e10d92e
be836911
3d2957fe
bdd8da2b
bede1a4f
3e4ac603
3e289b5b
befffb4a
3e5111ae
3d97bd6a
3e539a95
3e94fddb
3db4e5a3
be809f0f
beace427
bce9e704
be303790
bd6f2af7
3dc7787e
3da17351
3ee648a1
3cb4b7fc
3ee13d88
be80d5fd
beb890cd
3dfbe35e
bd08dd94
be0cec65
3df0006c
be0eb070
3e3b987b
be435f51
3e217e31
3e7f7cdf
3e4c454d
3d5e3e29
3c8643df
3e41fc3c
bdd453e1
3b8bbaf5
3d71c726
3c70f283
bd9be40e
be7ad2c1
be5b0d35
3e4709a7
bd93b247
bd508b37
3e4eadd0
beebc76b
be126356
3e5e9974
3dcc8019
be33fa26
bc8dcd62
bcb544d0
3db7d70c
bdb25810
be093a6a
3d6475ac
bd8d5574
3ddbf9ae
bca827c6
3dfa5b7c
bd0455ec
bda02dc3
bdd79637
be348ae3
3d1703a0
3e145e1c
3b85ccab
3dbcf46d
bda56927
3dc70ad8
3dfff8e5
3d25430f
3e0cdeb7
bdf89d34
3e163d28
be205cf6
bdb77b27
3de95d36
3db6cce4
3e2d1760
3e27977d
3d17643e
3e41cfd0
3d3e3fd3
3d9ee912
3d2cda3b
be05de43
3d8c717c
bda1bb5f
3e414d2d
be0ef6eb
be34266b
be35430d
bd84e0f8
bdfa6480
bdc07e8e
be4629a0
bdb355df
bdd8d0da
bdb9b874
bda94941
bca353a4
bc262fbf
bdf04260
bdbccab6
bde57e6a
3dfdcc00
be0474bf
ba57d334
3df15069
bdb8a686
bcbc1b78
bd5bc84b
3d7bfa21
be0ffe6d
be427aae
3e1dd951
bde38023
bd7313d7
3da7524d
bd6908a9
bdb011ce
3c17049c
3c669aab
3dfac288
3e2b3a03
3cc28693
3de93cfd
bf068afb
3e542cbc
be39c9fd
3e2ce7fa
3e48b7d3
bd469b46
3da5501f
3d86598b
be03bae5
3d1d7035
bda3c392
3e638b3c
3e724534
3dafb135
3cb0cd3b
3e2601a8
3d3dac7b
3e0ab58d
be82d1db
beafb027
be9a8e6e
bde82478
3e0898d1
be38479a
3e1bc9a8
3db4abf3
3e0df939
bc830786
bd0cbac3
3d7e9791
be144772
be697ca9
3c3ffe8f
3c8de913
be4e54b9
3d01a46d
be05c63f
be001239
3e08c27f
bc86c1a1
bca5c7d8
3e3821a9
bdf1a845
3df9cb47
3c3c5433
3e426858
3df0795a
be826df7
bde8e12c
3986e517
3e92ac40
be3d6045
bc7f5578
be1dd888
3dd1bb18
bdf4322f
bc9b4fdb
3e0255a5
be355af7
3ea3198b
bec26a57
be58ffdd
3c4539d2
bdc955d3
be8023e3
3e963da5
bd0c75f7
be94c701
3e86c8a9
be8dcc22
be5de7b5
be3cab3b
3dc8c387
bd861f68
3e497247
be726d10
be790177
bd12ecfd
bd96c1e2
3e478d34
bdcb9440
3e8e34c4
3eb341e0
be3bb39d
bd5ee7ed
bee26092
3de8388e
be9264fe
3e4ba1b4
bd23a452
3dc87268
3e707860
3cd3d1ef
3dfb22c5
bd688340
3e5c6f01
3e9b3058
beb0e6b9
bd19eda4
be1c11e7
be39fd7d
3e24f4f2
be23ce21
bd36b6cd
3c83ee3f
3e4c0977
bd22abed
bc5b36a7
3e20fdbe
bee0fdd0
3de5da44
3e10f0c4
3e1f349a
3d339283
3ea76376
3e14072f
be610811
be960ebc
3dd053f4
bda1bb57
3e36faed
3e7b9dca
3e03efe0
3eb7b565
be8fd6c8
bc686cb3
3bf23074
be055d4c
3e316012
3db57718
bcd4fa23
bd9705c3
bdbba877
bda1a017
be0a9243
bdc55440
3e65c145
3e149301
3da8db92
bedcd029
3d1184ad
3da55ca9
bea59d99
bdbf7c94
be3c01d0
bddd402d
bd2cb9cd
be283f98
3df19de6
be83957d
3d828d56
bea5d5f3
3e5e8a13
3d80de2d
3df244cb
be8de97d
be4c0412
bc901d11
3bc1635c
bde6ce34
be3d6b45
be840753
bc3b4ff3
bd26e0c6
3e23c4cb
3e0de797
3e2342d2
3e666e51
be224513
be12403e
be52e641
3e8121a6
3e3acc82
3e0ed51c
3dfd78d2
bde43163
bdf1889a
3e1896be
be523595
3e5c1bcc
be1b1e9b
bc860f2c
3d2d21ab
3e8f40a3
3d90d5a4
3e5f8625
bd9bb4c1
3e7c202f
bc52cb55
be152c10
3e514010
3e2f4733
bd752745
bd66b219
3e8b0381
3cc85871
bdcfc6de
be1fd9ed
3e22d82a
3c56c6ee
bde5da56
3db9ef25
be5915b2
3e074b8f
3e72fb3c
3dbcb1e0
bdfbfed6
3bad1156
be4bb566
3d32abf6
be53bc26
3e380be7
bd8b41a9
bd9da35e
bdb45d62
be0c2fc3
3d7d7f35
3dea7cfb
3e0e16a6
3e53dc1c
be13b415
be622f29
be394ff7
3e8f78a0
3dc0c514
be0be696
3e15eeff
be81a517
be6e45f6
b931281c
3d1ef25c
3e328d10
3e132888
bd27ccfa
3da37200
3d90a13b
be2e2061
3e12a0e3
3e19df80
3dd48894
3dde8819
bdfe7c98
3e59dfe5
bf11aba5
3ec20447
3e177b24
bdd7add1
be51a19f
bd8b5f0d
3e70b721
3ea352ed
bea68a95
3e6f66d1
3e002e92
bd030a5d
3e99c755
bce02a33
3e22752a
3ca2a4f2
be71b40f
3d48d717
beb014c0
3db63583
bbe94042
bc7da3d2
3f059492
3ea05c9a
3c08f679
be8c6e13
bd42cb6f
3d72e228
3dc5a8ad
3e5d313e
3f071221
3e69c902
bed3034b
3e1c8e59
be30b1ea
bd2e47a1
be7035e5
3dc4c67e
be0e25b3
bcda8d13
3f20ae57
be6dffc8
befc37fc
3e3bd28e
bed5b5bd
3f2dc631
3db89e5a
beba29f4
3e07e288
be1c898e
3e909e8d
be84485d
be9515b1
be455ee5
3d2e49b0
bd4558da
bec3ede1
3e29848f
bf1e4b39
bda73b7a
3e89c6cc
3f0e0a74
be17c917
3e3f2d5f
3e53b523
3c9a9563
bf2e6dff
3c74f971
3d6e1bd4
3a310969
be8c8b60
bd7cf85f
3e7a84ff
3de8d99e
bc11ff1a
be20f4e6
bec86b20
3d92806c
be8d195e
be0380a7
3e7b9f62
bcdafe20
bf17bac0
3d7c0e3c
bd1ff656
bca3ea16
3e8412e6
be0dc653
3d517552
3e094327
3d688a27
be808a3c
bcb4bdef
be5c773a
be1e844d
3e220493
3d713c71
3dd41d46
be919884
3e56253d
be66a893
3e53011f
3e95193f
3d63c59c
bdc8dd87
3d9587a4
3e28765d
3e0aff13
be172c31
be9a2c40
be9ba44e
3dbcfa93
bd8d44a2
3dda26ca
3e69f680
3c962089
3e9f6e9e
bd856178
bdb97033
3e34f522
3df9993e
3e5720b1
be8ef0cb
3e217854
3e004558
beb2597a
3e1fca63
bd7f89ab
be20e745
3c678255
3e56e1fb
be2b5350
be0cded3
bdbcc688
3dc91608
3d528925
3c2b3eea
bc315b47
bd5fd69b
be5bc40b
3e77dd0f
bde96860
3e198d64
3e53b781
be0896fd
3e462f9f
be564847
3cf2cd0a
3e458208
be99ccb4
3e10bda7
3e89e493
3e45ee74
3e031f2e
3e1f0dd5
bd9ba0fe
3e0a5472
bd4e10da
3e2b9b85
3da85723
be8be33a
bca58c50
be2e301f
bcfcfbbf
be562a37
be60ee6b
bbc17886
3d508891
3e6af650
bed41a1e
bec5e05e
3e6a5a0a
bc53d5eb
3e976a4f
bd199b28
3e37172a
be84863b
3ca9994f
3e2370e7
bca9fb79
be494991
bd26845e
3d86df86
bdc92d0d
3d0bdda5
bd8c4712
bed88429
bcaeb84a
3ea7d52a
3db090cc
bc6aa36f
be77e601
be16d785
bc9b5e8e
bcc8f210
bd860b13
be8071fb
3e983020
be2e5d47
bd1b3ce3
3d454d68
3d283ed4
be111d34
bd9640c7
3bbce7cc
3d7ded17
bc0b4a87
be2a15cd
3ea2c3da
bde5cfd9
be832857
3cab94ee
3c7423ce
3e027426
3e2b9dd7
3df8263b
3de16bad
3da293b3
3e9355d9
bd62cbf5
3e56317d
3e08c0f2
3e58dc31
be56062a
be5d1669
be7a8894
3d950835
3e5bb758
be0f718f
3e51b8df
3d4d452c
bd6b5275
3df2b148
3de32a3e
bdcd9495
bdcca541
3d0e8f2e
3dc69ade
3d488d6a
be47bc7f
bdbf67f3
3e334736
3e179ece
3e0f305b
3d9b5365
3e2a0de5
3da90ab1
3d9ecc26
3b9c02a9
3e32e81c
bd81aeaf
3e111e0f
bea2a25b
be433043
3dc415e6
bcec1047
bee86a07
3db64761
bcd18586
3da0c7db
3e9cb78c
be060315
bdf8ed11
be50ae50
be643ead
3e422b1f
3d1c61d1
3e496944
bea482c9
be2f250a
3e94f82a
3cf00080
be757f20
3e867e5f
be0e247f
bdb5a0dd
bca4ba55
3e0554ea
bc85b8b8
bd4dba7e
be824f69
bd308365
be0078c6
3e7172bc
3e56d634
3ec5068e
3e3f3e46
3db82742
bedc9a58
bd3e6ba4
3b487747
3dda3bdf
3ea7b6e3
3ed64835
be600152
bebdacea
3e1149ff
bdab6df2
3e6e5fb8
bea064c0
3db42ac2
3e35e1f0
3e2738ed
bd67e2a5
3e0f067d
be09e5a9
bc9dc3a6
bd81171a
be032118
3e8ea21e
bc87a81b
bdbd4824
3d25ac5b
3e0fb11b
bf0747e2
be7c9905
bd5beef3
3c92a286
3de5a6df
3e971218
3e677757
3f0cf90e
be042d1e
3e236c1b
3db012d5
bd9a0393
bcc3b707
3e38a22b
3e3a9014
3e235771
3deb1b93
3c85b479
bcab88d1
3d76ffb7
3e1fefe1
3de881bc
bde73d8e
bea8f0ce
3c163c68
3e5746a6
3da83b5c
3e385092
3d10cc9b
bd8d0ee4
beb1b20b
be92a558
be2b78a8
3e525add
3e8f9d5e
be3492c5
be1c051b
be103011
3e195bfb
bd86edc3
3d3921d7
3ebf3867
be0ef2dd
bcd9067f
be9582ae
3e2d8a4c
3e018deb
be781c07
3e94cf1c
3e1d4d76
bdc3a31f
3e20c10f
3d4089d4
bdb82a0e
3e08ee29
bcd2f693
be8a80ca
bd3a3868
bddd5e31
bdf4225d
be8b0ea1
3e0c9cf3
beafbb28
be987138
bd84e4ae
3d741489
be144161
bdaa1a9a
3e8182a6
3e80fc1f
bea6eef5
bd05a72c
3ddf3182
bda9dc2a
be11ec7e
bc75bc06
3ee928da
3dbfeec9
3e1b982b
3e682311
3e1bedc0
be46382e
3ea65e70
becbb8c7
3e1d92d0
bddcbcca
beb6ed43
3d82a3ea
bd9a4756
3eff59a3
bd7b17fb
be8e224d
3d924f2d
3dcd40ca
3e55e517
3db7851f
3d8fec51
3e1162fa
bd9e4feb
3e4580b1
3ec4e7b9
3dde6322
3e4347fa
bc4b3bed
be358f46
be30c343
bdaf8a30
3d231786
bdbb434b
3dbbaed0
3d4b6963
3e8e755d
be950f0c
3e013b1f
3d958d5d
3e5a65f4
3dac515a
3e01ec9a
bebf7c6c
3d9daca0
3e1b35af
be0ee575
bd6be3c6
be1d6ef4
3e9e4105
beab9dce
3d9aab94
be5cc577
3e03828f
3e780b03
3e7ebfda
3ecbdd28
3eae3536
be397ce1
be91220f
bdf4564e
3f0d97ff
bb756e0c
3da46c62
3e2dfe0d
3e3141ce
bd0a549f
bf269c78
be39332d
bd2c6244
3d5cd2c3
3e505fa2
3da5a0a1
bbe373fa
3ea765f3
be8a74f0
3f110a3a
be616f1c
3e4640b0
be7eaaf5
3e54dea7
bde56d5a
3eb2b46a
beed8dc7
be928178
3e22d6fc
3eb59787
be518a2f
3f309fd9
bd2a010b
3e7c53e4
bc2fb2e5
3d61b8fc
ba867d21
bd1007fe
3e4570ab
be97d2bc
be632f09
bece8f9a
3e5ea017
be5c4c1d
bebddfa5
3ef025e7
3e8bbb65
3ea8f511
3e874641
3f12065d
be477ce2
3f0453e9
3c88fef4
3d32809a
be316103
3e1631f3
bdafe0a7
3db8e60a
3ec8be36
3dc1cde9
bd622376
bee06c6f
3dff7544
3f1ec64a
3e0178cf
bd478d70
bd8f9064
be029bf8
bcb0a19a
3d600ac1
3c68af29
3d0e2e2e
be332ef7
bd49aac8
3d3df6e4
bd1f3ae9
3e33520f
bd6ce68a
3e600850
be7b983d
3e45966a
be3f5093
3daa5f79
3d5b2ea7
beeedb9d
3ea12067
bda1fc5e
3e07c923
3e88a4d2
bcf67018
3e3d4ac0
3e853cb1
3e5305cf
be1f21d8
3dd233ee
3e12a0a6
3e3845ca
3d4b2652
bdf4bdc0
bb8432a9
bdbb6a94
be157f05
be288c9c
bd5fc1c8
3cdb5600
bdd95ea2
bdd93f08
3de2800f
3dd71593
3e147298
3d647a72
be4638a7
3c6d5552
be42e1a4
be0d8a13
bd03f5fb
3e656b35
be55f134
3df1d7e9
3dba3728
3e01ccff
bcc9dfde
3e76ca4e
3dc8fbb2
3d53b7e9
3dae5139
beb92cdc
be079884
bd3496db
3e4601d9
3e3d4e46
bde25378
bec488eb
3e488949
bc3dd34c
3db8a178
bce49241
bd4dd9bc
bd39c745
bec1a875
3d32e8fc
bafaba5f
be54af2d
3e115739
3a2410d6
bdfb8294
3c5a723d
bd8e6ee0
bdfeb45d
bd35d065
3e414622
3db937d7
3e39294a
3e142e9f
bd8b0680
bd2c8409
3cb17d09
bed4dcd4
3e51a49e
bdc434a5
3b857dd1
be5eb4e4
3dc890a8
3d969319
be2e3531
bbd73c1a
3e5adece
3c1b45c8
3dc13555
be12189a
3d27a9b6
befb8a16
bdcf3f08
be0d40fa
bc8c890e
3e0c531b
beda4038
be41e5a8
bdcde051
3e74f19c
bd29a529
3db838b9
3e35e625
be25b63b
3c21f565
bc95209f
be1507a8
3e0a2463
3e92709f
3e177095
be091de7
3ded724b
3d06cf1b
bd8d7d10
be29b1c2
bd09c671
3eba7fe2
be03e9fe
3e8a0314
befcd82c
3dc84583
bf26082d
3e6c45db
be296d50
bad1389a
3e2863ec
3eb27324
bf355a1f
3edd93a2
3ee7c4b5
be333ea7
3e78ec30
3e303120
3e2a3398
3ee9698b
be327640
be653c95
be721c7f
bd876040
3ebea9bc
be7ebd17
3f34ac13
3db66085
3ea6b6c1
becb33aa
3e4ecb55
3f001ef4
bf3030cc
3ebda82c
bedfc2ad
3e9cdb30
bde1588a
bd8394b3
3da1f94c
3d5f387e
be7cf5cb
3e590998
bf23f786
3ee45a87
3db93a77
3eb1ea68
3ef39d37
beb1996e
bed363b3
beca5d03
3e343f16
3ea089fa
3ea90724
3ec05ab4
bdbf9e8b
3ebeeaf9
bec1ad02
3db08c87
be69d57b
bdac05e7
3f08b009
be343b45
3e3d7f66
3d967078
bead77f7
3e155e1c
be9a69b9
beb43856
3ea0b5aa
3e07a323
bde137b6
3e1059fc
bdf2eaf0
bdd1cad0
bda54f1e
3dcfee45
3d978d17
3e95a6f5
3e0a2b77
bdb2af4d
3d5dd811
bbc5d227
3df01686
3bdb306c
be74098a
3d8a12ff
be8884b2
3dc82be3
bc94b5a3
3d9a9606
bea4249a
be10f96b
beb3672d
bcd6b46a
be4a792e
3e1d6631
bdb3e36b
be82ad4e
3dabedee
bdd501c9
3d9a6f68
3dc78573
3e77b37a
bd578ad8
3e11af68
bcd2370d
be8bc472
3da7cc1f
be4b57e5
bec938a2
3bcc81ae
be3b6ab1
be9fa50a
3d93a1bc
be464c34
3e2a519c
be04d7ec
3db460c7
3dc7f6aa
3da65a71
bda14697
3e92e496
3e54651a
bbfa5331
3d4eed76
3d7b3428
beaebd14
bebbbcc4
3d8cfd1a
bd873793
bd2cda9c
3e35f80b
3d0de111
3e007332
bd1eb206
bd71ea5a
3e193a37
bcaa4ced
bd8bc585
3e2de2ff
3d84d804
bb9f4d5b
3d3663a6
3e33b3c1
3d129e06
3e23c481
3dbb7f3f
3e3988e3
be16fba4
3d6b509a
3e8f40f9
3e30b4d4
3e293fe4
3e3be971
3c643a81
3ea3c349
3dd3993e
3e906220
bdfb0d69
becfd189
3e0fb557
be445787
be8a325f
3e0b3100
be3c4169
3c8b5d4a
be7813b6
3e52704a
3e34873b
3d9bad64
3df50fd1
be098ad0
3d9b4ca9
be37d0cc
3db132aa
3ca92414
3e809261
bda3d98c
baf9c9e0
be4d9997
3e2f7d16
3e2b331e
bd282772
bcb084b2
3e67b7d5
bc62274b
bd0cdd03
3e3a74f5
bdf8f1ef
be96546e
3cacb70e
3e89d5b7
3d46a097
3e0c223d
bd314eb0
3e456332
3ece2abb
3e42ca0a
3ba9b807
3d2e3514
bf0a8d0a
bcaa03e7
3e91a591
bd69db6a
3e755bb0
bcb331a5
3e532261
bd0af978
3dc0a8aa
be934513
bb1c956c
be936134
3e823502
3dafd240
be95ec4e
beed3b44
be07ca2d
3e221418
be630cac
bd6be6b9
bdba235f
3db025a8
3de5507f
3ef6ecbe
3e6860df
3d8524bb
3e01ab0a
bd2314da
bdb94bb5
3d1d2f5a
3b89c4c4
bcea06ab
bc5a8c80
3e1f5ba2
3da41e8b
bdac9677
bd420ed1
3e1b3ed0
3e883d20
bdb7bf10
bd06dc8a
be4b5a76
3c873192
3e8c2597
bdf2f3b9
bea69872
bd623fb6
be5b87b8
3d335f9e
3e8813b5
3e6c97ed
be6424f4
3e86d8b8
3ea28437
3e25680a
bc0077cd
bdc3ba9d
be97e43e
3d53a541
3e3fff33
3d6008cb
be76ea5e
3e40f97b
bdbe4520
3e4ccf5e
be03d9fc
be5a0d1a
3daeec48
3e36b6ae
bdad59d4
be9d3cea
3e926841
3dbc4af9
3b87cfa9
be5accb5
3dab7ba7
bd86103c
be3456f2
3df2baa0
3e6448b1
3e0c596d
bcf6ccf4
3cbd8607
bd8d39ca
3e4d8cb3
ba505888
bd9fcc1c
beab643e
3dbda419
3cbff1f1
be5ecb47
3e4c5934
3d8f5908
bd0ee5af
be1cd500
be5ec4c4
3e69896d
bd1d51b6
3e47c528
bec527cb
bdae8e38
be3de10f
be9e9f0d
3c05ee72
3ed2fb9a
3e6ff3d0
bdc4cf19
bd572951
bc931879
bdc534d9
be61d4f2
3dfdddf5
3e50a73a
3dc54736
3e1728d4
bcdfc758
be053696
be422727
be86aa74
be892de2
3e3be1df
3e445e57
be2d4583
bec2a2d4
3e6681eb
3ec78e55
be4644b6
3e479464
bf44e21c
3da83fca
3e12d532
bd171e24
bda53bfe
3e6a231c
3e0310ac
bd4e3d84
3ee8078c
bd2a84cb
3d0c302c
be86398a
3f18a12d
beacef4c
3dbadd5b
bf98ff0d
bf16f0c6
3e6cc6c9
3d6d5624
3e779b94
be50b020
bd8c5295
3f1deaa8
be888396
be2ae40b
3ee7f46c
3eab00c9
3db7fbbf
3d182067
be642985
be9c69a1
bd777804
3d462bf8
3dcc846d
bef444b5
3e6a4d3a
3e7c5321
3deb7074
3e5796d9
bea75668
bde99920
bf1269db
be1160c9
3e84dcbf
3cc625e3
bec69758
be248c3a
3db695ed
bed96ee1
bdae1b80
3e0a74a0
3e107eb6
3e538483
3eaecdbf
3eb74a5d
bdada514
bec7a23d
bd09d21b
3c9cdd17
3cadff75
be7a41e0
bdab59c5
be2e4593
3e350592
be1063cd
3dd2bc3e
3d68da00
bdf8cef7
bd6f5aa7
3e0e50f9
3ec0bb35
3d114adc
3d35644b
3e61ff63
be9feb93
3ce8d93d
3e23da4f
bed0dc45
bde0534c
3d836313
3ea2af83
be18c6ab
3e2a463d
3b9c056a
be430c70
be29a3bc
bc3d751d
be2557d9
bd741146
bde4b700
bdedaca6
3d254eaa
bda9843a
3e30180d
bcfe202d
3d4d3425
3d078160
3e3874ec
be9398f7
3e6afc27
be2ec634
bdab8cef
3ddefe6c
be3f5c2a
3e2f89fc
be4f62af
be9abd31
3dbeedcd
3e396561
3e8273df
be0be5d1
3dd8f876
be12873e
3ea2e999
be7aac90
3df69eef
beb411b8
bdf2a49f
3deac148
be899251
bd26f3ec
bcb27db5
bdac83dc
bdc38e61
3e618628
3d93508f
3dc09b5a
be3cad3b
be225a25
3e621ea7
be2bbcb4
3dd3132b
bda61179
be15b77f
3d89c215
bd720763
3c4c1273
3e96c0b1
bd8fa3e8
bdb1d968
be81634e
3e1b8b1e
3e854f11
3d9bd629
bc9e25b4
3dae3321
3d60b653
3e48bacf
be4df15e
3df973a5
be3c93a3
3c13b270
be383744
be4570e1
3d852338
3e15a706
be63883c
3e82dad5
3e8c7a24
3df92c32
bde1cc4e
3d338fd0
3d15b203
be49e2bf
3d3ede18
bddc583a
3e8a56be
3e410805
3e9165d9
3e4ae1b9
be0a3be6
be4efb95
3e87618c
3dacf45e
3c6a9e13
bce17aaa
bc9d8b14
3deb0ebb
3cd07f0b
3db27260
3e6eda2a
be740bdd
be96430f
