3e39845d
bf0488d3
be914d38
bd8290f3
3e8e783f
bf559800
3ebab4a1
bdfe894a
bf60d4f2
be76835c
bee719aa
3d78894f
bec1ea0b
3e9cb7bc
3eb81bb6
bf330a74
3d7d7f8a
be7aecbc
be2bddb2
bf3dcad2
be20e381
bf0bd75e
bf1ed1b0
3d21680b
be8c8ec2
beb750f9
3ebfb1d9
3f154e6d
3e74f15e
bef689e8
3c929d60
3ea2a9f7
3e20df67
3d7c8e29
3e8a0484
be139a30
3e0f4410
3cae2d7b
3d8c71d7
be40d3ea
bed55602
3ed83ef1
3e011da4
beed9a1d
bd72e2d1
be4a02c2
bd064efb
3ebd1970
3e376172
bd647d25
3eb196a7
be4970e3
bdd81e4d
3ddfd936
bf66f1a0
3dbc63b0
3d937fd5
bf72ea83
3d6b20b3
bf04c97f
3da7f327
be047080
3e3b5bac
3e49f058
bf3d6319
3e93b812
bf1c9394
3e1686c5
be98254c
3de6b181
bd5ebe99
be022f37
bf02a7de
bcf4a69f
bcb6b9d8
3e25b0d5
3e857cbf
beac59df
bef2df88
bd9be6d1
bbcb80af
3d907b7e
3e4f4619
bd93efe3
be67bf15
be3ce03e
bd849124
bef24b34
be3c4321
be14d1ec
bf0127cb
bec731b7
bf25b95c
be2936ce
3e9cdc6d
beb16d2e
bf2510aa
bf5f2003
bede2181
3e41b74f
bdade504
3de67d20
be9fbaf3
3e2074c0
3e8b190f
bf23adaf
3e106ddd
3e5725a2
3e357607
becde13e
3e673f03
3d73143b
3dd9c5f7
bf4689c4
3d7e981b
3e97292e
3e56bda2
3eb9bfbb
3c8cc755
be846297
bea0ea3a
bef5698e
be882e0c
3e880863
befea65c
be9c5418
beae2372
3e9394b6
3e8c7c07
bd9e8ac9
3de35f9c
be35ee35
bf0a7b59
bed0e4bc
bd890e8d
bdc47b52
bd766941
bf2ae38b
bf775497
bd8fb12e
be10597f
be10305d
3ed4295a
3ce13c2f
bea53cd1
bf24c40f
bf757489
3e30ce61
bed119af
3c394b73
bc087ea5
3e3cecdb
bba41a82
bec4a194
bf0a72b6
3e2ba7aa
beb0fdab
3ec99001
3b1e75f1
bf1e2a6e
3e10c4c1
bec3e656
bf4fb74d
bf0079ec
3e90809a
bee06152
3eab80bb
be7b261a
3ec5ae7a
bf271126
bf350a9e
be57a880
3e292c38
bea5bc3c
beac8dd1
3d8c1ce4
bee6a5f4
3e7df4bc
3e0b9c0f
be9403c2
3eba0ebd
3f244b07
bf3dad3e
bf15ac1e
bf4e9c1e
bf124fb9
bf037511
bf5d41bf
bf3f2e8e
be985587
be475c8b
bec4d5d7
bd41db06
3e8bf8ad
bf268d9a
bf018b91
3eda83cd
3e17165d
bebd5c01
3eacd738
be2095e6
3e6090bc
be91ecf1
beacfd9a
3db3ce84
bf1e4ecf
bed7f584
3dc71c77
be67f739
3dea4644
bece319b
3e63b2a1
3e8087a6
beb1ce3c
3ea49d5c
3ebeaf39
3e1c8853
bd879008
beee3143
bf2bc7ee
3e4a46ff
bf1e9c78
bf2fab75
3e1a82f4
3e4b378b
bbb9c4c3
be1beeca
be92a1cb
3d28f01f
3e9da0b9
beb79d90
3dcbaef6
bf6867ab
3e885491
be8fc640
3e558558
bd9f0b4a
bef9e448
3e8e2c18
bed78501
3dbf9cde
3e7d2aa3
3ebe6da4
bf3d0aeb
bd936109
bf72782b
3ea18fab
bf1236b1
bf0f41c1
3eac1827
becc7bee
bcefce2b
beb8bce1
bf02a057
bb34b5d1
bf435206
3e986808
bc9548af
3e269a24
3e123c45
be273f9d
bea6729d
3e91b079
3e341b36
bf6dd884
3d32a163
3ddd9b79
be9d9c9c
3e385f98
bf3d9d7a
bf344486
be091742
bf38487d
bf0dedf9
3e90ead3
bef7f78f
bf14b7d5
3d0e26b8
beec167c
bebe5d52
bf24547b
3daa425b
3e47489b
3e852e58
3e66b987
bda85f2d
bf07030c
be6b73ee
3dc10c99
be1dd5a4
bf7e1d5c
3b8033ca
bf47564a
be9d89d0
3e494f75
3e6673ca
bf3f24bd
3e0f57de
bf3b62c7
3d785567
be4ef726
bea154b8
be803195
3e7be084
bea5a817
3dfe400a
bf347c78
be8d7f88
3de0084a
3de04308
beb69505
be95f22d
be8c4aeb
bf03d9f6
bf15e3c3
3f14bb4e
bebfedc6
be174f70
bede110d
be588113
3ed1de68
be865570
bf333f2f
bedbf9f9
be2ba923
bf781116
bf67435d
3ef3bba0
beb40fa1
be0e0839
3da1c598
bf3e238b
bea445c9
bf0047da
bd81a9f7
3d86386f
3e4d2373
bec9f96c
be4ba910
3ca28cf9
be3e3abc
be70115a
beb7a29d
3e7278a3
3e451ad1
be3b9c61
3e47285e
3e3f8034
be7b81cc
bec18350
bf090231
bd354bf8
3dcc0d35
3e80e35b
bf0b4624
bea8845c
3e84084c
bf073c05
becadbf5
be9471e7
be628359
bf28fe86
3e822035
bbdb256b
3d8e653c
3e44a0de
be86ea27
3ec2a44f
3dbea5d2
bd77f3a7
be233092
be7f930c
3e952c21
be20da7f
3e3950c6
be46f3c8
be98b7c5
beab690d
be0c99cc
3e1cf702
3e664abd
bf3b1067
bd1e20a6
bf0bbb42
be88e039
3a8edff9
be018864
bcb356c2
3ebcceaa
bd632d63
3e9f631d
bce57432
be17c0f3
beb13d04
bd5b9940
bea7c320
bf02e74e
be070da0
bec1ce7f
3c7a6514
bf42513e
3e9a1dc8
beefe068
3dc95545
3c114792
bcfaa92e
bedbc561
3db4a016
bf3d0d0b
3e5b249d
bf513e91
bd2d9bd0
3e10a35a
3ea40c10
beec5a95
be1ca7a6
befe86da
be772cd5
be294d39
3d754848
bd38d422
3e61fd1d
3ef5bd9a
bf59df0a
3ef0cb72
bde0e8ee
be330a91
bf50a3ae
bf131b6e
bf092c24
bf3312f1
bf35ea86
be33b913
bf1e77ea
3cd39f0e
3eb8f39c
3e868ab3
bf14d7d6
bf19ed81
3e53a2c1
3e4966a4
bd891e83
3e9845ce
bea75bc0
bf4ad7a0
bd05d103
3d6077b4
3e881cd7
bee3a414
bf281473
bf3f67c3
3ea1182f
bf35a97f
3e91d826
3e40f72f
3e0cab06
bf37c6a3
be39441b
bf0043f0
be1d78d8
bdbf194b
bed07e5e
be6cfed5
befbde08
3e85bf7b
bf0f1cfc
3de26d74
3ef702c8
be9bd274
bf1e1ebe
3db591e0
3ee2130a
be50fe1e
be2f82cd
bf5b8980
be06229b
3c857524
3d025654
bed5826f
bf1ca9c7
3d09b0c3
beb248db
bf09b7ef
3e9bc3a6
3eadc586
3df3bfe0
becc9b3d
bf121861
3e30d450
bf533431
bf351139
3eb78ed4
beac46e9
bf44f6bd
bf2edbd3
3e8304c1
3e94d23a
bed18773
3e3230e8
beba2e55
beb85e5a
bea77ec7
beceab24
bf050288
bf10abc8
3e9ad028
be192d69
bf3305be
3dd53765
3ed9ea95
bdd6e892
bd742cf9
ba726099
beb200ac
3e3053a1
be181501
beb71c7b
bdd718e8
3e911151
3e23456d
3d752b03
be906e9e
3e0e78d9
beb7cbbd
be3a444f
beec3680
bdbe4809
be949abb
bd53b312
be615d75
be12f9ff
3e18ea72
be222e62
be997051
3dd58dbf
bdc69800
becbe58d
3cca27a2
3e98873d
bf0d69cd
be87025c
3e80fa49
be8a9854
be6c1333
bf02bc51
bf26c06b
bf80d9e8
3d98d6de
3caf3a79
3eba400b
3de350e3
be0714ea
3ba54ba0
be4a9469
3e72f04e
3e62ba3f
bea7ac38
be8fe4e2
bd8d0eb1
bd8a7245
be83af61
bf122b84
3e06d360
bef5202e
be8b1110
3d1f63d2
bc8fb8d6
3d0f2a33
3e3f631a
3d44026d
bd81538d
be92cfee
3e12659d
bed577ab
3df6f475
3e0a58e8
bee2ec9c
bf1ba98b
3dfb7a81
3e896d46
3e8c36e6
3df29858
bd5ed92b
bef13607
bf33a51b
bf789e37
3e5fa146
be850fc9
3e73097d
bedb64ae
3e755c77
befba7e3
b942377e
3e7d0e17
beb00a68
be91548a
be5091a7
bf03d97f
3d5b0b77
be70d245
3e9ede06
3f28aac7
beb959de
be1165b5
bd9b1399
3e823bce
3ded9281
3e80f105
beaa32cf
bd83e23a
3e89e038
bf116a80
be339000
bd09a572
bf42f6df
3e78bd36
bec33b72
3d6b450d
bf54d49a
bf458602
bd824a2f
bee691cd
3e4642e0
3e16291b
bf2fd8ac
bf0a7b29
3e8d9b77
3d87230b
beffec0c
bf084908
be7619aa
becb295b
bce0fb9e
3e25bd03
3ebf652d
bdd9d094
bee15966
3d1b2590
bda32a1e
bee1ba4d
