3d24c7ba
3e8ed2d4
bf2f039f
3e28c0d6
3e7aa7b7
be9c9c62
3e470fc5
be20da07
bf0f9029
3e0b333b
be0e4844
be94445a
3eb121c3
3e8eb964
3e80d854
bee06f8c
be83b094
3e132193
3ead5611
bf1c5bbf
3b696522
3eb21fb2
bc3fa73e
bde60a55
be91d7b4
3e28df0c
3e5a5000
3e0dbbe5
bf0b3425
bdb6143f
3e7e2262
bd36371e
3e935289
3eab3c3a
bec345e0
3e00be80
bdf4cf4a
be6f1f36
3e91f212
beab5c2d
be096862
be9e302a
bf498b91
3e417bf7
bcda1ef2
3e4fd8ed
3e8f96f4
3e87ae4b
be4dcd09
be62f7ee
bd1b2575
3e764c3a
3e210f04
befa68ed
bc17da78
bf18234b
3e7110c8
3e4174d5
be4ff026
bed7c363
bf0c1e48
3e4fa3f6
be88405d
3e8dea5e
beb90975
3eb82e1c
3e9d20c8
3e00039d
be9a908c
3e99f388
bec1d767
3e99d04e
3e60a73f
be960e03
3e7594d6
3d5b381b
3ce46804
bef80995
be53e98a
bc9e8eea
3e40f817
3e68e6bd
bc705299
be1e4c1e
bf01b44b
bdf1b58d
be7c9901
bd3482ee
3ea684a6
bb99450a
bea15db9
3e4779ea
bd1347c9
bd9d7dc1
bb3d7a6c
3e659a0c
bdc7735b
3e6a1bd0
3ecbf415
bea6fc9a
3e15f952
bda01c2f
3e39d573
3d4e200c
3e97c5c4
bedf39c1
3e824cf8
be9f8a38
3e807071
3e6e763d
3f03a7ac
bef14431
bdf7aadb
be5db7c9
beb183f7
bed51c0d
be072702
beab3a01
be88943e
bd1f9b69
bdde6f84
3e097835
3ea02e0d
bd829950
be88ad7b
be882433
3e0f544f
be6c61ab
3d1b54cc
bf0cba41
3d702561
3e8763b4
bf151da1
3e14efa1
be50958a
3e75a15b
bea4380f
bdbbba8b
3ea9e544
3e8e7403
3ee65657
becd2eea
3e002fe1
be79319c
bedd3670
bead7058
bde43bed
3dfabbf0
be437c2e
beedfe41
3d45f0ac
be4ce057
be700864
be9ff066
beae582d
3e517f06
3e873bee
bf15ed4e
bd5541b8
bf272d1a
be58cdc9
bdf137f6
3e5dd0e5
bd97ca08
3c91aa4b
3e3592d5
beb93828
3e512b21
be2e809c
3df593a0
bee5df29
3e8beb41
beaca3b9
3e947123
bda5a162
bec40689
3e85168d
beaa3c64
3ca3105f
3e080771
3e3928ef
3dc09ba1
3df4fe40
3e3359dc
3e36910c
be8171de
3d91acfd
3e9bd80d
bf02885c
3df8d1c1
bdeb088b
be5e269d
bd9c623f
3eb0b442
bed5d9a9
bdf1e114
be96302b
3e505c7b
bce1e314
3c4192ae
bef850ec
bdbd8011
3adba4ee
3e71c0ff
bebfe1b3
3e050a9c
beeb0868
bdd2b5b5
bd720b8d
3eab0da6
be787332
be8ea5a2
3e376aaf
beba7d0f
3e31bde2
3ca44464
be8e43f9
3e97a8e8
be4df5a5
3d3ae1ec
be967f5c
3d852e87
3be06b2f
3e3dba18
be41be6b
3eca4772
bc0e2374
bf1c6f21
bdc9a0d5
bf384322
3e017886
be13f35d
be2e16dd
3d099f92
be79d85b
be3b1f8b
3c652e38
3e045d59
be522539
be5310fd
3d9a71ba
3dad6956
3d68f0db
beb28779
be736344
be820e5e
be5a511e
3e0bdc61
3ce6b976
bc39f3d7
be114738
bce34229
be82ec82
3e03d272
bee7a156
3e5f0b67
bef2002d
3e4f6ade
3e865ee6
3ea0680b
be51879a
3d8f45c1
3de000df
3e2a6b9e
3ea50d64
3e9c09b8
bf50d7c9
3e9a4bfd
bed78286
3d6242cb
3e85a260
bd9b5e34
bd85cee9
bf0537ea
bd1bf8f1
bf4c91b4
bd0e0cad
be817040
be37eb05
3ea3ff5b
bf0c697e
3d5f9269
be130d8d
3e0b682d
be61cec3
be29c4e3
be897ff5
be9df100
3e8097a2
be9c81bf
3dd43848
bf3f0c51
3d82d83d
3e816dc4
3e647c9c
3ea6535f
bf2bf7e0
bca38f6e
be8ba41c
3e0dc54d
3e4d9bf9
3e231f96
beb30817
bd8f3427
bea52996
3d387acd
3ea30050
3edfcfcb
be430fb3
bf199eae
bdc11a6e
3e2616e9
bebb6145
be357bbe
3e28074e
be6707bd
be51cc0b
3ecddc04
befb9d66
3e266dbd
3ea46c7c
bf558b99
bf01e217
3d62e725
3ebdda80
be20d7dd
be0b0b79
be11e2d1
bc7c48d7
3e9964fc
bef0f913
3c28ba1b
beabaea9
bf0ce8df
bce4645f
3d471e96
3e2ec6a3
3de869f5
3eb7c23d
3d87c7e1
3da3ad1f
3ec179d5
3ea13e78
bec43e13
bdb85f3e
beea03f0
3e12d26e
3e94e07c
be180754
bcc809c3
be88a1eb
bd40390c
bd672323
bf1f32c5
3ec411c0
be2be2e6
3e97f17a
bef12630
bde02f7d
3d8a6f0f
bebeee92
3cc88915
3e253e59
be8359f2
be5ed4f3
be0fd8c2
3e851d76
3d707404
3e8c618f
bf0ef7f7
beef5028
3ae9ed87
3db92eb0
be2ed0df
be37fb34
3e807d34
3e63be4e
be5b940c
3e7030c3
be73e33e
bf2785e0
3d257fb2
befdb5fc
3da0c7ec
3ea846e2
bdd5c805
bf1c0765
be0f707b
3d9d06b8
3df82088
befdfdfb
3eb2bd3b
3ed96b8d
3e5381a2
be6c8ba0
be92f946
bdcd964c
3ea5ca8e
bee58dc4
bf0731c0
3cfe3746
be88d5fc
3eaddac8
bd60775c
be57f586
3e3f3053
3d44b8a2
bf0cfcb1
3d137c64
3e7aef91
bd4a9fea
beb36af3
3d724472
3e1771bd
3e97b6ad
bf15c25f
3da95c24
3e15e275
3e5aeaf8
3ca3aef1
3e878d34
3e641c23
3d09ef8c
3e496597
bf0efd14
3dc6f767
be02c543
be8d1ec0
3e0353c0
3e4e1c1b
bec2822d
bdc902d8
3dc9c947
3e1edec7
3d8b5b1e
be8ae7eb
be24a530
3e564ab3
beb1696c
beeb7f86
3e346d11
be8b0489
3d165deb
be71cd01
ba2f6a1c
bef4d204
bdfc89fb
3e821930
3e87e3cc
3e8ab3f6
3df0c4c0
beeb23d4
3de4a1b3
3e061050
3b0e7ab9
be93633f
3e3687c7
bde728b0
3c1e8c3b
bf40b0ee
3ed6e7e1
3eb9093c
bceaa81a
bed921bf
bef5f7cb
3eb8e94b
3e9209c5
3e7e4c34
bd4c16a4
3d9cc488
bf1a733f
3d60c600
bdfe00c6
3eb5806b
bd82aaad
3e7e7577
bf191ffe
beda7ca8
3e49b3b8
3ebc4050
3e6b8d7a
be36eaa6
be2ca8d2
be31f512
3dbc370d
3e705656
3eab1656
bea209e3
be7e0ee1
be9afc96
befbe818
be308724
3ec63198
be57ab4e
bedc446f
be2ef898
bce66c7a
3e700951
bda2cd73
bf0f6fed
3d8b7ab2
be166d91
3ee69771
3e9fe92b
bdc06bd7
be046534
bec24dc2
be09e65c
bdf07f32
bd5c5e47
bf2c294d
3e9d1fe5
bdcf1fce
3ea86d73
3e448586
3da61382
bf448d8d
3e397618
bd431f19
3e015145
3da50c87
bee5b8ce
be2bce52
3d331aaf
be1db46d
3e112f60
be94e16f
bc8cfaa4
3e15e3f9
bd691c47
bd4035ba
3e805eb1
3d8d02d3
3e6a5541
3e74b73f
bed8a84e
bed7edc3
3e134c35
3e8bbbf6
be952031
bd7d2db9
3d16dffe
bf0dc285
beea6b59
be811017
3ef0c07f
3e8ecd76
3e9f51dd
3d993bf6
bf04e5e0
3ca68e79
be99391f
3ec9617d
be075205
be6f87f1
3e511668
be8eb3fa
be8df46a
beae6541
3ee30abd
3ea91a91
3e071659
bea6f5ee
3d95f843
3e4d6149
be5d339f
bba7e791
3dc476a3
3e917a34
3e2c1ca8
3ec4e2b7
bee40677
3ccef6b5
bc2b633a
bedbba80
bcb2b3a0
3cd7c240
3e3177c0
be1d2835
3d27b4e1
beb18308
bed3cda3
bf03967b
be88d3d0
3cd1cd91
3eae0197
3e1c35c5
bf02b925
3e1d03cb
be10981b
3ecbd4d3
beca6ad2
beb72d25
3e84480f
be56a279
bead647d
3e3be7cd
be8d9fe3
beb5e6a0
3e4ef02f
3e673c6f
3ccb91cd
be85dc6b
be51dd85
3eda107e
bef7861a
bcace17a
bd5567b6
bc401b82
be19b9d1
be82c49a
be3d7b27
be1cef15
be2e35b6
3e776966
be7163fc
3e8e3bae
bef4d918
bef27585
3eba5af7
bd933719
be9d5dda
be8ea02f
3eae24aa
bf282519
3e1e8398
bd94195e
bd54469b
3c536277
be261c0d
bc38c89e
3e1afa74
bf121131
be83d407
3e8b85d3
3d3d4300
be2723df
be9fbc18
be84c79b
be66c6f8
